/* Copyright 2018 The TensorFlow Authors. All Rights Reserved.

Licensed under the Apache License, Version 2.0 (the "License");
you may not use this file except in compliance with the License.
You may obtain a copy of the License at

    http://www.apache.org/licenses/LICENSE-2.0

Unless required by applicable law or agreed to in writing, software
distributed under the License is distributed on an "AS IS" BASIS,
WITHOUT WARRANTIES OR CONDITIONS OF ANY KIND, either express or implied.
See the License for the specific language governing permissions and
limitations under the License.
==============================================================================*/

// Automatically created from a TensorFlow Lite flatbuffer using the command:
// xxd -i tiny_conv.tflite > tiny_conv_simple_features_model_data.cc
// See the README for a full description of the creation process.

#include "tensorflow/lite/experimental/micro/examples/micro_speech/micro_features/tiny_conv_micro_features_model_data.h"

// We need to keep the data array aligned on some architectures.
#ifdef __has_attribute
#define HAVE_ATTRIBUTE(x) __has_attribute(x)
#else
#define HAVE_ATTRIBUTE(x) 0
#endif
#if HAVE_ATTRIBUTE(aligned) || (defined(__GNUC__) && !defined(__clang__))
#define DATA_ALIGN_ATTRIBUTE __attribute__((aligned(4)))
#else
#define DATA_ALIGN_ATTRIBUTE
#endif

const unsigned char
    g_tiny_conv_micro_features_model_data[] DATA_ALIGN_ATTRIBUTE = {
  0x18, 0x00, 0x00, 0x00, 0x54, 0x46, 0x4c, 0x33, 0x00, 0x00, 0x0e, 0x00,
  0x18, 0x00, 0x04, 0x00, 0x08, 0x00, 0x0c, 0x00, 0x10, 0x00, 0x14, 0x00,
  0x0e, 0x00, 0x00, 0x00, 0x03, 0x00, 0x00, 0x00, 0x64, 0x64, 0x00, 0x00,
  0x0c, 0x00, 0x00, 0x00, 0x10, 0x00, 0x00, 0x00, 0x20, 0x00, 0x00, 0x00,
  0x01, 0x00, 0x00, 0x00, 0xa4, 0x5d, 0x00, 0x00, 0x0f, 0x00, 0x00, 0x00,
  0x54, 0x4f, 0x43, 0x4f, 0x20, 0x43, 0x6f, 0x6e, 0x76, 0x65, 0x72, 0x74,
  0x65, 0x64, 0x2e, 0x00, 0x0c, 0x00, 0x00, 0x00, 0x84, 0x5d, 0x00, 0x00,
  0x34, 0x5b, 0x00, 0x00, 0x04, 0x5b, 0x00, 0x00, 0xf4, 0x0a, 0x00, 0x00,
  0xe4, 0x00, 0x00, 0x00, 0xdc, 0x00, 0x00, 0x00, 0xd4, 0x00, 0x00, 0x00,
  0x44, 0x00, 0x00, 0x00, 0x3c, 0x00, 0x00, 0x00, 0x34, 0x00, 0x00, 0x00,
  0x0c, 0x00, 0x00, 0x00, 0x04, 0x00, 0x00, 0x00, 0xcc, 0x9c, 0xff, 0xff,
  0x16, 0x9d, 0xff, 0xff, 0x04, 0x00, 0x00, 0x00, 0x18, 0x00, 0x00, 0x00,
  0xcf, 0xfd, 0xff, 0xff, 0xb1, 0xfd, 0xff, 0xff, 0x4d, 0x03, 0x00, 0x00,
  0xde, 0xff, 0xff, 0xff, 0x26, 0x02, 0x00, 0x00, 0x75, 0x00, 0x00, 0x00,
  0xf4, 0x9c, 0xff, 0xff, 0xf8, 0x9c, 0xff, 0xff, 0x42, 0x9d, 0xff, 0xff,
  0x04, 0x00, 0x00, 0x00, 0x80, 0x00, 0x00, 0x00, 0x46, 0x00, 0x00, 0x00,
  0x94, 0xff, 0xff, 0xff, 0xd0, 0xff, 0xff, 0xff, 0x00, 0x00, 0x00, 0x00,
  0x01, 0x00, 0x00, 0x00, 0x20, 0x00, 0x00, 0x00, 0x00, 0x00, 0x00, 0x00,
  0xe5, 0xff, 0xff, 0xff, 0xfe, 0xff, 0xff, 0xff, 0xe0, 0xff, 0xff, 0xff,
  0x1e, 0x00, 0x00, 0x00, 0xfe, 0xff, 0xff, 0xff, 0xef, 0xff, 0xff, 0xff,
  0xf9, 0xff, 0xff, 0xff, 0xf2, 0xff, 0xff, 0xff, 0xfd, 0xff, 0xff, 0xff,
  0xff, 0xff, 0xff, 0xff, 0xfc, 0xff, 0xff, 0xff, 0xf1, 0xff, 0xff, 0xff,
  0xdd, 0xff, 0xff, 0xff, 0xe5, 0xff, 0xff, 0xff, 0x07, 0x00, 0x00, 0x00,
  0x04, 0x00, 0x00, 0x00, 0xfe, 0xff, 0xff, 0xff, 0xfe, 0xff, 0xff, 0xff,
  0x00, 0x00, 0x00, 0x00, 0x08, 0x00, 0x00, 0x00, 0xe1, 0xff, 0xff, 0xff,
  0xf6, 0xff, 0xff, 0xff, 0x01, 0x00, 0x00, 0x00, 0x2b, 0x00, 0x00, 0x00,
  0xff, 0xff, 0xff, 0xff, 0x88, 0x9d, 0xff, 0xff, 0x8c, 0x9d, 0xff, 0xff,
  0xd6, 0x9d, 0xff, 0xff, 0x04, 0x00, 0x00, 0x00, 0x00, 0x0a, 0x00, 0x00,
  0xa6, 0xb5, 0x98, 0x91, 0x85, 0x78, 0x67, 0xc3, 0x73, 0xc8, 0xa7, 0x6b,
  0x7a, 0x98, 0xd6, 0x43, 0x7c, 0x78, 0x65, 0xa0, 0xc1, 0x74, 0x81, 0x74,
  0x61, 0x6f, 0x75, 0x8c, 0x84, 0x89, 0xa4, 0x81, 0xa3, 0x7c, 0xa2, 0x90,
  0x97, 0x6d, 0x57, 0xdb, 0xac, 0xbc, 0x85, 0x99, 0x7b, 0x65, 0xc7, 0x81,
  0x80, 0x7d, 0x7f, 0x89, 0xcd, 0x6b, 0x92, 0x74, 0x66, 0x7f, 0x9a, 0x66,
  0x6f, 0x84, 0xcc, 0xd6, 0x94, 0xbd, 0xcc, 0x78, 0x96, 0x76, 0x6f, 0xb6,
  0x73, 0xac, 0x82, 0x5d, 0x9d, 0xba, 0xad, 0x72, 0x6c, 0x7d, 0x63, 0xbc,
  0xb7, 0x76, 0x7e, 0x7b, 0x5e, 0x89, 0x67, 0xb0, 0xb6, 0x89, 0xae, 0x7a,
  0x83, 0x77, 0x83, 0xae, 0xa7, 0x6c, 0x84, 0xa3, 0xa3, 0x94, 0x7b, 0x96,
  0x70, 0x8e, 0xab, 0x83, 0xa3, 0x6c, 0x83, 0x95, 0x9d, 0x79, 0x75, 0xa7,
  0x7c, 0x7c, 0x8a, 0x6a, 0x76, 0x9c, 0x94, 0x90, 0x93, 0x8f, 0xb9, 0x74,
  0x78, 0x82, 0x51, 0xa9, 0x5a, 0x8a, 0x79, 0x5f, 0xa0, 0xca, 0x80, 0x6c,
  0x7f, 0x7c, 0x8d, 0xb1, 0x9c, 0x6e, 0x7e, 0x8e, 0x5a, 0x74, 0x6d, 0xa6,
  0xd8, 0xb8, 0x98, 0x6f, 0x85, 0x71, 0x7e, 0x7f, 0x97, 0x76, 0x79, 0x69,
  0x67, 0x65, 0x8a, 0x65, 0x7c, 0xa4, 0x6c, 0x6a, 0x9a, 0x79, 0x78, 0x81,
  0x60, 0x73, 0x78, 0x84, 0x5a, 0x66, 0x82, 0x81, 0xa8, 0xad, 0x77, 0x7b,
  0x73, 0x97, 0x89, 0x88, 0x66, 0x83, 0x57, 0x70, 0x49, 0x7b, 0x67, 0x4d,
  0xbc, 0xc6, 0x61, 0x4c, 0x53, 0x93, 0x8b, 0x97, 0x5f, 0x8d, 0x69, 0x81,
  0x44, 0x6d, 0x64, 0xbf, 0xc9, 0xa4, 0x5a, 0x51, 0x5d, 0x65, 0x66, 0x64,
  0x7f, 0x6c, 0x64, 0x39, 0x48, 0x5f, 0x81, 0x35, 0xa3, 0xbb, 0x3a, 0x38,
  0x75, 0x7c, 0x87, 0x4b, 0x4a, 0x76, 0x8c, 0x8e, 0x59, 0x6c, 0x8c, 0x9d,
  0xbb, 0xcb, 0x75, 0x65, 0x78, 0xbb, 0x95, 0x81, 0x7b, 0x87, 0x6a, 0xab,
  0x7b, 0xc1, 0x6e, 0x86, 0x7d, 0x8d, 0xcb, 0x7a, 0x72, 0x8c, 0x65, 0x9b,
  0xce, 0x7e, 0x6a, 0x7b, 0x5c, 0x93, 0x5d, 0xa0, 0x97, 0x7f, 0xa3, 0x83,
  0x7a, 0x76, 0x8f, 0x99, 0x88, 0x8a, 0x67, 0xa8, 0xc7, 0xba, 0xa5, 0xa3,
  0x80, 0x75, 0xb1, 0x7b, 0x8b, 0x6e, 0x70, 0x73, 0xba, 0x74, 0x6e, 0x80,
  0x57, 0x90, 0x92, 0x68, 0x6c, 0x68, 0xac, 0xbc, 0x8f, 0xab, 0xae, 0x7a,
  0x93, 0x77, 0x74, 0xc4, 0x97, 0xb2, 0x75, 0xa0, 0x98, 0xa3, 0xa6, 0x7e,
  0x7a, 0x77, 0x80, 0x9c, 0xbf, 0x73, 0x6f, 0x7d, 0x62, 0x83, 0x6b, 0xa9,
  0xad, 0x7d, 0xa1, 0x79, 0x8f, 0x8b, 0xa1, 0xa0, 0xab, 0x77, 0x59, 0xa6,
  0x85, 0x96, 0x76, 0x98, 0x8c, 0x6d, 0x80, 0x7e, 0xaa, 0x6b, 0x72, 0x7b,
  0xa6, 0x9c, 0x74, 0x8d, 0x59, 0x77, 0xa2, 0x8a, 0x90, 0x8b, 0xa7, 0x8f,
  0x69, 0xaa, 0xb5, 0x62, 0x70, 0x6d, 0x6e, 0x78, 0x6f, 0x8c, 0x72, 0x7b,
  0x97, 0xc7, 0x77, 0x77, 0x70, 0x8b, 0x8b, 0x97, 0x8b, 0x66, 0x74, 0xa3,
  0x33, 0x7d, 0x73, 0xcd, 0xcf, 0x8f, 0x6d, 0x65, 0x6c, 0x64, 0x69, 0x73,
  0x83, 0x6c, 0x5d, 0x6a, 0x67, 0x66, 0x82, 0x89, 0x98, 0xa1, 0x5a, 0x6a,
  0x83, 0x7e, 0x63, 0x64, 0x62, 0x84, 0x64, 0x7f, 0x63, 0x78, 0x89, 0x99,
  0xa6, 0x97, 0x7d, 0x90, 0x7a, 0xb0, 0x90, 0x59, 0x70, 0x6d, 0x64, 0x7e,
  0x35, 0x8a, 0x70, 0x57, 0xcd, 0xe0, 0x52, 0x60, 0x59, 0x84, 0x90, 0x87,
  0x4b, 0x86, 0x97, 0x9c, 0x5a, 0x92, 0x61, 0xbb, 0xe8, 0xb6, 0x64, 0x51,
  0x69, 0x6b, 0x6b, 0x65, 0x6b, 0x79, 0x63, 0x36, 0x46, 0x3d, 0x88, 0x3c,
  0x98, 0xd1, 0x40, 0x51, 0x81, 0x79, 0x79, 0x5b, 0x3d, 0x71, 0x90, 0x9a,
  0x6b, 0x74, 0xa8, 0x95, 0xbd, 0xc8, 0x67, 0x7c, 0x8d, 0xb7, 0x99, 0x93,
  0x73, 0x78, 0x79, 0xac, 0x77, 0xb7, 0x83, 0x91, 0x8c, 0x92, 0xa6, 0x88,
  0x7c, 0x9a, 0x73, 0xb6, 0xb0, 0x82, 0x84, 0x65, 0x45, 0x7d, 0x57, 0x88,
  0x85, 0x75, 0x97, 0x74, 0x80, 0x70, 0x73, 0xae, 0xa5, 0x87, 0x6a, 0xab,
  0xc4, 0xa1, 0x8a, 0xab, 0x82, 0x5a, 0xa4, 0x9c, 0x88, 0x69, 0x85, 0x84,
  0xb9, 0x65, 0x70, 0x79, 0x58, 0x6e, 0x91, 0x7d, 0x5c, 0x5b, 0xb0, 0xb4,
  0x90, 0xd0, 0xa5, 0x8e, 0x75, 0x92, 0x80, 0xaa, 0x9c, 0xa1, 0x85, 0xaa,
  0x83, 0xb5, 0xbe, 0x97, 0x7a, 0x84, 0x75, 0xb0, 0xa5, 0x85, 0x87, 0x87,
  0x4f, 0x74, 0x78, 0xa2, 0xb2, 0x81, 0x94, 0x83, 0x6a, 0x8c, 0x6f, 0x89,
  0x9d, 0x8d, 0x55, 0x82, 0x99, 0x8d, 0x71, 0xae, 0x81, 0x78, 0x93, 0xb9,
  0xa3, 0x66, 0x67, 0x64, 0xa6, 0x72, 0x7e, 0x8b, 0x51, 0x71, 0x9e, 0x6e,
  0x85, 0x61, 0x9a, 0x9c, 0x81, 0xbc, 0x7d, 0x80, 0x75, 0x9a, 0x73, 0x85,
  0x73, 0x8f, 0x7e, 0xae, 0xad, 0xc6, 0x60, 0xae, 0x6d, 0x6a, 0x91, 0x96,
  0x87, 0x76, 0x86, 0x84, 0x3f, 0x74, 0x84, 0xa9, 0xce, 0x97, 0x7a, 0x53,
  0x69, 0x52, 0x66, 0x72, 0x78, 0x73, 0x5f, 0x5c, 0x58, 0x5c, 0x92, 0x78,
  0x93, 0x8c, 0x58, 0x7a, 0x8d, 0x74, 0x71, 0x4f, 0x44, 0x70, 0x84, 0x8a,
  0x4e, 0x82, 0x87, 0x9e, 0xa7, 0x96, 0x5f, 0x6e, 0x85, 0xa5, 0x85, 0x61,
  0x67, 0x72, 0x82, 0x7d, 0x5b, 0x5d, 0x81, 0x91, 0xa8, 0xc3, 0x63, 0x86,
  0x68, 0x7b, 0x8e, 0x66, 0x49, 0x8d, 0x94, 0x84, 0x3e, 0x83, 0x52, 0xbd,
  0xff, 0xa0, 0x63, 0x49, 0x7c, 0x5b, 0x46, 0x6c, 0x65, 0x79, 0x6f, 0x49,
  0x3c, 0x49, 0x72, 0x66, 0x9f, 0xc2, 0x47, 0x50, 0x5d, 0x69, 0x7c, 0x4c,
  0x34, 0x7a, 0x85, 0x7d, 0x45, 0x6d, 0x86, 0xb0, 0xb7, 0xb7, 0x50, 0x70,
  0x89, 0xd5, 0x9f, 0x9a, 0x75, 0x86, 0x97, 0xbf, 0x88, 0xd3, 0x82, 0xbb,
  0x8f, 0x72, 0xc4, 0x8b, 0x83, 0x87, 0x7d, 0xa1, 0xce, 0x98, 0x69, 0x7a,
  0x79, 0x74, 0x70, 0x78, 0x6a, 0x7a, 0x91, 0x78, 0x9f, 0x81, 0x7a, 0xa8,
  0x89, 0x7f, 0x77, 0x9d, 0xaa, 0xa1, 0x8a, 0xba, 0x61, 0x50, 0x98, 0xaa,
  0x82, 0x6e, 0x74, 0x74, 0xcf, 0x7e, 0x77, 0x78, 0x5f, 0x8f, 0x84, 0x69,
  0x34, 0x4e, 0xa2, 0xb6, 0x98, 0xc9, 0x9a, 0x9d, 0x85, 0x74, 0x68, 0xb2,
  0x7b, 0xc8, 0x6d, 0xdd, 0x9f, 0x93, 0x99, 0xa0, 0x99, 0x87, 0x8f, 0xae,
  0xb9, 0x6d, 0x87, 0x88, 0x59, 0x83, 0x7a, 0x96, 0xa1, 0x86, 0x99, 0x96,
  0x66, 0x74, 0x77, 0x94, 0x84, 0x75, 0x68, 0x85, 0x97, 0x7c, 0x7a, 0xc0,
  0x6e, 0x6a, 0x76, 0xa7, 0xad, 0x74, 0x77, 0x76, 0x78, 0x7e, 0x8f, 0x8c,
  0x5c, 0x66, 0x91, 0x78, 0x6d, 0x74, 0x8c, 0x95, 0x74, 0xaa, 0x9a, 0x90,
  0x83, 0x70, 0x5b, 0x8a, 0x6f, 0x9a, 0x70, 0xbf, 0xa0, 0x96, 0x61, 0xc1,
  0x83, 0x7c, 0x7d, 0x9a, 0x85, 0x87, 0x7e, 0x8a, 0x69, 0x74, 0x72, 0xc6,
  0xae, 0x77, 0x85, 0x51, 0x73, 0x6f, 0x5d, 0x73, 0x89, 0x9d, 0x61, 0x5a,
  0x62, 0x68, 0x91, 0x90, 0x7f, 0x87, 0x60, 0x84, 0x93, 0x7a, 0x6a, 0x68,
  0x4c, 0x82, 0x86, 0x78, 0x60, 0x78, 0x82, 0x81, 0x8e, 0x96, 0x63, 0x88,
  0x7a, 0xb3, 0x7e, 0x66, 0x5e, 0x7c, 0x66, 0x68, 0x62, 0x68, 0x7d, 0xaa,
  0xb2, 0xb6, 0x65, 0x8d, 0x70, 0x87, 0x8e, 0x74, 0x61, 0x95, 0x80, 0x78,
  0x58, 0x93, 0x62, 0xb0, 0xdf, 0x83, 0x69, 0x4d, 0x83, 0x79, 0x34, 0x69,
  0x6b, 0x90, 0x80, 0x28, 0x4d, 0x2e, 0x83, 0x69, 0x90, 0xb5, 0x1e, 0x60,
  0x6c, 0x8f, 0x7e, 0x27, 0x3e, 0x6b, 0x8c, 0x73, 0x49, 0x76, 0x85, 0xab,
  0xc8, 0xa3, 0x45, 0x61, 0x9d, 0xb0, 0x8d, 0x6c, 0x79, 0x89, 0x92, 0xb4,
  0x97, 0xc4, 0x90, 0xbd, 0x63, 0x74, 0xb6, 0xa3, 0x78, 0x82, 0x83, 0xbf,
  0xc0, 0x89, 0x8d, 0x7b, 0x6e, 0x93, 0x55, 0x65, 0x60, 0x54, 0x96, 0x8e,
  0x75, 0x74, 0x75, 0x9f, 0x8b, 0x99, 0x8b, 0xb4, 0xb5, 0xc1, 0x8d, 0xd8,
  0x67, 0x3f, 0xbd, 0xb9, 0x8e, 0x89, 0x7b, 0x8b, 0xb0, 0x87, 0x67, 0x72,
  0x98, 0x9b, 0x89, 0x5c, 0x25, 0x6b, 0x9a, 0xc4, 0x82, 0xba, 0xa8, 0x7d,
  0x6b, 0x66, 0xa9, 0xbe, 0xb3, 0xd2, 0x60, 0xcc, 0x8c, 0x8e, 0xbe, 0xbd,
  0x7c, 0x94, 0x77, 0xa4, 0xbe, 0x8b, 0x6d, 0x76, 0x66, 0x81, 0x79, 0x92,
  0x76, 0x6d, 0x9a, 0x8d, 0x80, 0x8b, 0x63, 0xa2, 0x9e, 0x66, 0x77, 0x73,
  0x92, 0x71, 0x83, 0xd3, 0x63, 0x51, 0x7b, 0xb3, 0xa8, 0x93, 0x67, 0x7a,
  0x89, 0x84, 0x92, 0x6b, 0x5a, 0x7a, 0x8c, 0x7e, 0x5c, 0x6a, 0x93, 0x93,
  0x74, 0xb8, 0x9f, 0x75, 0x7d, 0x86, 0x68, 0x95, 0x8c, 0xa2, 0x88, 0xba,
  0x90, 0x91, 0x8c, 0xa4, 0x83, 0x89, 0x97, 0x8c, 0x82, 0x91, 0x7b, 0x90,
  0x67, 0x92, 0x6d, 0xc8, 0xaf, 0x77, 0x6f, 0x5d, 0x88, 0x7d, 0x4e, 0x62,
  0x8f, 0x82, 0x7a, 0x34, 0x77, 0x45, 0x84, 0xb9, 0x8a, 0x75, 0x2e, 0x9f,
  0x89, 0x77, 0x88, 0x41, 0x47, 0x72, 0x82, 0x7e, 0x71, 0x94, 0x83, 0xaa,
  0x9d, 0x89, 0x6c, 0x60, 0x93, 0xa2, 0x7e, 0x60, 0x65, 0x93, 0x98, 0x5d,
  0x65, 0x87, 0x7f, 0x9d, 0x9c, 0x93, 0x60, 0x94, 0x6c, 0x82, 0x80, 0x68,
  0x65, 0x6d, 0x75, 0x74, 0x74, 0x99, 0x67, 0xbd, 0xcc, 0xa2, 0x57, 0x4b,
  0x79, 0x6d, 0x56, 0x5c, 0x5e, 0x73, 0x7a, 0x34, 0x48, 0x40, 0x81, 0x6e,
  0x87, 0xa5, 0x2f, 0x72, 0x58, 0x81, 0x89, 0x4c, 0x3f, 0x79, 0x74, 0x64,
  0x5c, 0x75, 0x8b, 0xa4, 0xcb, 0xa7, 0x46, 0x4a, 0x8e, 0xcf, 0xa3, 0x88,
  0x70, 0x86, 0x9a, 0xad, 0xa5, 0xcb, 0x86, 0xc5, 0x62, 0x52, 0xc7, 0x8d,
  0x8a, 0x88, 0x72, 0xd3, 0xba, 0x93, 0x85, 0x5e, 0xab, 0x6a, 0x5a, 0x63,
  0x52, 0x5d, 0x9b, 0x87, 0x6e, 0x8b, 0x6a, 0x90, 0x99, 0x82, 0xa0, 0xa9,
  0xce, 0xab, 0x7c, 0xd8, 0x71, 0x39, 0xa6, 0xc8, 0x7d, 0x7b, 0x6a, 0x88,
  0xbd, 0x75, 0x77, 0x60, 0xa0, 0x68, 0x8f, 0x39, 0x23, 0x5a, 0xa1, 0xba,
  0x71, 0xb4, 0xac, 0x92, 0x63, 0x69, 0xa1, 0xac, 0xb3, 0xaf, 0x8c, 0xb8,
  0x81, 0x5e, 0xbe, 0xcb, 0x8f, 0x83, 0x7a, 0xc0, 0xc1, 0x91, 0x81, 0x84,
  0x8f, 0x83, 0x72, 0x8b, 0x84, 0x74, 0x9f, 0x8b, 0x8b, 0x8a, 0x78, 0x98,
  0x7e, 0x6b, 0x75, 0x8c, 0xac, 0x8b, 0x6d, 0xdf, 0x51, 0x56, 0x6b, 0xc9,
  0x7f, 0x81, 0x71, 0x8d, 0x7a, 0x82, 0x70, 0x70, 0x7d, 0x75, 0xa4, 0x67,
  0x3e, 0x66, 0x91, 0xa4, 0x8a, 0xa8, 0x88, 0x7b, 0x6e, 0x73, 0x87, 0x89,
  0x8d, 0x8d, 0x7b, 0xb7, 0x81, 0x92, 0x7d, 0xd5, 0xa2, 0x94, 0x9f, 0xab,
  0x8b, 0x86, 0x7d, 0x77, 0x86, 0x84, 0x64, 0xa7, 0x9c, 0x8a, 0x60, 0x73,
  0x74, 0x4e, 0x58, 0x6c, 0x6a, 0x81, 0x74, 0x57, 0x89, 0x56, 0x84, 0xa1,
  0x6a, 0x5d, 0x4b, 0xc2, 0x73, 0x64, 0x77, 0x65, 0x43, 0x74, 0x7e, 0x62,
  0x76, 0x8d, 0x91, 0x97, 0x69, 0x7c, 0x58, 0x81, 0x88, 0xac, 0x71, 0x4b,
  0x74, 0x6a, 0x96, 0x5a, 0x84, 0x70, 0x7d, 0xa8, 0x8b, 0x84, 0x6c, 0xb6,
  0x78, 0x68, 0x8c, 0x85, 0x6d, 0x83, 0x81, 0x8d, 0x88, 0x7b, 0x66, 0xc6,
  0xb5, 0x70, 0x6d, 0x3b, 0x62, 0x4f, 0x4a, 0x59, 0x64, 0x6b, 0x7c, 0x44,
  0x73, 0x4f, 0x6d, 0x81, 0x7a, 0x94, 0x20, 0x92, 0x72, 0x9a, 0x76, 0x48,
  0x37, 0x69, 0x76, 0x71, 0x8b, 0x80, 0x8e, 0x76, 0xab, 0x97, 0x6c, 0x4f,
  0x7e, 0xba, 0xb9, 0x8a, 0x7d, 0x79, 0x9e, 0xcd, 0xbc, 0xd0, 0x74, 0xaf,
  0x72, 0x3b, 0xae, 0xb6, 0x81, 0x81, 0x85, 0xb9, 0xd4, 0x91, 0x7a, 0x7b,
  0xb6, 0x7e, 0x7c, 0x64, 0x3e, 0x5d, 0x9c, 0x7b, 0x8d, 0x5d, 0x96, 0x8a,
  0x9d, 0x83, 0x8f, 0xae, 0xd3, 0x90, 0x7f, 0xec, 0x47, 0x2b, 0xbd, 0xc9,
  0x77, 0x8b, 0x90, 0xa5, 0x9c, 0x8e, 0x65, 0x70, 0x9a, 0x9e, 0x9a, 0x25,
  0x06, 0x55, 0xa4, 0xb3, 0x7c, 0xb2, 0xcf, 0x8e, 0x87, 0x7d, 0xa6, 0xca,
  0xb7, 0xce, 0x7c, 0xab, 0x7b, 0x62, 0xad, 0xad, 0xa5, 0x8d, 0x8b, 0xdc,
  0xba, 0x7c, 0x7c, 0x7d, 0xb7, 0x79, 0x61, 0x8d, 0x61, 0x62, 0x8a, 0x99,
  0x77, 0x75, 0x65, 0x8b, 0xa8, 0x91, 0x90, 0x82, 0xad, 0x7d, 0x84, 0xd0,
  0x64, 0x4b, 0x7e, 0xd1, 0x8e, 0x7c, 0x90, 0x91, 0x8f, 0x7f, 0x8b, 0x75,
  0x95, 0x80, 0x9f, 0x50, 0x45, 0x62, 0x84, 0x9c, 0x75, 0xa7, 0x96, 0x66,
  0x8b, 0x86, 0x94, 0x8b, 0x94, 0x86, 0x77, 0xc3, 0x77, 0x6d, 0x8a, 0xce,
  0x8d, 0x72, 0xa5, 0xa4, 0x90, 0x8e, 0x88, 0x8b, 0x9e, 0x91, 0x85, 0xa1,
  0x9d, 0x69, 0x5e, 0x63, 0x89, 0x59, 0x62, 0x70, 0x7f, 0x9a, 0xa5, 0x58,
  0xa3, 0x43, 0x78, 0xd1, 0x6d, 0x66, 0x51, 0xca, 0xa0, 0x85, 0x75, 0x54,
  0x4e, 0x69, 0x8b, 0x70, 0x95, 0x8a, 0x89, 0x6b, 0x6f, 0x80, 0x70, 0x84,
  0x78, 0x94, 0x79, 0x6b, 0x6b, 0x7c, 0x85, 0x7f, 0x93, 0x81, 0x76, 0xc1,
  0x82, 0x92, 0x66, 0xce, 0x8d, 0x8b, 0xae, 0x93, 0x4a, 0x6d, 0x6d, 0x76,
  0x96, 0x7e, 0x63, 0xa5, 0x98, 0x86, 0x48, 0x63, 0x84, 0x69, 0x57, 0x73,
  0x71, 0x76, 0x94, 0x2b, 0x8e, 0x25, 0x84, 0xac, 0x66, 0x85, 0x30, 0xaf,
  0x85, 0x74, 0x84, 0x4e, 0x38, 0x76, 0x78, 0x5d, 0xa2, 0x74, 0xa4, 0x6f,
  0x7b, 0x95, 0x63, 0x57, 0x84, 0xa6, 0xc0, 0x88, 0x7f, 0x77, 0xb4, 0xe2,
  0xb9, 0xb6, 0x8e, 0xad, 0x50, 0x56, 0xbf, 0xbf, 0x7d, 0x80, 0x7e, 0xd3,
  0xb5, 0x98, 0x68, 0x89, 0xac, 0x8b, 0x63, 0x52, 0x16, 0x63, 0x8a, 0xb1,
  0x66, 0x56, 0x8c, 0xb0, 0x75, 0x7a, 0xab, 0xad, 0xc8, 0x88, 0x7c, 0xc9,
  0x4e, 0x21, 0xaf, 0xb7, 0x86, 0x71, 0x78, 0xa2, 0x9b, 0x76, 0x7a, 0x7b,
  0xb9, 0x90, 0x7d, 0x24, 0x01, 0x54, 0xa6, 0xc3, 0x75, 0xad, 0xd9, 0x75,
  0xa5, 0x83, 0xa9, 0xbe, 0xa7, 0xa3, 0x78, 0xc0, 0x6f, 0x5c, 0xb0, 0xb0,
  0x93, 0x88, 0x96, 0xd0, 0xa7, 0x72, 0x78, 0x7f, 0xcb, 0x87, 0x67, 0x84,
  0x5e, 0x6d, 0x7d, 0x9c, 0x6a, 0x66, 0x88, 0x90, 0x8f, 0x78, 0x8c, 0x8e,
  0xa5, 0x7d, 0x88, 0xb6, 0x4d, 0x46, 0x9a, 0xc6, 0x7c, 0x91, 0x7b, 0x70,
  0x82, 0x74, 0x79, 0x7b, 0x9d, 0x83, 0x88, 0x4f, 0x32, 0x50, 0x9f, 0xa5,
  0x80, 0xac, 0xad, 0x73, 0x90, 0x80, 0x9a, 0x94, 0x8f, 0x9d, 0x90, 0xbb,
  0x72, 0x80, 0x85, 0xcc, 0x99, 0x89, 0xa1, 0xb9, 0x76, 0x65, 0x76, 0x84,
  0xc9, 0x87, 0x76, 0x7e, 0x5c, 0x74, 0x7e, 0x78, 0x83, 0x54, 0x70, 0x68,
  0x73, 0x80, 0x94, 0x57, 0x89, 0x4a, 0x73, 0xa4, 0x54, 0x55, 0x69, 0xb6,
  0x82, 0x7d, 0x91, 0x5a, 0x59, 0x86, 0x8c, 0x7a, 0x95, 0x79, 0x8b, 0x81,
  0x52, 0x7a, 0x65, 0x69, 0x88, 0x96, 0x83, 0x67, 0x74, 0x90, 0x98, 0x60,
  0xa7, 0x6d, 0x8e, 0x90, 0x75, 0x75, 0x69, 0xa2, 0x77, 0x77, 0x87, 0x7b,
  0x4a, 0x72, 0x84, 0x60, 0xc8, 0x71, 0x51, 0x97, 0x5f, 0x7e, 0x61, 0x6d,
  0x6a, 0x48, 0x62, 0x58, 0x52, 0x99, 0x83, 0x56, 0x6b, 0x42, 0x8b, 0x9d,
  0x5e, 0x71, 0x52, 0x99, 0x76, 0x9a, 0x9a, 0x51, 0x2b, 0x76, 0x88, 0x8e,
  0x8c, 0x98, 0x85, 0x89, 0x68, 0x82, 0x6a, 0x5c, 0x78, 0x99, 0xe4, 0x84,
  0x87, 0x8e, 0xb7, 0xdd, 0xbf, 0xa8, 0x7e, 0xb4, 0x78, 0x3e, 0xc2, 0xb2,
  0x76, 0x68, 0x72, 0xeb, 0xda, 0x99, 0x93, 0x96, 0xe2, 0x79, 0x6c, 0x40,
  0x21, 0x4d, 0x83, 0xb6, 0x6e, 0x5b, 0x99, 0x8f, 0xab, 0x8c, 0x9b, 0xb4,
  0xce, 0x9e, 0x94, 0xc6, 0x4e, 0x3c, 0xc7, 0xdf, 0x8d, 0x7a, 0x79, 0xa4,
  0x9f, 0x75, 0x79, 0x86, 0xba, 0x82, 0x89, 0x04, 0x02, 0x54, 0xa2, 0xc9,
  0x7e, 0xaf, 0xe7, 0x83, 0xa4, 0x86, 0x9d, 0xb1, 0xc0, 0xa4, 0x83, 0xaf,
  0x6a, 0x54, 0xb4, 0xc9, 0x88, 0x95, 0x84, 0xd4, 0xb8, 0x73, 0x7b, 0x8f,
  0xce, 0x88, 0x7c, 0x51, 0x4b, 0x5e, 0x98, 0xac, 0x80, 0x5c, 0xa2, 0xab,
  0x9a, 0x94, 0x8c, 0x7c, 0xae, 0x8b, 0x71, 0xae, 0x53, 0x42, 0x76, 0xe3,
  0x8c, 0x6e, 0x76, 0x9a, 0x76, 0x76, 0x8b, 0x93, 0xbc, 0x6c, 0x92, 0x2b,
  0x0b, 0x5b, 0x8c, 0xb8, 0x6f, 0x75, 0xbf, 0x78, 0x82, 0x7c, 0xba, 0x7b,
  0x9e, 0x92, 0x77, 0x9e, 0x6e, 0x5a, 0x99, 0xb4, 0x8d, 0x7f, 0xa8, 0xc7,
  0x89, 0x6e, 0x71, 0x98, 0xc1, 0x68, 0x73, 0x63, 0x4e, 0x7f, 0x73, 0xaa,
  0x6d, 0x4f, 0x6f, 0x82, 0x95, 0x6a, 0x86, 0x62, 0x90, 0x48, 0x7b, 0xac,
  0x57, 0x54, 0x4c, 0xb5, 0x85, 0x95, 0x82, 0x50, 0x46, 0x8e, 0x8c, 0x94,
  0xa7, 0x7a, 0x85, 0x60, 0x39, 0x5d, 0x58, 0x95, 0x88, 0x8a, 0x94, 0x67,
  0x8a, 0xa0, 0xb6, 0x7b, 0x89, 0x76, 0x7a, 0x90, 0x64, 0x63, 0x60, 0xb6,
  0x8d, 0x91, 0x86, 0x83, 0x53, 0x65, 0x6b, 0x82, 0xc5, 0x74, 0x6b, 0x74,
  0x83, 0x82, 0x68, 0x6f, 0x86, 0x4b, 0x4a, 0x7b, 0x7a, 0x87, 0x80, 0x3d,
  0x90, 0x35, 0x93, 0x8a, 0x65, 0x69, 0x55, 0xbd, 0x55, 0x66, 0x95, 0x4b,
  0x29, 0x8b, 0x7d, 0x94, 0xb9, 0x85, 0x7e, 0x57, 0x58, 0x84, 0x57, 0x5f,
  0x6d, 0x7f, 0xd7, 0xaa, 0x95, 0x86, 0xb0, 0xe4, 0xba, 0xc6, 0x87, 0xa5,
  0x63, 0x46, 0xc8, 0xbb, 0xac, 0x71, 0x74, 0xc2, 0xbb, 0x89, 0x80, 0xa1,
  0xbf, 0x82, 0x6c, 0x28, 0x21, 0x62, 0x89, 0xc0, 0x81, 0x51, 0x94, 0x80,
  0x8d, 0x87, 0xa1, 0x9a, 0xab, 0x93, 0x66, 0xa6, 0x48, 0x38, 0xae, 0xac,
  0x99, 0x86, 0x65, 0x9f, 0xaa, 0x8a, 0x93, 0x87, 0xbd, 0x89, 0x9c, 0x0f,
  0x0a, 0x5b, 0x91, 0xcf, 0x6d, 0x78, 0xf0, 0x80, 0xb0, 0x78, 0xa6, 0xae,
  0x96, 0x91, 0x67, 0x9a, 0x74, 0x6e, 0xc5, 0xbd, 0x8c, 0x70, 0x95, 0xc8,
  0xa7, 0x79, 0x74, 0xa1, 0xca, 0x7d, 0x6d, 0x52, 0x4f, 0x58, 0x87, 0xba,
  0x87, 0x3f, 0xa4, 0x86, 0x8d, 0x89, 0x88, 0x8a, 0x96, 0x6f, 0x64, 0x86,
  0x63, 0x46, 0x8e, 0xc7, 0x75, 0x85, 0x93, 0x88, 0x8c, 0x82, 0x7b, 0x98,
  0xba, 0x6e, 0x8a, 0x25, 0x25, 0x66, 0x95, 0xaa, 0x8b, 0x76, 0xb1, 0x7d,
  0xb4, 0x9f, 0xab, 0x84, 0xa4, 0x86, 0x86, 0x8f, 0x79, 0x74, 0x9e, 0xaa,
  0xa9, 0x83, 0x9d, 0xb3, 0x7e, 0x84, 0x6e, 0x91, 0xdc, 0x6c, 0x72, 0x75,
  0x45, 0x76, 0x72, 0xc1, 0x6a, 0x55, 0x80, 0x83, 0x88, 0x8f, 0x77, 0x6e,
  0xa2, 0x4b, 0x76, 0x97, 0x5d, 0x56, 0x6a, 0xb2, 0x6c, 0x7b, 0x8f, 0x50,
  0x56, 0x88, 0x80, 0x93, 0x99, 0x82, 0x76, 0x62, 0x54, 0x64, 0x58, 0x87,
  0x81, 0x6b, 0x93, 0x72, 0x87, 0x8f, 0xb1, 0x67, 0xaa, 0x51, 0x6a, 0x85,
  0x6f, 0x6c, 0x75, 0xad, 0x8b, 0x84, 0x9e, 0x96, 0x6c, 0x8b, 0x7c, 0x6b,
  0xc8, 0x85, 0x60, 0x72, 0x66, 0x69, 0x64, 0x7e, 0x79, 0x37, 0x5f, 0x7c,
  0x52, 0x86, 0x7a, 0x4c, 0x98, 0x46, 0x87, 0x70, 0x73, 0x69, 0x44, 0x91,
  0x76, 0x7b, 0x94, 0x4a, 0x49, 0x63, 0x85, 0x74, 0x8f, 0x9b, 0x8c, 0x65,
  0x4f, 0x8c, 0x4c, 0x5f, 0xe2, 0xa7, 0xff, 0xff, 0x04, 0x00, 0x00, 0x00,
  0x00, 0x50, 0x00, 0x00, 0x7a, 0x60, 0x7e, 0xa1, 0x9f, 0x89, 0x75, 0xd5,
  0xa7, 0xc1, 0x6d, 0x88, 0x50, 0x31, 0xd9, 0x91, 0x76, 0x63, 0x72, 0xb4,
  0xdb, 0x81, 0x88, 0x57, 0x78, 0x8f, 0x66, 0x31, 0x41, 0x65, 0x97, 0xa1,
  0xa8, 0x89, 0x7b, 0x74, 0x71, 0x72, 0xa6, 0x89, 0xbc, 0x93, 0x9b, 0x86,
  0x42, 0x3e, 0x93, 0x84, 0xa5, 0x72, 0x72, 0x6a, 0x81, 0x77, 0x70, 0x8a,
  0x7e, 0x69, 0x76, 0x5b, 0x1d, 0x62, 0x92, 0x8a, 0x7e, 0x98, 0x84, 0x4d,
  0x7c, 0x79, 0x45, 0x87, 0x71, 0x99, 0x7d, 0x75, 0x5e, 0xab, 0x72, 0x67,
  0x7a, 0x93, 0x78, 0x7d, 0x60, 0xac, 0x96, 0x97, 0x45, 0x85, 0x7a, 0x64,
  0xa1, 0xa2, 0x55, 0x87, 0x8b, 0x8a, 0x79, 0x6f, 0x9e, 0x77, 0x70, 0x6e,
  0x94, 0x8c, 0x9d, 0x84, 0x8e, 0xa0, 0x72, 0x73, 0x83, 0x8f, 0x98, 0x7e,
  0x53, 0x5d, 0x7d, 0xa0, 0x90, 0x6a, 0x78, 0xaf, 0xc8, 0x7e, 0x91, 0x58,
  0x7c, 0xa3, 0x74, 0x73, 0xa0, 0x79, 0x6e, 0x81, 0x6f, 0x99, 0x6e, 0x88,
  0x8e, 0xb8, 0x78, 0x7d, 0x65, 0x74, 0xa1, 0x87, 0x78, 0x5a, 0x76, 0x9c,
  0x75, 0x76, 0xa6, 0xa6, 0xb6, 0xdd, 0x6c, 0x4f, 0x6a, 0xbe, 0x68, 0x8e,
  0x86, 0x84, 0x97, 0x9d, 0xae, 0x76, 0x65, 0x83, 0x91, 0xaf, 0x78, 0x7a,
  0x8e, 0x65, 0x8c, 0x92, 0x63, 0x83, 0x79, 0x56, 0x75, 0x83, 0x58, 0x83,
  0xb4, 0xca, 0xb7, 0x3b, 0x47, 0x75, 0x89, 0x5e, 0x80, 0x5e, 0x9b, 0x4d,
  0x79, 0x54, 0x8f, 0x92, 0x65, 0x98, 0x7b, 0x83, 0x51, 0x66, 0x7c, 0x6b,
  0x5b, 0x69, 0x78, 0x92, 0x67, 0x67, 0x85, 0xb4, 0xa5, 0x82, 0x95, 0x91,
  0x6e, 0x84, 0x6a, 0x79, 0x69, 0x75, 0x85, 0x72, 0xb1, 0xa0, 0x96, 0x8b,
  0x90, 0x86, 0x95, 0xa3, 0x97, 0x94, 0xa5, 0x53, 0x88, 0x71, 0xa7, 0x5e,
  0x66, 0x9d, 0x94, 0x5b, 0x7a, 0xa8, 0xb7, 0xa4, 0xb2, 0x71, 0xb2, 0x9a,
  0x95, 0x76, 0x70, 0xc8, 0x92, 0xbd, 0x87, 0xa1, 0x71, 0x1e, 0xad, 0x8a,
  0x70, 0x88, 0x87, 0xb8, 0xca, 0x7c, 0xa8, 0xa4, 0x68, 0x9d, 0x8d, 0x1f,
  0x19, 0x42, 0x9c, 0x8f, 0x95, 0x7c, 0x86, 0x75, 0x67, 0x80, 0x6b, 0x95,
  0x9b, 0x87, 0x8a, 0x79, 0x32, 0x2d, 0x75, 0xab, 0xac, 0x73, 0x91, 0x82,
  0x78, 0x83, 0x89, 0x69, 0x73, 0x8e, 0x67, 0x56, 0x17, 0x67, 0x63, 0x74,
  0x80, 0x92, 0x79, 0x75, 0x82, 0xa9, 0x54, 0x69, 0x8d, 0x95, 0x5a, 0x75,
  0x74, 0x7b, 0x6b, 0x76, 0x73, 0x7e, 0x66, 0x90, 0x6f, 0x8d, 0x82, 0xa1,
  0x5b, 0x91, 0x7a, 0x4b, 0x6c, 0x73, 0x81, 0xa8, 0x6d, 0x6d, 0x99, 0x4e,
  0x7a, 0x68, 0x77, 0x77, 0x5d, 0x65, 0x74, 0x6d, 0x8d, 0x61, 0x73, 0x67,
  0x6a, 0x7a, 0x72, 0xbd, 0x71, 0x81, 0x81, 0xb4, 0x8b, 0x9a, 0x56, 0x81,
  0x96, 0x73, 0x57, 0x78, 0xa5, 0xa8, 0xb3, 0x95, 0x63, 0x8d, 0x7e, 0x86,
  0x57, 0x7c, 0x87, 0x80, 0x7f, 0xac, 0x72, 0x6a, 0x9d, 0x6a, 0x96, 0x5f,
  0x6a, 0x7c, 0x77, 0x84, 0x78, 0x55, 0x7b, 0x78, 0x88, 0xa0, 0x74, 0x50,
  0x62, 0x7a, 0x69, 0x56, 0x60, 0x93, 0x5b, 0x65, 0xa0, 0x77, 0x84, 0xa7,
  0x8e, 0x88, 0x92, 0x9c, 0x9e, 0x91, 0x5d, 0x8e, 0x6f, 0x8e, 0x96, 0x97,
  0x5e, 0x60, 0xa4, 0x95, 0xac, 0x9c, 0x69, 0x77, 0x79, 0x65, 0x5f, 0x77,
  0x7b, 0x85, 0x98, 0x49, 0x89, 0x1f, 0x7b, 0x8a, 0x84, 0x7d, 0x6a, 0x8e,
  0x5d, 0x7f, 0x6e, 0x5e, 0x51, 0x68, 0x79, 0x8b, 0x80, 0x8d, 0x63, 0x81,
  0xa8, 0xa6, 0x88, 0x78, 0x62, 0x6d, 0x8a, 0x91, 0xa6, 0x70, 0x82, 0x9b,
  0x9b, 0x63, 0x4a, 0x8f, 0x6d, 0x5a, 0xa2, 0x8e, 0x98, 0xa0, 0x88, 0x5d,
  0x8a, 0x72, 0x9e, 0x7c, 0x7f, 0x6d, 0xae, 0x50, 0x6c, 0x6d, 0x78, 0x97,
  0x9e, 0x9a, 0xb3, 0x9a, 0xa3, 0xa6, 0x80, 0xbb, 0x8d, 0xd0, 0x8f, 0x95,
  0x49, 0x37, 0xbd, 0xae, 0x64, 0x68, 0x69, 0xb9, 0xb5, 0x68, 0x6f, 0x97,
  0x8c, 0x70, 0x5b, 0x38, 0x33, 0x57, 0xa8, 0xb9, 0x8c, 0x98, 0x9f, 0x85,
  0x78, 0x65, 0x90, 0x94, 0xae, 0x8d, 0x69, 0x80, 0x5d, 0x5d, 0x7e, 0x76,
  0x48, 0x7b, 0x7f, 0x8c, 0x88, 0xaa, 0x8b, 0x67, 0x90, 0x72, 0x80, 0x59,
  0x42, 0x33, 0x7e, 0xa0, 0x65, 0x79, 0xaa, 0x72, 0xa6, 0x7e, 0x7b, 0x8a,
  0x7d, 0x6c, 0xa1, 0x75, 0x72, 0x53, 0x5a, 0x7c, 0x4b, 0x92, 0x8b, 0x95,
  0x5e, 0x8c, 0xa1, 0x6d, 0x66, 0x78, 0x86, 0x72, 0x52, 0x67, 0x8a, 0x91,
  0xa7, 0x96, 0x98, 0x86, 0x90, 0x74, 0x6f, 0x55, 0x75, 0x80, 0x82, 0x66,
  0x5a, 0x6a, 0x73, 0x5c, 0x76, 0x88, 0x64, 0xc5, 0x81, 0x82, 0x6e, 0x58,
  0x73, 0x77, 0x7b, 0x5e, 0x4b, 0x72, 0x7c, 0x8c, 0x71, 0x7a, 0x60, 0x5f,
  0x7f, 0x6c, 0x74, 0x97, 0x6b, 0x7b, 0xac, 0x79, 0x7e, 0x9b, 0x9d, 0x59,
  0x74, 0x82, 0x61, 0x6c, 0x8f, 0x69, 0x8a, 0x9b, 0x5b, 0xa1, 0x8b, 0x79,
  0x88, 0x84, 0x9d, 0x8c, 0x70, 0x7d, 0x53, 0x5b, 0x72, 0x88, 0x8d, 0x74,
  0x9d, 0x80, 0x6f, 0x71, 0x82, 0x6f, 0x43, 0x7c, 0x69, 0x6f, 0x8b, 0x70,
  0x51, 0xa3, 0x58, 0x95, 0x67, 0xaa, 0x83, 0x84, 0x8c, 0x9b, 0x51, 0x6d,
  0x7f, 0x56, 0xb3, 0x91, 0xab, 0x9f, 0xad, 0x62, 0x7d, 0x79, 0x94, 0x78,
  0x83, 0x78, 0x5f, 0x5e, 0x94, 0x71, 0x6e, 0x59, 0x36, 0x86, 0xa9, 0x50,
  0xa4, 0x61, 0x64, 0x7d, 0x9a, 0x8b, 0x78, 0x7e, 0x65, 0x68, 0xa1, 0x9b,
  0x96, 0x65, 0xa4, 0x83, 0x99, 0x53, 0x7a, 0x77, 0x71, 0x6c, 0x72, 0x90,
  0x77, 0x73, 0xad, 0x7c, 0x55, 0x94, 0x70, 0x72, 0x7a, 0x76, 0x99, 0x78,
  0x67, 0x89, 0xae, 0x88, 0x84, 0xb3, 0xe1, 0xc9, 0x8d, 0x7f, 0xab, 0xab,
  0x9e, 0xbc, 0x84, 0x8f, 0x6e, 0x3c, 0xd4, 0xad, 0xb2, 0x81, 0x6e, 0xc5,
  0xd6, 0x9f, 0x74, 0x7d, 0x73, 0x86, 0x92, 0x68, 0x23, 0x4e, 0x70, 0xbe,
  0xaf, 0x91, 0x9f, 0x79, 0x6b, 0x8c, 0x65, 0xb4, 0x6f, 0x95, 0x71, 0x85,
  0x7d, 0x49, 0x8d, 0x8a, 0x86, 0x8f, 0x6e, 0xb7, 0x9c, 0x86, 0x88, 0x89,
  0x89, 0x63, 0x51, 0x48, 0x5d, 0x46, 0x9e, 0xa2, 0xa3, 0x95, 0xaa, 0x6e,
  0x73, 0xa5, 0x78, 0x55, 0x78, 0xac, 0x89, 0x88, 0x64, 0x66, 0x68, 0x65,
  0x67, 0x9b, 0x59, 0x78, 0x8b, 0x79, 0x98, 0x8b, 0x79, 0x5a, 0x73, 0x65,
  0x63, 0x5a, 0x69, 0x72, 0x53, 0x9e, 0x6a, 0x8f, 0x67, 0x6b, 0x50, 0x99,
  0x39, 0x89, 0x74, 0x77, 0x78, 0x6b, 0x7a, 0x6d, 0x70, 0x85, 0x69, 0x91,
  0x6a, 0x8d, 0x96, 0x7d, 0x59, 0x58, 0x71, 0x7c, 0x7b, 0x7a, 0x5f, 0x68,
  0x77, 0x5e, 0x90, 0x67, 0x66, 0x8c, 0x83, 0x7b, 0x87, 0x7e, 0x9b, 0x69,
  0x56, 0x78, 0xaa, 0x6e, 0x5b, 0x98, 0x74, 0x72, 0x98, 0x92, 0x88, 0x69,
  0x61, 0x6e, 0x89, 0x6d, 0x72, 0x50, 0xa2, 0x61, 0x93, 0x63, 0x54, 0x66,
  0x4e, 0x73, 0x9e, 0x7b, 0x71, 0x79, 0x8e, 0x82, 0x68, 0x70, 0x90, 0x71,
  0x86, 0x6b, 0x94, 0x80, 0x40, 0x93, 0x99, 0x69, 0x7c, 0x8a, 0x86, 0x5e,
  0x8c, 0xaf, 0x7a, 0x6b, 0x81, 0x7a, 0x8a, 0x8c, 0x7d, 0x65, 0xb3, 0x3d,
  0x80, 0x35, 0x74, 0x8c, 0x5b, 0x6f, 0x7a, 0x7b, 0x99, 0x4a, 0x55, 0x75,
  0x75, 0x9a, 0x6d, 0x5d, 0x8d, 0x91, 0x84, 0x6c, 0x85, 0x92, 0x74, 0x7e,
  0x5a, 0x54, 0x90, 0x7f, 0xac, 0x6d, 0x9c, 0x78, 0x78, 0x4d, 0x7c, 0x7e,
  0x6e, 0x5f, 0x8d, 0x70, 0xa0, 0x71, 0x75, 0x61, 0x77, 0x92, 0x89, 0x74,
  0x7f, 0x52, 0xa6, 0x7b, 0x5b, 0x8a, 0x5e, 0x60, 0x86, 0xad, 0xb6, 0xa1,
  0x87, 0x52, 0x92, 0xb0, 0xa7, 0xb8, 0x8c, 0x6b, 0x67, 0x28, 0xff, 0x8f,
  0x91, 0x77, 0x7f, 0xdf, 0xa8, 0x61, 0x70, 0x74, 0x6a, 0x84, 0x74, 0x47,
  0x1f, 0x79, 0x89, 0xaf, 0x79, 0x8e, 0x90, 0x71, 0x8c, 0x57, 0x8c, 0x8e,
  0x62, 0x96, 0x84, 0x82, 0x63, 0x57, 0x93, 0x84, 0x7c, 0x8d, 0x80, 0xa9,
  0x9e, 0x98, 0x5e, 0x7b, 0x53, 0x87, 0x82, 0x4f, 0x36, 0x60, 0x7e, 0x8f,
  0x5d, 0x9a, 0x6e, 0x66, 0x59, 0x92, 0x6f, 0x94, 0x55, 0xa5, 0x80, 0x56,
  0x7f, 0x6f, 0x63, 0x5e, 0x64, 0x7b, 0x92, 0x8d, 0x76, 0x86, 0x66, 0x82,
  0x25, 0x82, 0x50, 0x59, 0x59, 0x59, 0xb8, 0x89, 0x80, 0x6a, 0x72, 0x63,
  0x6c, 0x71, 0x6e, 0x85, 0x50, 0x99, 0x66, 0x6a, 0xa2, 0x7b, 0x8c, 0x7d,
  0x6e, 0x6b, 0x90, 0x83, 0xa1, 0x69, 0x74, 0x80, 0x45, 0x66, 0x80, 0x53,
  0x66, 0x6b, 0x77, 0x52, 0x56, 0x69, 0x59, 0x97, 0x67, 0x94, 0x64, 0x67,
  0x51, 0x94, 0x8d, 0x83, 0x61, 0x7f, 0x84, 0x75, 0x83, 0x97, 0x9a, 0x61,
  0x8e, 0x79, 0x77, 0x83, 0x2f, 0x82, 0x9a, 0x7d, 0x7f, 0x68, 0x71, 0x6a,
  0x74, 0x9d, 0x70, 0x56, 0x6a, 0x77, 0x71, 0x93, 0x6e, 0x51, 0xa0, 0x64,
  0x42, 0x83, 0x6b, 0x7c, 0x8d, 0x8c, 0x62, 0x54, 0x3d, 0x84, 0xaf, 0x70,
  0x5f, 0x67, 0x79, 0x80, 0x66, 0x6b, 0x68, 0x82, 0x6c, 0x50, 0x6f, 0x89,
  0x9e, 0x79, 0x9e, 0x4c, 0x64, 0x59, 0x96, 0x5b, 0x62, 0x86, 0x6b, 0x77,
  0xb5, 0x67, 0x80, 0x7b, 0x7f, 0x75, 0x99, 0x71, 0x9d, 0x7d, 0x68, 0x7b,
  0x4d, 0x6c, 0x53, 0x8f, 0x56, 0x97, 0x58, 0x71, 0x95, 0x84, 0xa4, 0x6b,
  0x8d, 0x81, 0x6a, 0x76, 0x7e, 0x78, 0x92, 0x63, 0x9b, 0x72, 0x85, 0x82,
  0x59, 0x6c, 0x73, 0x66, 0x8d, 0x4a, 0x7f, 0x87, 0x8d, 0x85, 0x71, 0x9e,
  0xa3, 0x97, 0xc3, 0xa4, 0xb8, 0x82, 0x5f, 0xfc, 0xb2, 0xc9, 0x65, 0x84,
  0x64, 0x45, 0xff, 0x56, 0xc4, 0x76, 0x97, 0xf5, 0xcc, 0x7f, 0x96, 0x64,
  0x7f, 0x7c, 0x53, 0x38, 0x39, 0x2a, 0x8e, 0xa9, 0x85, 0x93, 0xac, 0x9d,
  0x95, 0x66, 0x73, 0x84, 0x6e, 0xa6, 0x91, 0x5f, 0x71, 0x5c, 0xa0, 0x7c,
  0x71, 0x51, 0x9a, 0xad, 0x8b, 0x86, 0x85, 0x57, 0x67, 0x78, 0x91, 0x47,
  0x2f, 0x5a, 0x6c, 0x84, 0x4d, 0x92, 0x82, 0x67, 0x50, 0x6d, 0x84, 0xa5,
  0x85, 0x62, 0x6e, 0x5a, 0x34, 0x6b, 0x7c, 0x83, 0x65, 0x86, 0x61, 0x9f,
  0x6a, 0x54, 0x5e, 0x98, 0x60, 0x90, 0x5d, 0x67, 0x54, 0x5f, 0x6a, 0x63,
  0x6b, 0x87, 0x6f, 0x5b, 0x5f, 0x5f, 0x4e, 0x8e, 0x5c, 0x79, 0x70, 0x5c,
  0x73, 0x76, 0x6d, 0x70, 0x68, 0x60, 0x80, 0x88, 0x98, 0x81, 0x4c, 0x71,
  0x1a, 0xa2, 0x81, 0x50, 0x64, 0x8d, 0x51, 0x28, 0x4e, 0x4d, 0x4d, 0x63,
  0x87, 0x65, 0x4e, 0x82, 0x5f, 0x63, 0xa7, 0x81, 0x80, 0x7b, 0x7a, 0x31,
  0x5f, 0x57, 0x5d, 0x78, 0x67, 0x62, 0x81, 0x6f, 0x39, 0x8a, 0xa5, 0x4c,
  0x50, 0x46, 0x73, 0x4c, 0x8e, 0x58, 0x3d, 0x53, 0x66, 0x87, 0x6d, 0x51,
  0x58, 0x3f, 0x63, 0x3f, 0x62, 0x61, 0x4f, 0x2e, 0x6a, 0x9b, 0x68, 0x54,
  0x53, 0x6f, 0xad, 0x60, 0x42, 0x60, 0x72, 0x5f, 0x59, 0x4d, 0x66, 0x4f,
  0x97, 0x80, 0x43, 0x64, 0x75, 0x9e, 0x56, 0x94, 0x9e, 0x7d, 0x85, 0x57,
  0x72, 0x73, 0x70, 0x6e, 0x6d, 0x98, 0x49, 0x91, 0x59, 0x66, 0x75, 0x6a,
  0x7d, 0x7e, 0x6b, 0x93, 0x60, 0x85, 0x43, 0x79, 0x76, 0x77, 0x87, 0x87,
  0x78, 0xab, 0x69, 0x67, 0x6f, 0x4b, 0x6b, 0x67, 0x42, 0x70, 0x74, 0x72,
  0x69, 0xa3, 0x86, 0x94, 0x7a, 0x47, 0x74, 0x71, 0x63, 0x65, 0x93, 0x59,
  0x60, 0x80, 0x5d, 0x65, 0x4f, 0x96, 0xb8, 0x94, 0x87, 0x8e, 0x6f, 0xf1,
  0x9b, 0x9e, 0x85, 0x6d, 0x69, 0x73, 0xd6, 0x74, 0x94, 0x7e, 0x67, 0xcb,
  0xd2, 0x69, 0x63, 0x98, 0x47, 0x7c, 0x99, 0x5e, 0x6b, 0x57, 0x94, 0xb9,
  0x71, 0x9f, 0x9f, 0x76, 0x92, 0x60, 0x52, 0xb3, 0x82, 0xa6, 0x54, 0x53,
  0x7b, 0x67, 0xae, 0x69, 0x68, 0x98, 0x77, 0xd9, 0x9a, 0x91, 0x6f, 0x91,
  0x6c, 0x62, 0x8e, 0x5f, 0x2d, 0x57, 0x89, 0x90, 0xa1, 0x6f, 0x90, 0x83,
  0x72, 0x70, 0x44, 0x98, 0x79, 0x75, 0x8a, 0x66, 0x8e, 0x72, 0x88, 0x5a,
  0x43, 0x9a, 0x69, 0x99, 0x93, 0x73, 0x96, 0x74, 0x26, 0x62, 0x85, 0x7b,
  0x24, 0x6e, 0x86, 0x7a, 0x7a, 0x75, 0x61, 0x71, 0x5c, 0x90, 0x49, 0xa9,
  0x71, 0x72, 0x5f, 0x5a, 0x61, 0x77, 0x98, 0x6c, 0x71, 0x7e, 0x60, 0x91,
  0x7e, 0x97, 0x6a, 0x5c, 0x32, 0x7c, 0x53, 0x72, 0x6a, 0x79, 0x84, 0x65,
  0x7c, 0x5a, 0x71, 0x4e, 0x4c, 0x69, 0x73, 0x5c, 0x63, 0x60, 0x82, 0x87,
  0x5f, 0x6c, 0x6a, 0x49, 0x5d, 0x97, 0x5a, 0x54, 0x4d, 0xa5, 0x70, 0x65,
  0x74, 0x70, 0x8a, 0x61, 0x5c, 0xa3, 0xb2, 0x45, 0x69, 0x6a, 0x39, 0x7a,
  0x4f, 0xa4, 0x53, 0x52, 0x62, 0x72, 0x4e, 0x7d, 0x85, 0x5d, 0x35, 0x5b,
  0x66, 0x82, 0x94, 0x5b, 0x49, 0x8d, 0x88, 0x63, 0x5d, 0x83, 0x72, 0x87,
  0x80, 0x69, 0x3f, 0x60, 0x69, 0x5f, 0x80, 0x96, 0x84, 0x45, 0x72, 0x65,
  0xa2, 0x5b, 0x76, 0x79, 0x70, 0x7f, 0x5c, 0x73, 0x5e, 0xa6, 0x52, 0x70,
  0x45, 0x86, 0x9c, 0x6b, 0x6d, 0x82, 0x84, 0x82, 0xa2, 0x75, 0x80, 0x65,
  0x6d, 0x6a, 0x56, 0xab, 0x9c, 0x4d, 0x82, 0x87, 0x95, 0x7d, 0x73, 0x9b,
  0x72, 0x43, 0x5b, 0x83, 0x7f, 0x8c, 0x74, 0x50, 0x90, 0xa0, 0x8e, 0x67,
  0x6c, 0x75, 0x7d, 0x95, 0x59, 0x83, 0x80, 0x7a, 0x88, 0xb6, 0xd3, 0x84,
  0x73, 0x61, 0x7a, 0xd1, 0xaa, 0xb7, 0x71, 0xa3, 0x64, 0x56, 0xe4, 0x9e,
  0x90, 0x51, 0x57, 0xdd, 0xee, 0x90, 0x7c, 0x69, 0x66, 0x6f, 0x4e, 0x6a,
  0x64, 0x74, 0xab, 0xa5, 0x90, 0xa7, 0x8b, 0x95, 0x61, 0x92, 0x60, 0xad,
  0xa9, 0x91, 0x95, 0x7f, 0x58, 0x28, 0x8c, 0x6d, 0x5d, 0x89, 0x80, 0xa0,
  0xc2, 0x94, 0x89, 0x9c, 0x41, 0x58, 0x58, 0x83, 0x35, 0x97, 0x7b, 0x9a,
  0x5f, 0x75, 0x74, 0x81, 0x72, 0x80, 0x73, 0x9a, 0x51, 0xb5, 0x55, 0x32,
  0x4d, 0x7b, 0x72, 0x8b, 0x56, 0x82, 0x5a, 0x79, 0xa8, 0x80, 0x7f, 0x7b,
  0x6d, 0x68, 0x7b, 0x5d, 0x3f, 0x56, 0x98, 0x90, 0x86, 0x5e, 0x6c, 0x6d,
  0x89, 0x73, 0x74, 0x59, 0x23, 0x63, 0x77, 0x54, 0x61, 0x7f, 0x6e, 0x54,
  0x65, 0x89, 0x81, 0x73, 0x9f, 0x72, 0x7d, 0x6b, 0x5e, 0x7c, 0x63, 0x79,
  0x48, 0x4b, 0x90, 0x5d, 0xa5, 0x7b, 0x45, 0x65, 0x69, 0x95, 0x48, 0x7a,
  0x7b, 0x67, 0x54, 0x7b, 0x57, 0x78, 0x42, 0x5d, 0x30, 0x4c, 0xa1, 0x49,
  0x4a, 0x79, 0x89, 0x8a, 0x4a, 0xa3, 0xa8, 0x7b, 0x5f, 0x63, 0x82, 0x5f,
  0x79, 0x47, 0x26, 0x70, 0x47, 0x7b, 0x6c, 0x5a, 0x5c, 0x59, 0x6f, 0x7e,
  0x4d, 0x6c, 0x44, 0x64, 0x6e, 0x7b, 0x76, 0x20, 0x57, 0x49, 0x7b, 0x57,
  0x64, 0x86, 0x5a, 0x6f, 0x70, 0xa4, 0x47, 0x35, 0x76, 0x74, 0x6c, 0xa3,
  0xa4, 0x82, 0x72, 0x7a, 0x73, 0x7c, 0x68, 0x60, 0x92, 0x81, 0x64, 0xa4,
  0x78, 0xa9, 0x5f, 0x6d, 0x5b, 0x8d, 0x79, 0x73, 0x69, 0x7b, 0x8d, 0x9e,
  0x7c, 0x79, 0x79, 0x61, 0x77, 0x82, 0x97, 0x65, 0x8f, 0x9a, 0x7f, 0x5b,
  0xa1, 0x4d, 0x83, 0x7c, 0x72, 0x51, 0x70, 0xab, 0x83, 0x81, 0x65, 0x4c,
  0x86, 0x63, 0x60, 0x6f, 0x60, 0x4b, 0x59, 0x85, 0x66, 0x42, 0x61, 0xb5,
  0x57, 0xe1, 0x99, 0xba, 0x7b, 0x68, 0x72, 0xba, 0xac, 0xd0, 0x9a, 0xa0,
  0x86, 0x4e, 0xbe, 0x8d, 0xb1, 0x84, 0x70, 0xc1, 0xef, 0x6f, 0x90, 0xa3,
  0x42, 0x85, 0x45, 0xa5, 0x89, 0x49, 0x9a, 0xa7, 0x87, 0x96, 0x83, 0x87,
  0x47, 0x74, 0x6c, 0x95, 0x94, 0x99, 0x4f, 0x79, 0x46, 0x4b, 0x88, 0x5a,
  0x74, 0x5f, 0x7c, 0xc7, 0x8b, 0xa5, 0x61, 0x83, 0x47, 0x60, 0x61, 0x72,
  0x62, 0x56, 0x78, 0x7b, 0xa2, 0x6e, 0x6a, 0x92, 0x87, 0x67, 0x6d, 0x6d,
  0x52, 0xab, 0x9d, 0x62, 0x55, 0x5c, 0x61, 0x95, 0x58, 0x96, 0x80, 0x47,
  0x8f, 0x96, 0x83, 0x52, 0x3b, 0x6e, 0x6d, 0x56, 0x56, 0x51, 0x8d, 0x44,
  0x83, 0xa0, 0x46, 0x65, 0x6e, 0x7d, 0x7b, 0x78, 0x3f, 0x95, 0x82, 0x50,
  0x88, 0x42, 0x78, 0x42, 0x40, 0x87, 0x8b, 0x41, 0x64, 0x81, 0x8e, 0x52,
  0x43, 0x9f, 0x7f, 0x75, 0x5c, 0xac, 0x5d, 0x6f, 0x7e, 0x7a, 0x4c, 0x70,
  0x5b, 0x73, 0x48, 0x43, 0x44, 0x54, 0x5e, 0x4a, 0x62, 0x86, 0x3f, 0x79,
  0x76, 0x64, 0x44, 0x73, 0x58, 0x84, 0x76, 0x84, 0x33, 0x8f, 0x75, 0x5d,
  0x6c, 0x93, 0x9d, 0x7a, 0x55, 0x3f, 0x3f, 0x57, 0x6b, 0x99, 0x9c, 0x49,
  0x86, 0x5d, 0x95, 0x87, 0x47, 0x50, 0x4e, 0x79, 0x55, 0x7a, 0x80, 0x41,
  0x4d, 0x9e, 0x7d, 0x62, 0x5f, 0x85, 0x5c, 0x59, 0xa4, 0x8b, 0x50, 0x32,
  0x4f, 0x6f, 0x6b, 0x73, 0x9e, 0x77, 0x76, 0x68, 0x6b, 0x52, 0x92, 0x96,
  0x58, 0x91, 0x6b, 0x6f, 0x7b, 0x91, 0x80, 0x6d, 0x62, 0x85, 0x70, 0x53,
  0x6e, 0xa1, 0x78, 0x8b, 0x8d, 0x6c, 0x93, 0x72, 0x67, 0x57, 0x64, 0x7a,
  0x95, 0x9b, 0x80, 0x5e, 0x87, 0x51, 0x94, 0xa8, 0x77, 0x48, 0x6c, 0xac,
  0x96, 0x52, 0x6a, 0x8a, 0x91, 0x6d, 0x58, 0x84, 0x77, 0x92, 0xa1, 0x61,
  0x78, 0x81, 0xac, 0x83, 0x91, 0xde, 0x87, 0xaf, 0x6f, 0x7b, 0x75, 0xb8,
  0x5b, 0xa4, 0x83, 0x4b, 0x73, 0x5a, 0xa0, 0x70, 0x85, 0x7f, 0x76, 0x75,
  0xab, 0x87, 0x68, 0x4f, 0x36, 0x6d, 0x7c, 0x8e, 0x64, 0x3c, 0x88, 0x88,
  0x96, 0x9e, 0x5b, 0x9f, 0x76, 0x6c, 0x49, 0x9f, 0x72, 0xa7, 0x98, 0x53,
  0x65, 0x64, 0xa9, 0x38, 0x76, 0x92, 0x5b, 0x63, 0xaa, 0x61, 0x78, 0x7c,
  0x89, 0x73, 0x56, 0x64, 0x95, 0x70, 0xb1, 0x48, 0x9c, 0x8f, 0x45, 0x80,
  0x78, 0x76, 0x5a, 0x99, 0x45, 0xad, 0x72, 0x77, 0x48, 0x7e, 0x88, 0x68,
  0x53, 0x99, 0x74, 0x3e, 0x6e, 0xa3, 0x76, 0x6d, 0x50, 0xa3, 0x67, 0x71,
  0x6c, 0x61, 0x68, 0x22, 0x74, 0x70, 0x70, 0x93, 0x50, 0x75, 0x43, 0x74,
  0x41, 0x9e, 0x6d, 0x75, 0x56, 0x87, 0x92, 0x46, 0x6a, 0x4d, 0x77, 0x5c,
  0x78, 0x80, 0x94, 0x43, 0x5f, 0x93, 0x89, 0x76, 0x97, 0x5a, 0x97, 0x12,
  0x7a, 0x5c, 0x4b, 0x75, 0x77, 0x53, 0x6a, 0x4c, 0x57, 0x6a, 0x48, 0x5b,
  0x62, 0x57, 0x65, 0x50, 0x88, 0x61, 0x73, 0x60, 0x66, 0x58, 0x78, 0x7d,
  0x88, 0xae, 0xab, 0x6d, 0x91, 0xa9, 0x70, 0x3d, 0x5e, 0x4d, 0x24, 0x58,
  0x52, 0x79, 0x47, 0x3b, 0x5c, 0x5f, 0x7c, 0x2c, 0x8b, 0x77, 0x66, 0x28,
  0x63, 0x6a, 0x73, 0x34, 0x2f, 0xa3, 0x66, 0x5f, 0x70, 0x53, 0x89, 0x5c,
  0x7c, 0x7f, 0x7a, 0x3c, 0x66, 0x61, 0x5c, 0x58, 0x63, 0xa7, 0x58, 0x5c,
  0x6e, 0x6e, 0x77, 0x7f, 0x91, 0x95, 0x55, 0x9a, 0x51, 0x74, 0x6a, 0x52,
  0x64, 0x66, 0x5c, 0x79, 0x35, 0x89, 0x86, 0x7f, 0x73, 0x6e, 0x98, 0x80,
  0x68, 0x68, 0x70, 0x81, 0x7e, 0x73, 0x4f, 0x37, 0x94, 0x93, 0x6d, 0x8a,
  0x5e, 0x88, 0x8f, 0xaa, 0x8d, 0x95, 0x5b, 0x7f, 0x91, 0x87, 0x70, 0x69,
  0x7d, 0xa1, 0x9d, 0x58, 0x75, 0xaa, 0x9a, 0x7f, 0x54, 0x4a, 0x4d, 0x5d,
  0x60, 0xa7, 0x58, 0x98, 0x82, 0x47, 0x93, 0x96, 0x7f, 0x69, 0x59, 0xa2,
  0x5a, 0x77, 0x97, 0x2b, 0x48, 0x8c, 0x75, 0x7d, 0x7b, 0x8f, 0x99, 0x7a,
  0x88, 0x92, 0x64, 0x7a, 0x46, 0x3b, 0x61, 0x54, 0x6b, 0x7a, 0x6c, 0x3c,
  0x85, 0x62, 0x54, 0xa4, 0x8a, 0x95, 0x35, 0x78, 0x5b, 0x90, 0x85, 0x40,
  0x50, 0x67, 0x85, 0x94, 0x81, 0x9e, 0x6f, 0x88, 0x7d, 0x7d, 0x5a, 0x6c,
  0x4f, 0x20, 0x64, 0x7e, 0xa3, 0x87, 0x68, 0x55, 0x70, 0x63, 0x68, 0xa8,
  0x7b, 0x78, 0x62, 0xcb, 0x82, 0x89, 0x8a, 0x4a, 0x4f, 0x83, 0x77, 0x68,
  0x77, 0x7a, 0x73, 0x4f, 0x7a, 0x9c, 0x69, 0x57, 0x6a, 0x24, 0x5a, 0x78,
  0x73, 0x46, 0x4e, 0x4e, 0xa0, 0x57, 0xa3, 0xb9, 0x52, 0x3b, 0x6d, 0xc4,
  0x53, 0x58, 0x58, 0x44, 0x85, 0x7d, 0x81, 0x65, 0x53, 0x5b, 0x81, 0x22,
  0x58, 0x77, 0x7b, 0x90, 0x65, 0x34, 0x37, 0x70, 0x7b, 0x98, 0x3d, 0x43,
  0xb9, 0x53, 0x78, 0xad, 0x7f, 0x5e, 0x66, 0xc4, 0x81, 0x50, 0x6d, 0x60,
  0x3e, 0x8e, 0x6d, 0x7e, 0x4e, 0x9c, 0xa0, 0x56, 0x4e, 0x40, 0x64, 0x93,
  0x5a, 0x34, 0x44, 0x83, 0x7b, 0x6e, 0x52, 0x34, 0x73, 0x4d, 0x8d, 0xaf,
  0x7b, 0x37, 0x5a, 0x80, 0x88, 0x78, 0x81, 0x3c, 0x7e, 0x8b, 0x93, 0x63,
  0x3e, 0x89, 0x85, 0x41, 0x6e, 0x5a, 0x7f, 0x8d, 0x5f, 0x20, 0x39, 0x84,
  0x6f, 0xa5, 0x50, 0x45, 0x74, 0x42, 0x86, 0x7e, 0x83, 0x55, 0x63, 0x9e,
  0x40, 0x51, 0x96, 0x44, 0x59, 0x65, 0x59, 0xa9, 0x32, 0x85, 0xb2, 0x62,
  0x73, 0x60, 0x53, 0x7a, 0x63, 0x4b, 0x46, 0x88, 0x7b, 0x80, 0x46, 0x5d,
  0x76, 0x44, 0x94, 0x8c, 0x4f, 0x5c, 0x4f, 0x86, 0x3c, 0x8b, 0x59, 0x5b,
  0x73, 0x67, 0x72, 0x9b, 0x3c, 0x83, 0x9c, 0x2c, 0x6b, 0x5f, 0x96, 0x61,
  0x81, 0x5b, 0x28, 0x89, 0x76, 0x60, 0x72, 0x46, 0x90, 0x58, 0x6f, 0x93,
  0x6c, 0x6d, 0x70, 0x94, 0x56, 0x97, 0x83, 0x2f, 0x52, 0x5f, 0x71, 0x74,
  0x76, 0x78, 0xa5, 0x66, 0x4a, 0x9d, 0x6f, 0x8a, 0x8c, 0x4c, 0x77, 0x64,
  0x4f, 0x84, 0x78, 0x70, 0x6f, 0x85, 0x81, 0x9d, 0xa8, 0x71, 0x83, 0x99,
  0x4d, 0x71, 0x50, 0x59, 0x76, 0x87, 0x6a, 0xa7, 0x9e, 0x77, 0x98, 0x69,
  0x85, 0x97, 0x8b, 0x4b, 0x84, 0x28, 0x62, 0x75, 0x9a, 0x5e, 0x80, 0x6a,
  0x6a, 0x76, 0x79, 0x5d, 0x8f, 0x3b, 0x4c, 0x8c, 0x82, 0x69, 0x73, 0x2c,
  0x5b, 0x9c, 0x7a, 0x5f, 0x54, 0x94, 0x8d, 0x36, 0x51, 0x81, 0x4d, 0x8c,
  0x6c, 0x37, 0x38, 0x95, 0x80, 0x75, 0x6d, 0x73, 0xa4, 0x60, 0xa6, 0xb1,
  0x7d, 0x67, 0x6a, 0xa6, 0x99, 0x82, 0x64, 0x5a, 0x4e, 0x7b, 0x9b, 0x67,
  0x3e, 0x91, 0x93, 0x36, 0x4a, 0x7a, 0x61, 0x8f, 0x6f, 0x01, 0x2a, 0x93,
  0x8e, 0x5e, 0x5e, 0x4d, 0xab, 0x44, 0xa5, 0xb0, 0x48, 0x5f, 0x33, 0xca,
  0x69, 0x5a, 0x4c, 0x3d, 0x57, 0x6e, 0x7f, 0xa2, 0x79, 0x90, 0x79, 0x4f,
  0x49, 0x5e, 0x84, 0x88, 0x7d, 0x14, 0x2c, 0x67, 0x96, 0x93, 0x72, 0x6d,
  0x90, 0x4b, 0x7f, 0xac, 0x88, 0x48, 0x7d, 0x85, 0x5d, 0x80, 0x4e, 0x35,
  0x58, 0x71, 0x68, 0x58, 0x52, 0x95, 0x7b, 0x13, 0x6a, 0x75, 0x8c, 0x77,
  0x56, 0x3a, 0x68, 0x76, 0x77, 0x87, 0x76, 0x53, 0x71, 0x66, 0x70, 0xa7,
  0x91, 0x62, 0x29, 0xa3, 0x60, 0xae, 0x6a, 0x2e, 0x45, 0x76, 0x4c, 0x5f,
  0x39, 0x79, 0x87, 0x42, 0x3b, 0x5e, 0x6d, 0x91, 0x79, 0x12, 0x43, 0x73,
  0x5f, 0x81, 0x62, 0x6b, 0x68, 0x18, 0xaa, 0x8a, 0x8b, 0x50, 0x4a, 0x7f,
  0x5c, 0x83, 0x98, 0x38, 0x5e, 0x85, 0x71, 0x8c, 0x67, 0x9d, 0x53, 0x07,
  0x59, 0x66, 0x86, 0x66, 0x98, 0x70, 0x74, 0x53, 0x82, 0x93, 0x5a, 0x8d,
  0x86, 0x69, 0x6d, 0x97, 0x87, 0x6d, 0x75, 0x9e, 0x90, 0x8a, 0x48, 0x5d,
  0x6f, 0x9d, 0x79, 0x6f, 0xab, 0x97, 0x8e, 0x4a, 0x8f, 0x7e, 0x77, 0x60,
  0x53, 0x45, 0x6b, 0x7b, 0x8c, 0x52, 0x6b, 0x59, 0x6c, 0x52, 0x68, 0xb5,
  0x71, 0x6a, 0x60, 0xa3, 0x83, 0x89, 0x7c, 0x65, 0x61, 0xa4, 0xac, 0x8e,
  0x87, 0x74, 0x92, 0x77, 0x55, 0x92, 0x60, 0x75, 0x53, 0x6d, 0x76, 0x8e,
  0x83, 0x91, 0x81, 0x43, 0x62, 0x63, 0x76, 0x5d, 0x60, 0x27, 0x44, 0xa3,
  0x9f, 0x70, 0x73, 0x80, 0x68, 0x75, 0x8f, 0x7e, 0x5f, 0x54, 0x69, 0x50,
  0x24, 0x54, 0x8a, 0x9f, 0x5c, 0x32, 0x4f, 0x92, 0xa1, 0x71, 0x6f, 0x79,
  0x89, 0x6a, 0x53, 0x9f, 0x5a, 0x41, 0x8c, 0x9d, 0x64, 0xa7, 0x56, 0x4c,
  0x81, 0x53, 0x6a, 0x86, 0x91, 0x5c, 0x98, 0x2e, 0x65, 0x39, 0x7a, 0x79,
  0x6d, 0x24, 0x39, 0xa1, 0x86, 0x66, 0x47, 0x3a, 0xb7, 0x54, 0x8c, 0xa9,
  0x80, 0x3a, 0x64, 0xaf, 0x8e, 0x86, 0x90, 0x34, 0x0f, 0x5f, 0x69, 0x73,
  0x54, 0x84, 0x70, 0x46, 0x36, 0x5a, 0x58, 0x9d, 0x76, 0x32, 0x5a, 0xa3,
  0x89, 0x6c, 0x59, 0x70, 0x78, 0x03, 0x71, 0xc1, 0x6e, 0x1f, 0x3c, 0xb2,
  0x90, 0x90, 0x89, 0x37, 0x4d, 0x5a, 0x4f, 0x67, 0x40, 0x67, 0x96, 0x3f,
  0x22, 0x5d, 0x66, 0x77, 0x87, 0x22, 0x64, 0x8b, 0xab, 0x93, 0x53, 0x4e,
  0x89, 0x58, 0x7c, 0xac, 0x57, 0x32, 0x4b, 0x8d, 0x6d, 0x85, 0x6b, 0x58,
  0x33, 0x7b, 0x72, 0x92, 0x72, 0x8f, 0x8c, 0x2a, 0x31, 0x75, 0x93, 0x94,
  0x87, 0x1f, 0x72, 0x75, 0x80, 0x86, 0x7a, 0x6d, 0x7f, 0x38, 0x9f, 0xa2,
  0x80, 0x4d, 0x53, 0x9d, 0x7a, 0x8a, 0x91, 0x66, 0x3e, 0x67, 0x8b, 0x79,
  0x72, 0xa7, 0x68, 0x4a, 0x1a, 0x58, 0x72, 0x92, 0x63, 0x93, 0x54, 0x6a,
  0x6e, 0x62, 0x7b, 0x7c, 0x89, 0x83, 0xac, 0xb7, 0x9b, 0x85, 0x7d, 0x80,
  0x71, 0xa1, 0x8d, 0x79, 0x8c, 0x79, 0x81, 0x78, 0x88, 0x74, 0x93, 0x77,
  0x76, 0x8b, 0x4e, 0x70, 0x65, 0x65, 0x82, 0x70, 0x85, 0x9c, 0x83, 0x68,
  0x74, 0x66, 0x83, 0x65, 0x67, 0x70, 0x6a, 0xaf, 0x8e, 0x5c, 0x7d, 0x98,
  0x62, 0x5d, 0x8d, 0x6c, 0x70, 0x75, 0x8f, 0x60, 0x92, 0x6e, 0x73, 0xb3,
  0x64, 0x8f, 0x75, 0x56, 0x8a, 0x83, 0x6b, 0x85, 0x9c, 0x67, 0x80, 0x57,
  0x4e, 0x62, 0x71, 0x78, 0x83, 0x6b, 0x58, 0x77, 0x8e, 0x91, 0x8c, 0x50,
  0x83, 0x9a, 0x9e, 0x36, 0x6d, 0x7c, 0x67, 0x74, 0x73, 0x30, 0x56, 0xa9,
  0x99, 0x51, 0x8f, 0x6b, 0x88, 0x4f, 0x69, 0xb7, 0x83, 0x54, 0x73, 0xb4,
  0x79, 0x9b, 0x43, 0x59, 0x7c, 0x79, 0x54, 0x52, 0x81, 0x70, 0x91, 0x56,
  0x35, 0x65, 0xa0, 0x8f, 0x5f, 0x61, 0x29, 0x8d, 0x7c, 0x6a, 0x88, 0x42,
  0x80, 0x50, 0x49, 0x7c, 0x5f, 0x58, 0x77, 0x8d, 0x68, 0x6f, 0x5e, 0x4d,
  0x40, 0x60, 0x90, 0x68, 0x71, 0x90, 0xc5, 0x40, 0x6c, 0x5a, 0x61, 0x80,
  0xa5, 0x39, 0x5a, 0x6e, 0x90, 0x79, 0x4a, 0x2e, 0x8d, 0x36, 0x8c, 0xc9,
  0x85, 0x4a, 0x5a, 0xb4, 0x8a, 0x54, 0x73, 0x3d, 0x4e, 0xa2, 0x62, 0x8a,
  0x4a, 0x84, 0xad, 0x6d, 0x67, 0x98, 0x52, 0x6d, 0x6b, 0x35, 0x45, 0x5c,
  0x8f, 0x6c, 0x7c, 0x29, 0x9d, 0x2f, 0x9c, 0xa6, 0x86, 0x34, 0x7b, 0x82,
  0x73, 0x6a, 0x61, 0x65, 0x42, 0x95, 0x70, 0x5e, 0x71, 0x62, 0x80, 0x2f,
  0x3a, 0x63, 0x63, 0x90, 0x94, 0x2c, 0x63, 0x54, 0x67, 0x87, 0x6f, 0x54,
  0x92, 0x60, 0x86, 0x8d, 0x6a, 0x30, 0x61, 0x73, 0x7f, 0x71, 0x91, 0x58,
  0x68, 0x7f, 0x68, 0x68, 0x76, 0x77, 0x8c, 0x39, 0x3a, 0x52, 0x90, 0x93,
  0x8c, 0x77, 0x89, 0x57, 0x69, 0x85, 0x87, 0x7a, 0x73, 0x63, 0x76, 0x87,
  0x95, 0x64, 0x5c, 0x7c, 0x89, 0x7b, 0x70, 0x67, 0x50, 0x55, 0x56, 0x87,
  0x73, 0x59, 0x9b, 0x8f, 0x99, 0x71, 0x59, 0x65, 0x88, 0x94, 0x99, 0x85,
  0xad, 0x86, 0x9d, 0x63, 0x91, 0x71, 0x76, 0x96, 0x6d, 0x6b, 0x75, 0x8a,
  0x7e, 0x6e, 0x71, 0xa7, 0x68, 0x7c, 0x4a, 0x9d, 0x96, 0x83, 0x81, 0x7a,
  0x8f, 0xa5, 0x71, 0x66, 0x68, 0xa3, 0x93, 0x9f, 0x8b, 0x8a, 0x9a, 0x51,
  0x6f, 0xa0, 0x72, 0xaa, 0x65, 0x65, 0x6b, 0x9c, 0xa9, 0x78, 0x5b, 0x56,
  0x92, 0x9c, 0x81, 0x98, 0x88, 0x99, 0xa2, 0x61, 0x68, 0x4e, 0x43, 0x62,
  0xa4, 0x6e, 0x65, 0x83, 0x9a, 0x71, 0x74, 0x82, 0xb5, 0x7f, 0x94, 0x85,
  0x75, 0x6d, 0x81, 0xae, 0x92, 0x80, 0x6e, 0x6f, 0xaa, 0x6d, 0x9e, 0x70,
  0xa0, 0x58, 0x8d, 0x4d, 0x93, 0x56, 0x65, 0x77, 0x6f, 0x3f, 0x5c, 0x8c,
  0x6d, 0x8c, 0x8f, 0x68, 0x71, 0x39, 0x8f, 0x85, 0x49, 0x6c, 0x59, 0x93,
  0x64, 0x5d, 0x80, 0x38, 0x3d, 0xac, 0x72, 0x8e, 0x7e, 0x76, 0x70, 0x71,
  0x70, 0x98, 0x71, 0x84, 0x5e, 0x85, 0x5e, 0x75, 0x6e, 0x83, 0x7e, 0x40,
  0x9d, 0x32, 0xa1, 0x98, 0x66, 0x66, 0x63, 0x72, 0xa2, 0x85, 0x78, 0x36,
  0x64, 0x5f, 0x86, 0x68, 0x71, 0x6b, 0x60, 0x8e, 0x87, 0x77, 0x92, 0x90,
  0x8b, 0x30, 0x7f, 0x88, 0x9f, 0x98, 0x68, 0x1e, 0x92, 0x67, 0x86, 0x80,
  0x73, 0x52, 0x51, 0x88, 0xaf, 0x71, 0x89, 0x4f, 0x76, 0x8e, 0x7d, 0x86,
  0x76, 0x88, 0x7a, 0x80, 0x65, 0x45, 0x6a, 0x70, 0x6e, 0x4b, 0x7e, 0x61,
  0x7d, 0xb4, 0x5e, 0x58, 0x77, 0x45, 0x77, 0x8b, 0x9c, 0x76, 0x5f, 0x74,
  0x74, 0x75, 0x90, 0x74, 0x2b, 0x99, 0x5e, 0x87, 0x81, 0x7c, 0x5e, 0x72,
  0x69, 0x61, 0x6f, 0x70, 0x7f, 0x8f, 0x99, 0x76, 0x6a, 0x6b, 0x81, 0x9c,
  0x8a, 0x96, 0x68, 0x79, 0x9a, 0xa8, 0x7b, 0x73, 0x38, 0x68, 0xab, 0x6a,
  0x6d, 0x5d, 0x98, 0x84, 0x9f, 0x6e, 0x72, 0x53, 0x84, 0x7d, 0x63, 0x7e,
  0xa2, 0xa0, 0x80, 0x75, 0x61, 0x6f, 0x5b, 0x5b, 0x9c, 0x69, 0x74, 0x80,
  0x80, 0x8f, 0x82, 0xc8, 0x68, 0x6e, 0xa1, 0x99, 0x7e, 0x7b, 0x4b, 0x85,
  0x91, 0x60, 0x98, 0xa8, 0x95, 0x86, 0x8f, 0x67, 0xa1, 0x67, 0x6a, 0x68,
  0x88, 0x6a, 0x6b, 0x9e, 0x74, 0x85, 0xa4, 0x6b, 0x9d, 0x6c, 0x93, 0x75,
  0x98, 0x82, 0x8f, 0x8d, 0x77, 0x8a, 0x8a, 0x87, 0x8b, 0x9e, 0x7c, 0x71,
  0x5c, 0x86, 0x67, 0x5c, 0x6b, 0x59, 0x7d, 0x72, 0x94, 0x80, 0x80, 0x8e,
  0x5e, 0x92, 0xa1, 0x5f, 0x72, 0x7d, 0x86, 0x9f, 0x53, 0x68, 0x68, 0x6f,
  0x69, 0x9a, 0x79, 0x7c, 0x92, 0x82, 0x60, 0x99, 0x8a, 0x62, 0x78, 0x50,
  0x69, 0x53, 0x60, 0x73, 0x94, 0x78, 0x7f, 0x57, 0x79, 0x67, 0x70, 0xa1,
  0x8b, 0x87, 0x58, 0x92, 0x65, 0x70, 0x6a, 0x72, 0x6b, 0x92, 0x69, 0x58,
  0xaa, 0x91, 0x72, 0x51, 0x72, 0x81, 0x7a, 0x82, 0x92, 0x65, 0x46, 0x74,
  0x4f, 0x72, 0x83, 0x47, 0x72, 0x5b, 0x58, 0x8a, 0x6f, 0xb3, 0x49, 0x96,
  0x84, 0x99, 0x79, 0x86, 0x58, 0xaf, 0x89, 0x94, 0xb7, 0x8c, 0x8c, 0x99,
  0x8e, 0x78, 0x83, 0x94, 0x65, 0x63, 0x65, 0x4f, 0x71, 0x6f, 0x85, 0x3c,
  0x83, 0x41, 0x66, 0x73, 0x64, 0x75, 0x5a, 0x7e, 0x6d, 0x7e, 0x7d, 0x7d,
  0x3a, 0x75, 0x5b, 0x53, 0x7c, 0x9a, 0x83, 0x88, 0x89, 0x8b, 0x75, 0x53,
  0x47, 0x74, 0x64, 0x72, 0x88, 0x81, 0x77, 0x6f, 0x51, 0x5b, 0x6c, 0x87,
  0xb6, 0x69, 0x2a, 0x88, 0x80, 0x82, 0x6b, 0x68, 0x55, 0x72, 0x71, 0x71,
  0x61, 0x7e, 0x6e, 0xc4, 0xa1, 0x5a, 0x5f, 0x5f, 0x6b, 0xb3, 0x99, 0x9c,
  0xa8, 0x5e, 0x94, 0x8a, 0x5e, 0x9c, 0xa2, 0x7f, 0x8d, 0x85, 0x84, 0x83,
  0x50, 0x90, 0x9b, 0x58, 0x8e, 0x75, 0x9c, 0x98, 0x89, 0x72, 0x62, 0x74,
  0xa3, 0x7a, 0x6b, 0x3a, 0x6b, 0x69, 0x7c, 0x5b, 0x64, 0x67, 0x90, 0x7e,
  0x51, 0x83, 0x8f, 0x88, 0xb9, 0x70, 0x6e, 0xa4, 0x7c, 0x66, 0x6b, 0x86,
  0x8c, 0x9f, 0x9b, 0x68, 0x6a, 0x87, 0x8a, 0xa1, 0x8a, 0x6e, 0x90, 0x8c,
  0x70, 0x71, 0x8d, 0x91, 0x9e, 0x8f, 0x9c, 0x91, 0x80, 0xa3, 0x4b, 0x4a,
  0xc4, 0x6a, 0xaa, 0xa1, 0x91, 0x94, 0x6b, 0x7a, 0x4a, 0x6f, 0x56, 0x85,
  0x9b, 0x74, 0x85, 0x6a, 0x7b, 0x5c, 0x7f, 0x6f, 0x67, 0x6f, 0x75, 0x5a,
  0x55, 0x93, 0x91, 0x80, 0x4c, 0x94, 0x56, 0xb2, 0x90, 0x99, 0x75, 0x90,
  0x72, 0x90, 0x6d, 0x6f, 0x69, 0x94, 0x50, 0x97, 0xab, 0x6a, 0x7a, 0x79,
  0xcf, 0x98, 0x71, 0x78, 0x71, 0x4e, 0x73, 0xa2, 0x4d, 0x77, 0x7c, 0x72,
  0x97, 0x8d, 0x92, 0xb9, 0x9e, 0xa5, 0x73, 0x8d, 0x8f, 0x4b, 0x8d, 0x4a,
  0x40, 0x86, 0x6c, 0x8a, 0xc3, 0x88, 0x60, 0x6f, 0x9e, 0x68, 0x67, 0x87,
  0x48, 0x57, 0x4f, 0x66, 0x87, 0x71, 0x5c, 0x74, 0x5b, 0x79, 0x7d, 0x8d,
  0x8f, 0x7c, 0x63, 0xb2, 0x7b, 0x85, 0x7d, 0x78, 0x55, 0x54, 0x92, 0x64,
  0x7d, 0x82, 0x6c, 0xc0, 0x9c, 0xa1, 0x5d, 0x57, 0x99, 0xa4, 0x71, 0x84,
  0x82, 0x74, 0x81, 0x35, 0x4e, 0x7b, 0x89, 0xa5, 0xa3, 0x74, 0x48, 0x8e,
  0x81, 0x68, 0x9e, 0x61, 0x4b, 0x68, 0x97, 0x47, 0x83, 0x7b, 0x6f, 0x8e,
  0xb1, 0x95, 0x75, 0x60, 0xad, 0x7d, 0x4b, 0x70, 0x49, 0x93, 0x9e, 0x47,
  0x68, 0x4e, 0x5a, 0x65, 0x95, 0x79, 0x71, 0x67, 0x60, 0x72, 0xa7, 0x52,
  0x5e, 0x6d, 0x77, 0x88, 0x66, 0x86, 0x52, 0xb6, 0xe0, 0x93, 0x64, 0x46,
  0x6f, 0x95, 0x99, 0x6b, 0x63, 0xac, 0x98, 0x8f, 0x40, 0x9f, 0x63, 0xa3,
  0x8d, 0xae, 0x91, 0x70, 0x76, 0x58, 0x58, 0x78, 0x6e, 0x8a, 0x8d, 0x98,
  0x85, 0x95, 0x99, 0x86, 0x92, 0x77, 0x58, 0x5a, 0x72, 0xa3, 0x5e, 0x8a,
  0x5b, 0x58, 0xa0, 0x64, 0x69, 0xae, 0x8f, 0x52, 0x8c, 0x8e, 0xad, 0x65,
  0x96, 0x74, 0x8a, 0x83, 0x59, 0x68, 0x6e, 0x66, 0x5f, 0x6c, 0x77, 0x8f,
  0x6d, 0x73, 0x7b, 0x76, 0x6e, 0x7b, 0x6f, 0x84, 0x8a, 0x84, 0x97, 0x7a,
  0x5c, 0x5f, 0x5a, 0x42, 0x93, 0x9d, 0x5b, 0x9c, 0x62, 0x70, 0x63, 0x7e,
  0x6d, 0x6e, 0x6b, 0x94, 0x59, 0x78, 0x7a, 0x7d, 0x98, 0x95, 0x76, 0x85,
  0x5e, 0xb6, 0x65, 0x6f, 0x71, 0x73, 0x83, 0x66, 0x69, 0x86, 0x6b, 0x74,
  0x9e, 0x8c, 0x6e, 0x6b, 0x7d, 0xa3, 0x64, 0x7e, 0x90, 0x6d, 0x5c, 0x61,
  0x9c, 0x6f, 0xb7, 0xa6, 0xb2, 0x74, 0x8d, 0x60, 0xaa, 0x8a, 0x51, 0x4d,
  0x73, 0x6f, 0x8b, 0x2c, 0x73, 0x72, 0x72, 0x9b, 0xa1, 0xac, 0x52, 0xa1,
  0x77, 0x7c, 0x8d, 0x4f, 0x3d, 0x80, 0x58, 0x9f, 0x6a, 0x60, 0x89, 0x78,
  0xaa, 0x5b, 0x43, 0x71, 0x7d, 0x7d, 0x6c, 0x8c, 0x98, 0x88, 0x70, 0x9a,
  0x74, 0x59, 0x4b, 0x84, 0x79, 0x77, 0x7f, 0xb7, 0x56, 0x69, 0x51, 0x53,
  0x71, 0x82, 0x5a, 0x58, 0x7f, 0x62, 0x87, 0x9d, 0x90, 0x5d, 0x74, 0x84,
  0xa1, 0x7b, 0x3e, 0x5f, 0x96, 0x47, 0x8e, 0x5f, 0x90, 0x5f, 0x81, 0x7e,
  0x5e, 0x92, 0x6d, 0x63, 0x78, 0x60, 0x91, 0x66, 0x8f, 0x6a, 0x6d, 0x8d,
  0x82, 0x6c, 0x4d, 0x73, 0xc3, 0x90, 0x73, 0x56, 0x80, 0x85, 0x49, 0x4a,
  0x55, 0x6f, 0x74, 0x51, 0x58, 0x86, 0x8d, 0x7f, 0x9c, 0xa3, 0x4a, 0x51,
  0x69, 0x94, 0xa5, 0x58, 0x7b, 0x98, 0x67, 0xa4, 0x94, 0x6c, 0x87, 0x84,
  0xb7, 0x8d, 0x93, 0x25, 0x98, 0x88, 0x61, 0x85, 0x73, 0x97, 0x6a, 0x63,
  0x7f, 0x95, 0x88, 0x6d, 0x91, 0xa0, 0x42, 0x72, 0x89, 0x64, 0x8a, 0x95,
  0x7a, 0x83, 0x86, 0x6b, 0x7e, 0x7f, 0x68, 0xb1, 0x9f, 0x5b, 0x84, 0x37,
  0x7a, 0xab, 0xa0, 0x7b, 0x70, 0x4d, 0x75, 0x51, 0x72, 0x5c, 0x70, 0x5f,
  0x87, 0x87, 0x7f, 0x61, 0x63, 0x66, 0x8a, 0x5f, 0x58, 0x86, 0x7e, 0x76,
  0x60, 0x75, 0x7b, 0x6c, 0x8b, 0x8d, 0x67, 0x56, 0x83, 0x9d, 0x7c, 0x6a,
  0x7f, 0x97, 0x7f, 0x83, 0x50, 0x48, 0x7c, 0x5f, 0x80, 0x84, 0x7f, 0x5c,
  0x71, 0x6c, 0x75, 0x4c, 0x74, 0x74, 0x7a, 0x93, 0x5f, 0x7e, 0x9c, 0x7d,
  0x77, 0x88, 0x84, 0x46, 0x7e, 0xa5, 0x66, 0x73, 0x50, 0x77, 0x6a, 0x46,
  0x56, 0x91, 0x70, 0x73, 0xa6, 0x6c, 0x49, 0x7a, 0x6c, 0x81, 0x52, 0x84,
  0x77, 0x67, 0x88, 0x81, 0x62, 0x64, 0x74, 0x9f, 0xcc, 0x9a, 0x74, 0x42,
  0x7b, 0x82, 0x5f, 0x8f, 0x4f, 0x62, 0x8e, 0x49, 0x3a, 0x43, 0x71, 0x74,
  0x93, 0x71, 0x10, 0x8a, 0x99, 0x83, 0x77, 0x1f, 0x58, 0x7c, 0x91, 0x41,
  0x6a, 0x67, 0x8a, 0x8d, 0x9a, 0x82, 0x81, 0x70, 0x88, 0x5e, 0x42, 0x71,
  0x79, 0x6f, 0x7d, 0x7a, 0x86, 0x5c, 0x70, 0xa5, 0x9f, 0xba, 0x3a, 0x86,
  0x5e, 0x85, 0x8f, 0x3c, 0x61, 0x84, 0x91, 0x7a, 0x41, 0x69, 0x72, 0x97,
  0xb4, 0x9c, 0x7c, 0x4d, 0x93, 0x99, 0x55, 0x79, 0x6e, 0x6c, 0x7b, 0x67,
  0x61, 0x45, 0x7d, 0x61, 0x97, 0xb3, 0x64, 0x89, 0x57, 0x93, 0x7a, 0x56,
  0x62, 0x88, 0x94, 0x8d, 0x68, 0x87, 0x6f, 0xaa, 0x80, 0x8d, 0x79, 0x2b,
  0x5f, 0x5b, 0x23, 0x52, 0x55, 0x71, 0x8b, 0x80, 0x7a, 0x67, 0x84, 0x5f,
  0x80, 0x8b, 0x64, 0x46, 0x61, 0x78, 0x67, 0x53, 0x79, 0x68, 0x9a, 0x7d,
  0x68, 0x7a, 0x72, 0x95, 0xb2, 0x78, 0x69, 0x45, 0x72, 0x6c, 0xa2, 0x9a,
  0x7c, 0x83, 0x75, 0x73, 0x5f, 0x75, 0x6a, 0x44, 0x9b, 0x6f, 0x90, 0x63,
  0x66, 0x8a, 0x68, 0x4d, 0x63, 0x80, 0x6f, 0x67, 0x6d, 0x86, 0x95, 0x8e,
  0x97, 0x95, 0x7c, 0x64, 0x66, 0x7b, 0x6c, 0x71, 0x59, 0x79, 0x6a, 0x8b,
  0x75, 0x7c, 0x7c, 0x4c, 0xaa, 0x70, 0x8d, 0x56, 0x93, 0x87, 0x90, 0x5e,
  0x4a, 0x82, 0x7b, 0x4e, 0x5d, 0x60, 0xa3, 0x9b, 0x7d, 0x68, 0x63, 0x3e,
  0x4d, 0x66, 0x59, 0x78, 0x46, 0x78, 0x6d, 0x64, 0x2a, 0x9a, 0xa5, 0x65,
  0x70, 0xa9, 0x7b, 0x5f, 0x87, 0x97, 0x50, 0x39, 0x64, 0x95, 0x95, 0x6c,
  0x7f, 0x65, 0x82, 0x5c, 0x91, 0x6c, 0x71, 0x3f, 0x86, 0x7f, 0x48, 0x7e,
  0x5f, 0x6f, 0x85, 0x43, 0x64, 0x4e, 0x5d, 0x70, 0xa3, 0xa9, 0x67, 0x83,
  0x31, 0x9c, 0x5f, 0x60, 0x7d, 0x76, 0x8c, 0x77, 0x6c, 0x9a, 0x67, 0x75,
  0x93, 0x82, 0x76, 0x3f, 0x6f, 0x4d, 0x37, 0x51, 0x56, 0x76, 0x85, 0x5d,
  0x39, 0x79, 0xad, 0x8b, 0xbb, 0x96, 0x63, 0x55, 0x5c, 0x93, 0x75, 0x43,
  0x7d, 0x83, 0x82, 0x91, 0x57, 0x7e, 0x9b, 0x6b, 0x89, 0x8a, 0x8b, 0x79,
  0x63, 0x52, 0x44, 0x53, 0x90, 0x79, 0x53, 0x53, 0x70, 0x65, 0x7b, 0x7e,
  0x82, 0x8f, 0x61, 0x93, 0x6f, 0x71, 0x54, 0x44, 0x5c, 0x71, 0x8e, 0x80,
  0x73, 0x9d, 0x5b, 0x96, 0x8c, 0xae, 0x4f, 0x4f, 0x95, 0x8d, 0x80, 0x6a,
  0x65, 0xab, 0x81, 0x56, 0x41, 0x58, 0x6d, 0x71, 0xa3, 0xae, 0x3e, 0x88,
  0x44, 0x93, 0x76, 0x54, 0x7e, 0x7b, 0x92, 0x74, 0x94, 0x8f, 0x65, 0x58,
  0x7f, 0x80, 0x8d, 0x55, 0x68, 0x77, 0x5e, 0x9a, 0x79, 0xb1, 0x75, 0x99,
  0x55, 0x58, 0x74, 0x41, 0xa7, 0x87, 0x71, 0x51, 0x68, 0x71, 0x86, 0x3c,
  0x6d, 0x6e, 0x74, 0x93, 0x53, 0x7d, 0x53, 0x81, 0xa4, 0x7a, 0x74, 0x4c,
  0x9d, 0x8b, 0x7c, 0x72, 0x5a, 0x85, 0x9a, 0x67, 0x78, 0x6e, 0x70, 0x5d,
  0xbb, 0xc0, 0x43, 0x58, 0x4d, 0x8c, 0x6d, 0x7d, 0x70, 0x75, 0x7b, 0x57,
  0xef, 0x77, 0x76, 0x86, 0xbb, 0xa8, 0x59, 0x79, 0xac, 0x95, 0x86, 0x4a,
  0x6e, 0x84, 0xb7, 0x69, 0x6a, 0x85, 0x78, 0x55, 0x99, 0xb2, 0x5e, 0x8a,
  0xb3, 0x4e, 0x9f, 0x96, 0x8e, 0x8b, 0x49, 0xa1, 0xd1, 0x75, 0x8c, 0xe3,
  0xb8, 0xb5, 0x4a, 0x63, 0x45, 0x7d, 0x87, 0x6b, 0x7e, 0x6e, 0x9f, 0x73,
  0x5e, 0x62, 0x99, 0x68, 0x92, 0x9b, 0x4b, 0x97, 0x8a, 0x70, 0x82, 0x8b,
  0x8f, 0x83, 0x8d, 0x76, 0xaa, 0x6b, 0x61, 0x8f, 0xa2, 0xb9, 0x6a, 0x5d,
  0x68, 0x77, 0x7d, 0x9b, 0x64, 0x72, 0x5b, 0x8e, 0x9b, 0x91, 0x6b, 0x90,
  0x8b, 0x72, 0x57, 0x8f, 0x86, 0x65, 0x50, 0x7b, 0xaf, 0x50, 0xab, 0x9b,
  0x55, 0x59, 0x71, 0x66, 0x57, 0x6e, 0x80, 0x87, 0x76, 0x78, 0x7f, 0x73,
  0x88, 0x60, 0x68, 0x7b, 0x8d, 0x87, 0xa9, 0xa5, 0x92, 0x70, 0x52, 0x9e,
  0x6e, 0x71, 0x5e, 0x5b, 0x8e, 0x6e, 0x7d, 0x56, 0x74, 0x80, 0x86, 0x69,
  0x6f, 0x68, 0x72, 0xb2, 0x69, 0x63, 0x6b, 0x8a, 0x8e, 0x67, 0x45, 0x74,
  0x94, 0x7f, 0x6a, 0x93, 0x91, 0x57, 0x84, 0xb5, 0x91, 0xaa, 0x61, 0x6d,
  0x7d, 0x9f, 0x71, 0x58, 0x8c, 0x79, 0x6f, 0x7f, 0x3e, 0x80, 0x7c, 0x61,
  0x4b, 0x63, 0x71, 0x88, 0x8a, 0x7e, 0x51, 0x58, 0x82, 0x65, 0x73, 0x97,
  0x9d, 0x53, 0x3d, 0x9c, 0x5b, 0x56, 0x8f, 0x5b, 0x54, 0x77, 0x6c, 0x83,
  0x83, 0x72, 0x85, 0x35, 0x63, 0x4c, 0xb9, 0xa4, 0xa5, 0x1e, 0x2e, 0x73,
  0x93, 0x6c, 0x71, 0x6d, 0xbd, 0x7b, 0x6c, 0xa6, 0x8f, 0x7b, 0x73, 0x92,
  0x57, 0x50, 0x60, 0x37, 0x8d, 0x91, 0x74, 0x69, 0x4b, 0x7c, 0x8b, 0x5b,
  0x7e, 0x65, 0x6b, 0x8f, 0x5b, 0x7e, 0x7e, 0x64, 0x62, 0x77, 0xbc, 0x60,
  0x60, 0x5f, 0x89, 0x4c, 0x98, 0xc1, 0x64, 0x4c, 0x7b, 0x6b, 0x81, 0x96,
  0x7b, 0x87, 0x56, 0x82, 0xc0, 0x53, 0x64, 0x82, 0x97, 0x7e, 0x59, 0x67,
  0x7e, 0x9d, 0x88, 0x4c, 0x46, 0x6d, 0xad, 0x88, 0x6b, 0x85, 0x71, 0x3c,
  0x83, 0xb2, 0x6f, 0x64, 0x7c, 0xa3, 0x70, 0x60, 0x64, 0x7d, 0x7c, 0x9e,
  0xbc, 0x94, 0x77, 0xae, 0xf2, 0xab, 0x53, 0x47, 0x58, 0x9d, 0xa8, 0x96,
  0x98, 0x82, 0xb1, 0x99, 0x34, 0x73, 0x6d, 0x71, 0x6b, 0x96, 0x96, 0x6b,
  0x6a, 0x8a, 0x67, 0xa3, 0x57, 0x6b, 0x92, 0x98, 0x88, 0x83, 0x98, 0xa7,
  0x99, 0x76, 0x6b, 0x6c, 0x53, 0x8f, 0x79, 0x5e, 0x84, 0x75, 0x70, 0x7f,
  0x95, 0xa1, 0x60, 0x92, 0x7a, 0x97, 0x73, 0x82, 0x74, 0xa7, 0x67, 0x88,
  0x88, 0x6c, 0x84, 0x80, 0x78, 0x7b, 0x89, 0x93, 0x71, 0x94, 0x68, 0x8f,
  0x92, 0x49, 0x69, 0x9d, 0x71, 0x57, 0x91, 0x7d, 0x9b, 0x56, 0x8a, 0xa9,
  0xa9, 0x7b, 0x7a, 0x90, 0x68, 0xa1, 0x63, 0x7c, 0x6a, 0x68, 0xa2, 0x54,
  0x8b, 0x5c, 0x89, 0x61, 0x5b, 0x85, 0x76, 0x6f, 0x93, 0x4c, 0x57, 0x78,
  0x9a, 0x8d, 0x82, 0x79, 0x83, 0x94, 0xa0, 0xd1, 0x61, 0x6c, 0x90, 0x90,
  0xa8, 0x6a, 0x59, 0x3e, 0x7e, 0x52, 0x8a, 0x79, 0x54, 0x73, 0x78, 0x45,
  0x69, 0x78, 0x6f, 0xb0, 0x78, 0x52, 0x75, 0x93, 0x8a, 0x7a, 0x6a, 0x6e,
  0xac, 0x76, 0xaa, 0x90, 0x91, 0x5a, 0x62, 0xa6, 0x71, 0x59, 0x64, 0x46,
  0x6c, 0x56, 0x7b, 0x9e, 0x77, 0x7d, 0x82, 0x56, 0x40, 0x37, 0x9c, 0x7f,
  0x95, 0x4c, 0x4b, 0x7b, 0x73, 0x72, 0x69, 0x49, 0x84, 0x8a, 0x6b, 0xa1,
  0x83, 0x7e, 0x2e, 0x7d, 0x6a, 0x87, 0x48, 0x4b, 0x70, 0x47, 0x6f, 0x5e,
  0x57, 0x7c, 0x9d, 0x54, 0x67, 0x4d, 0x8d, 0xa5, 0x6e, 0xa1, 0x5f, 0x52,
  0x73, 0x7e, 0x6f, 0x5d, 0x59, 0x74, 0x82, 0x31, 0x84, 0xc3, 0x45, 0x62,
  0x81, 0x88, 0x7d, 0x8e, 0x4d, 0x61, 0x87, 0x6e, 0xa0, 0x79, 0x8f, 0xa3,
  0xe1, 0xc5, 0x54, 0x4d, 0x70, 0x9f, 0x74, 0x61, 0x35, 0x86, 0x73, 0x75,
  0x6b, 0x77, 0x6e, 0x60, 0xa8, 0xad, 0x70, 0x56, 0x7f, 0x86, 0x7e, 0x96,
  0x6d, 0x6b, 0x87, 0x98, 0xc5, 0x5a, 0x5b, 0xb7, 0xde, 0xb6, 0x7d, 0x5f,
  0x78, 0xa6, 0xa6, 0x99, 0x88, 0x68, 0x9d, 0x74, 0x95, 0xa5, 0x4d, 0x76,
  0x86, 0x94, 0x6c, 0x55, 0x9a, 0x84, 0x7a, 0x8d, 0x75, 0x7f, 0x8b, 0x86,
  0xac, 0xa7, 0x69, 0x60, 0x6d, 0x58, 0x7a, 0x7f, 0x4d, 0x59, 0xa8, 0x81,
  0x9b, 0x6a, 0x9f, 0x95, 0x77, 0x54, 0x62, 0x96, 0x4c, 0xa2, 0x73, 0x9f,
  0x83, 0x67, 0x6b, 0x7e, 0x9d, 0x50, 0x78, 0x83, 0x8b, 0x5f, 0x61, 0x62,
  0x5d, 0x7f, 0x6f, 0xb8, 0x7f, 0x5d, 0x70, 0x79, 0x65, 0x6a, 0x75, 0x88,
  0x7c, 0x72, 0x7a, 0xa5, 0xaf, 0x7b, 0x75, 0xc0, 0xb3, 0x76, 0x71, 0x85,
  0x61, 0x82, 0x61, 0x8f, 0x89, 0x99, 0xa6, 0x70, 0x70, 0x88, 0x52, 0x64,
  0x7c, 0x43, 0x83, 0x65, 0xb2, 0x73, 0x94, 0x64, 0x6b, 0x53, 0x4a, 0xa8,
  0x82, 0x59, 0x9a, 0xa4, 0x81, 0x8a, 0x90, 0x5b, 0x6b, 0x63, 0x71, 0xab,
  0x7b, 0xac, 0xa7, 0x53, 0x22, 0x6a, 0x88, 0xc5, 0x9b, 0x3c, 0x86, 0x9c,
  0xa3, 0x83, 0x7a, 0x66, 0x97, 0x63, 0x79, 0x89, 0x95, 0x50, 0x55, 0x81,
  0x52, 0x93, 0x7b, 0x5f, 0x6c, 0x7f, 0x9d, 0x76, 0x4c, 0x8b, 0x8f, 0x66,
  0x5f, 0x3f, 0x6e, 0xac, 0x75, 0x3e, 0x94, 0xaa, 0x97, 0x91, 0x89, 0x61,
  0x94, 0x6d, 0xae, 0x74, 0x7a, 0x82, 0x83, 0x85, 0x48, 0x65, 0x55, 0x8d,
  0x58, 0x79, 0x78, 0x6c, 0x69, 0x61, 0x67, 0x70, 0x2b, 0x5e, 0x64, 0x7a,
  0x88, 0x89, 0x63, 0x7a, 0x55, 0xa8, 0x9a, 0x4f, 0x80, 0x66, 0x74, 0x47,
  0xb5, 0xba, 0x53, 0x7a, 0x5f, 0x59, 0x85, 0x73, 0x95, 0x88, 0x69, 0x97,
  0x8b, 0x82, 0x6f, 0xb3, 0xc2, 0x9b, 0x93, 0x5e, 0x69, 0xa2, 0x92, 0x77,
  0x66, 0x9b, 0x7d, 0x73, 0x4b, 0x7a, 0x70, 0x72, 0xc8, 0xe6, 0x61, 0x78,
  0x62, 0x73, 0xaf, 0x89, 0x5f, 0x52, 0x56, 0x77, 0x9b, 0x63, 0x80, 0xde,
  0xe1, 0x8a, 0x61, 0x64, 0x7b, 0x87, 0x86, 0x7e, 0xab, 0x86, 0x99, 0x93,
  0x78, 0x81, 0x92, 0x3a, 0x5c, 0x91, 0x7b, 0x74, 0xb4, 0x92, 0x6d, 0xae,
  0x88, 0xa6, 0x97, 0x6c, 0xb9, 0x85, 0x66, 0x92, 0x80, 0x90, 0x58, 0x67,
  0x78, 0x76, 0x99, 0x80, 0xae, 0xa3, 0x9f, 0x61, 0xad, 0x59, 0xac, 0x8e,
  0x6a, 0x87, 0x93, 0x9b, 0x78, 0xad, 0x5f, 0xbe, 0x67, 0x79, 0x7b, 0x7e,
  0xc7, 0x61, 0x69, 0x51, 0x64, 0x5d, 0x6b, 0xbc, 0x60, 0x74, 0xa7, 0x85,
  0x91, 0x98, 0xa8, 0x9d, 0x82, 0x48, 0x56, 0x7e, 0x63, 0x50, 0x94, 0x7c,
  0xc2, 0x78, 0x63, 0x9c, 0x5f, 0x6a, 0x7b, 0x4f, 0x8c, 0x7f, 0x8e, 0x64,
  0x7c, 0x6c, 0x60, 0x98, 0x6b, 0x46, 0x85, 0x6b, 0x83, 0x84, 0x8a, 0x67,
  0x8d, 0x75, 0x6e, 0x8d, 0x70, 0x6f, 0x85, 0x94, 0x8b, 0x63, 0x64, 0xbf,
  0x7f, 0x5b, 0xaa, 0x63, 0xaa, 0x4c, 0x75, 0x6e, 0x7f, 0x73, 0x9e, 0x92,
  0x7b, 0x44, 0x99, 0x68, 0x93, 0x77, 0x8b, 0xa0, 0x95, 0x3a, 0x6e, 0x8a,
  0x70, 0x4b, 0x88, 0x8e, 0x86, 0x7d, 0x76, 0x7a, 0x81, 0x4c, 0x66, 0x8c,
  0xa4, 0x52, 0x72, 0x31, 0x37, 0x50, 0x8a, 0x92, 0x5b, 0x50, 0x86, 0x97,
  0xbb, 0x79, 0x90, 0x57, 0x99, 0x5b, 0x78, 0x74, 0x97, 0x4b, 0xa9, 0xa5,
  0x8c, 0x61, 0xa6, 0x5c, 0x71, 0x87, 0x98, 0x87, 0xaf, 0x79, 0x99, 0x49,
  0x42, 0x5d, 0x4c, 0x7e, 0x8a, 0xac, 0x64, 0x4d, 0x4c, 0x85, 0x74, 0x44,
  0x5b, 0x72, 0x88, 0x5c, 0xa6, 0xbc, 0x37, 0x58, 0x3c, 0x99, 0x85, 0x65,
  0x4c, 0x7b, 0x76, 0x7a, 0x6f, 0xb0, 0x96, 0xb2, 0xc1, 0x79, 0x82, 0x2e,
  0x95, 0x83, 0x66, 0x67, 0x7a, 0x94, 0x88, 0x59, 0x73, 0x6f, 0x86, 0x5e,
  0x86, 0xc3, 0x5b, 0x66, 0x87, 0x7f, 0x7f, 0x81, 0x6b, 0x7e, 0x7c, 0x69,
  0xae, 0xa1, 0x76, 0xa4, 0xd6, 0xb3, 0x7b, 0x40, 0x8d, 0xa4, 0x87, 0x6e,
  0x92, 0x75, 0x88, 0x81, 0x74, 0x7e, 0x47, 0x90, 0x90, 0x65, 0x8c, 0x4e,
  0xba, 0x8a, 0x95, 0x99, 0x7e, 0x85, 0x93, 0x84, 0xa6, 0x71, 0x95, 0xaf,
  0x7b, 0x6c, 0x74, 0x66, 0x8b, 0x8d, 0x68, 0x9f, 0x93, 0x8a, 0xbf, 0x68,
  0x74, 0x89, 0x7f, 0x6b, 0x83, 0x5c, 0x9e, 0x66, 0xac, 0x77, 0x72, 0x8c,
  0xb5, 0x71, 0x98, 0x74, 0x78, 0x67, 0x71, 0x9c, 0x7b, 0x8f, 0x9d, 0x9b,
  0x77, 0x83, 0xb1, 0x5f, 0x81, 0x60, 0x83, 0x8e, 0x71, 0x6c, 0x79, 0x70,
  0x6b, 0x74, 0xaa, 0x9c, 0xa4, 0x98, 0x58, 0xc1, 0x7e, 0x61, 0x64, 0x8d,
  0x67, 0x72, 0x76, 0x84, 0x71, 0x47, 0x77, 0x9d, 0x79, 0x75, 0xa8, 0x76,
  0x7c, 0x89, 0x6d, 0x90, 0x4f, 0x60, 0xa9, 0xa2, 0x83, 0x55, 0x99, 0x70,
  0xb9, 0x7a, 0x6a, 0x8b, 0x4e, 0x6a, 0x50, 0x7c, 0x5e, 0x78, 0x46, 0x8e,
  0x59, 0x5a, 0x8b, 0xab, 0x4a, 0x4c, 0x6b, 0x72, 0xb2, 0x73, 0x64, 0x77,
  0x76, 0x99, 0x75, 0x70, 0x6f, 0x44, 0x8c, 0x8a, 0xa7, 0x71, 0x86, 0x6f,
  0x61, 0x47, 0x83, 0x7b, 0x70, 0x5e, 0x7d, 0x30, 0x48, 0x59, 0x6b, 0x89,
  0x54, 0x5a, 0x7d, 0x6b, 0x8c, 0x52, 0x77, 0x77, 0x6b, 0x71, 0x65, 0x50,
  0x5d, 0x52, 0x73, 0x87, 0x7b, 0x5e, 0x8c, 0x81, 0x79, 0x5b, 0x58, 0x95,
  0x8b, 0x6b, 0x8e, 0x75, 0x76, 0x58, 0x5f, 0x5e, 0xad, 0x7e, 0x58, 0x70,
  0x5e, 0x66, 0x9e, 0x2e, 0x1f, 0x4b, 0x75, 0x5d, 0xa4, 0xa9, 0x51, 0x78,
  0x60, 0x78, 0x68, 0x3d, 0x61, 0x85, 0x81, 0x6d, 0x6a, 0x80, 0x5d, 0x83,
  0xd8, 0xcf, 0x83, 0x33, 0x6c, 0xa3, 0x7b, 0x49, 0x35, 0x4a, 0x79, 0x3a,
  0x48, 0x94, 0x8c, 0x52, 0x83, 0x9b, 0x3f, 0x35, 0x3b, 0x7f, 0x94, 0x63,
  0x53, 0x7b, 0x84, 0x57, 0x80, 0x8a, 0x96, 0x84, 0xc5, 0xb8, 0x74, 0x48,
  0x80, 0x98, 0x75, 0x58, 0x92, 0x70, 0x7e, 0x6b, 0x50, 0x7f, 0x8f, 0xa4,
  0x8b, 0xb0, 0x5e, 0x88, 0x7e, 0x8e, 0x4a, 0x75, 0x74, 0x9d, 0x72, 0x9b,
  0x93, 0x91, 0x5c, 0xc3, 0xde, 0x82, 0x7a, 0x32, 0x5e, 0xb0, 0x7a, 0x92,
  0x7c, 0x60, 0x84, 0x60, 0x94, 0x7b, 0x82, 0x83, 0x70, 0x7a, 0x90, 0x94,
  0x7a, 0x83, 0x8a, 0x93, 0x64, 0x50, 0x93, 0x5a, 0x91, 0x6c, 0x72, 0x8c,
  0x8e, 0x6c, 0x74, 0x7a, 0x52, 0xae, 0x69, 0x96, 0x58, 0x7b, 0x69, 0x97,
  0x85, 0x91, 0x72, 0x84, 0x90, 0x7b, 0x8c, 0x7a, 0x7c, 0x65, 0x75, 0x7d,
  0x98, 0x9f, 0x53, 0x62, 0x8e, 0x79, 0x81, 0x8e, 0x66, 0x92, 0x80, 0x84,
  0x80, 0xb3, 0x74, 0x69, 0xa4, 0x6e, 0x68, 0x8c, 0x66, 0x71, 0x5f, 0x6c,
  0x81, 0x6d, 0x74, 0x83, 0x78, 0x80, 0x84, 0xa6, 0x83, 0x79, 0x88, 0x97,
  0x5e, 0x80, 0x70, 0x70, 0x79, 0x9a, 0x96, 0xb9, 0x6a, 0xa4, 0x69, 0x95,
  0x98, 0x8f, 0x74, 0x84, 0x8e, 0x6f, 0x6d, 0x60, 0x95, 0x47, 0x8a, 0x94,
  0x65, 0x71, 0x75, 0xa4, 0xb1, 0x8f, 0x8c, 0x73, 0x7f, 0x6d, 0x8d, 0x69,
  0x8f, 0x69, 0x51, 0x6e, 0x96, 0x8a, 0x4f, 0x63, 0x75, 0x49, 0xa5, 0x66,
  0x68, 0x84, 0x61, 0x7e, 0x80, 0xb0, 0x6d, 0x65, 0x83, 0x65, 0x6c, 0x89,
  0x70, 0x9b, 0x72, 0x68, 0x69, 0x54, 0x85, 0x6f, 0x88, 0x86, 0x9e, 0x56,
  0x4e, 0x6f, 0x4b, 0x62, 0x57, 0x7b, 0x63, 0x54, 0x3d, 0x67, 0x9c, 0x07,
  0x88, 0xb4, 0x5d, 0x36, 0x2d, 0x6f, 0x8b, 0x48, 0x53, 0x66, 0x91, 0x8e,
  0x87, 0x85, 0x5d, 0x65, 0x9a, 0x82, 0x6c, 0x04, 0x69, 0xa1, 0x45, 0x3e,
  0x50, 0x6d, 0x5f, 0x2d, 0x38, 0x5e, 0x9f, 0x75, 0x9a, 0x91, 0x1b, 0x4d,
  0x5e, 0x80, 0x4e, 0x62, 0x48, 0x77, 0x84, 0x74, 0x97, 0x76, 0x70, 0x76,
  0xca, 0x87, 0x64, 0x50, 0x89, 0x87, 0x62, 0x77, 0x73, 0x82, 0x6d, 0x92,
  0x4b, 0x9b, 0x85, 0x7b, 0xb5, 0x77, 0x3c, 0x7a, 0x91, 0x60, 0x8c, 0x7b,
  0x5f, 0x8c, 0xb0, 0x9d, 0x66, 0x9e, 0x73, 0xbb, 0xab, 0x61, 0x69, 0x6c,
  0x72, 0xa2, 0x63, 0x5f, 0x7d, 0x5d, 0x81, 0x86, 0x89, 0x79, 0x7d, 0x87,
  0x6f, 0x7f, 0x64, 0x98, 0x78, 0x85, 0x59, 0x68, 0x5f, 0x6a, 0x72, 0xa2,
  0x53, 0x81, 0x6a, 0x84, 0x9d, 0x82, 0x90, 0x57, 0x86, 0x70, 0x53, 0x79,
  0x4a, 0x74, 0x58, 0x7f, 0x70, 0x9b, 0x70, 0x51, 0x7a, 0x50, 0x7a, 0x68,
  0x67, 0x5e, 0x8c, 0x8b, 0x7b, 0x56, 0xa2, 0x6f, 0x6d, 0x75, 0x84, 0xa8,
  0x8d, 0x64, 0x85, 0x95, 0xa8, 0xbd, 0x7e, 0x87, 0x60, 0x8d, 0x73, 0xac,
  0xa6, 0x81, 0x62, 0x70, 0x4d, 0x8c, 0x93, 0x9e, 0x58, 0x5d, 0x81, 0x84,
  0x5b, 0x49, 0x88, 0xa1, 0x71, 0x9e, 0x65, 0x62, 0x94, 0x6b, 0xa4, 0x7b,
  0x81, 0xa1, 0x3e, 0x71, 0x5c, 0x65, 0x49, 0x8e, 0x83, 0x95, 0x5a, 0x65,
  0x69, 0x91, 0x67, 0xa3, 0x46, 0x80, 0x9b, 0x87, 0x83, 0x8b, 0x75, 0x79,
  0x73, 0x69, 0x81, 0x71, 0x8c, 0x78, 0x97, 0x89, 0x8b, 0x9e, 0x81, 0x90,
  0x7e, 0x93, 0x68, 0x6a, 0x52, 0x76, 0x8c, 0x57, 0x63, 0xa3, 0x5d, 0x80,
  0x6f, 0x67, 0x63, 0x8f, 0xa3, 0x60, 0x98, 0x5c, 0x71, 0x89, 0x76, 0x91,
  0xa4, 0x82, 0x8c, 0x7b, 0x75, 0x6a, 0x40, 0x5a, 0x63, 0x5c, 0x6b, 0x5b,
  0x0a, 0x63, 0x70, 0x38, 0x95, 0x6f, 0x56, 0x37, 0x5c, 0x6f, 0x5b, 0x50,
  0x28, 0x80, 0x83, 0x76, 0x91, 0xa2, 0x77, 0x7e, 0x70, 0x8d, 0x55, 0x47,
  0x7e, 0x5c, 0x75, 0x41, 0x7e, 0x5c, 0x6f, 0x36, 0x3c, 0x62, 0x5e, 0x4b,
  0x83, 0x84, 0x60, 0x37, 0x70, 0x7b, 0x79, 0x49, 0x3b, 0x7e, 0x87, 0x57,
  0x80, 0xac, 0x82, 0x70, 0x9b, 0xab, 0x6a, 0x53, 0x82, 0x8f, 0x4e, 0x51,
  0x79, 0x8a, 0x6b, 0x34, 0x16, 0x82, 0x6b, 0x78, 0x9d, 0xcd, 0x50, 0x6a,
  0x60, 0x7c, 0x7a, 0x49, 0x31, 0xa7, 0x84, 0x82, 0x86, 0x76, 0x55, 0x95,
  0xcb, 0x82, 0x6c, 0x3a, 0x6b, 0x6c, 0x74, 0x99, 0x83, 0x7c, 0x41, 0x95,
  0xa6, 0x64, 0x57, 0x7c, 0xa2, 0xa5, 0x37, 0x9d, 0x89, 0x88, 0x80, 0x59,
  0x6a, 0x81, 0x97, 0x58, 0x52, 0x92, 0x71, 0x91, 0x94, 0x7a, 0x57, 0x65,
  0x68, 0xb5, 0x74, 0x65, 0x3f, 0x6a, 0x60, 0x83, 0xa6, 0x9d, 0x85, 0xa3,
  0x71, 0x6d, 0x5c, 0x90, 0x56, 0x98, 0x71, 0x6f, 0x84, 0x93, 0x97, 0xa5,
  0x8f, 0x9b, 0x64, 0x6a, 0x8a, 0x5d, 0x8a, 0x73, 0x8d, 0x70, 0x58, 0x7f,
  0x80, 0x75, 0x60, 0x65, 0x6a, 0xac, 0x61, 0x9e, 0x8a, 0x94, 0x7b, 0xb6,
  0x8e, 0x81, 0x72, 0x53, 0x7a, 0x9f, 0x4a, 0x93, 0x55, 0xa1, 0x9d, 0x72,
  0x6c, 0x4f, 0x75, 0x54, 0x6a, 0x62, 0x63, 0x91, 0x94, 0x79, 0x8e, 0x66,
  0x6c, 0x5d, 0x6d, 0x94, 0x73, 0x94, 0x79, 0x6d, 0x87, 0x94, 0x79, 0x7f,
  0xa1, 0x4e, 0x66, 0x7d, 0x74, 0x80, 0x6f, 0x8d, 0x9b, 0x7d, 0x9a, 0x50,
  0x73, 0x6d, 0x3c, 0x63, 0x63, 0xad, 0x94, 0x63, 0x60, 0x74, 0x8a, 0x65,
  0x7c, 0x71, 0x86, 0x71, 0x66, 0x86, 0x5b, 0x81, 0x6c, 0xa9, 0x67, 0x71,
  0x6a, 0x95, 0x7e, 0x6a, 0x83, 0x6b, 0x7e, 0x66, 0x92, 0x54, 0x7e, 0x40,
  0x45, 0x72, 0x75, 0x46, 0x3c, 0x44, 0x73, 0x12, 0x7b, 0x8d, 0x15, 0x11,
  0x6a, 0xa6, 0x91, 0x58, 0x40, 0x82, 0x7b, 0x7e, 0x43, 0x65, 0x8a, 0xa2,
  0x9b, 0x7b, 0x6f, 0x28, 0x8c, 0x6b, 0x74, 0x55, 0x3c, 0x87, 0x82, 0x4e,
  0x23, 0x61, 0x7d, 0x72, 0x98, 0x8f, 0x1d, 0x3e, 0x59, 0x97, 0x96, 0x6a,
  0x46, 0x4f, 0x70, 0x72, 0x61, 0x7a, 0x88, 0xa4, 0x8e, 0xc0, 0x57, 0x5e,
  0x9a, 0x7b, 0x46, 0x96, 0x6b, 0xa7, 0x8c, 0x5a, 0x27, 0x61, 0x6a, 0x5f,
  0x84, 0xae, 0x54, 0x54, 0x58, 0x8b, 0x85, 0x5c, 0x48, 0x75, 0x5a, 0x8d,
  0x68, 0x58, 0x84, 0x6a, 0x98, 0xa7, 0x5a, 0x89, 0x4d, 0x82, 0x4b, 0x43,
  0x5a, 0x92, 0x6d, 0x8e, 0x59, 0x7a, 0x56, 0x85, 0x8d, 0x9e, 0x56, 0x84,
  0x79, 0x5b, 0x6a, 0x75, 0x87, 0x6b, 0x67, 0x9d, 0x57, 0x6d, 0x76, 0x9f,
  0x8e, 0x84, 0x76, 0x5e, 0x85, 0x6e, 0x66, 0x69, 0x55, 0x8a, 0x94, 0x3e,
  0x70, 0x68, 0x48, 0xa8, 0x84, 0x9e, 0x61, 0x72, 0x75, 0x6e, 0x55, 0x49,
  0x6a, 0x9a, 0x4f, 0x79, 0x80, 0x81, 0x9a, 0x83, 0x64, 0x7a, 0x90, 0x82,
  0x9f, 0x9a, 0x71, 0x98, 0x73, 0xa1, 0x3a, 0x8f, 0x8d, 0x76, 0x6e, 0x85,
  0x62, 0xb5, 0x5f, 0x76, 0x6d, 0x74, 0x84, 0x53, 0xa0, 0x52, 0x6e, 0x82,
  0x63, 0x97, 0xae, 0xa5, 0x95, 0x7d, 0x9f, 0x58, 0x91, 0x6f, 0x5b, 0x79,
  0x60, 0x7d, 0x94, 0x89, 0x66, 0x77, 0x7d, 0x71, 0x77, 0x7f, 0x65, 0x88,
  0x56, 0x7a, 0x52, 0x67, 0x8d, 0x9b, 0x8c, 0x5f, 0x71, 0x86, 0x86, 0x6f,
  0x6b, 0x74, 0x8e, 0x85, 0x9c, 0x57, 0x3d, 0x70, 0x4f, 0x80, 0x6d, 0x49,
  0x82, 0x91, 0x5a, 0x6e, 0x49, 0x64, 0x90, 0x67, 0x7d, 0x7a, 0x53, 0x64,
  0x92, 0x4f, 0xa6, 0x7f, 0x75, 0x8e, 0xa9, 0x73, 0x7b, 0x80, 0x6b, 0x5e,
  0x6a, 0x6c, 0x79, 0x5d, 0x7f, 0x69, 0x80, 0x42, 0x09, 0x3d, 0x9c, 0x16,
  0x7e, 0x79, 0x42, 0x41, 0x53, 0x89, 0x92, 0x4d, 0x81, 0x6a, 0x49, 0x66,
  0x53, 0x88, 0x85, 0x97, 0x88, 0x59, 0x5f, 0x45, 0x6e, 0x4b, 0x6b, 0x77,
  0x5a, 0x68, 0x6a, 0x6d, 0x34, 0x89, 0x8a, 0x31, 0x60, 0x86, 0x44, 0x32,
  0x49, 0x5e, 0x71, 0x69, 0x68, 0x87, 0x4f, 0x73, 0x6f, 0x73, 0x87, 0x9d,
  0x86, 0xb2, 0x7a, 0x6e, 0x97, 0x9e, 0x69, 0x77, 0x6e, 0x5b, 0x7c, 0x56,
  0x33, 0x6a, 0x7e, 0x4f, 0x6f, 0x7c, 0x86, 0x53, 0x77, 0x5d, 0x6b, 0x52,
  0x56, 0x68, 0x7d, 0x5d, 0x77, 0x6f, 0x85, 0x7e, 0x90, 0x71, 0x73, 0x54,
  0x75, 0x6e, 0x76, 0x82, 0x7c, 0x9b, 0x5e, 0x63, 0x53, 0x85, 0x7f, 0x5c,
  0x8a, 0xa1, 0x30, 0x77, 0x6f, 0x6d, 0x7e, 0x69, 0x48, 0x56, 0x81, 0x62,
  0x5e, 0x8d, 0xa0, 0x6a, 0xa0, 0x6d, 0x83, 0x6c, 0x5c, 0x89, 0x39, 0x94,
  0x65, 0x7f, 0x55, 0x66, 0x7e, 0x5e, 0xa8, 0x6c, 0x94, 0xa9, 0x75, 0x72,
  0x43, 0x78, 0x80, 0x45, 0x32, 0x9f, 0x96, 0x97, 0x4f, 0x5b, 0x7c, 0xab,
  0x87, 0x72, 0xa4, 0x7f, 0x7d, 0x44, 0x3e, 0x73, 0x74, 0x83, 0x73, 0x6f,
  0x6b, 0x5f, 0x62, 0x71, 0x91, 0x51, 0x8d, 0x80, 0x6b, 0x6e, 0x53, 0x72,
  0x88, 0x5c, 0x6b, 0x6f, 0x63, 0x9f, 0x75, 0x6a, 0x7c, 0x63, 0x54, 0x89,
  0x81, 0x58, 0x58, 0x75, 0x72, 0x90, 0x5d, 0x92, 0x92, 0x5b, 0x63, 0x60,
  0x9c, 0x7c, 0x86, 0x6f, 0x62, 0x9b, 0x7a, 0x6f, 0x58, 0x68, 0x54, 0x66,
  0x50, 0x4f, 0x8c, 0x4d, 0x65, 0x58, 0x7c, 0x7e, 0x65, 0x57, 0x39, 0x48,
  0x7b, 0x70, 0x70, 0x3b, 0x69, 0x77, 0x69, 0x7c, 0x6c, 0x90, 0x85, 0x73,
  0x45, 0xb0, 0x6e, 0x6a, 0x47, 0x74, 0x65, 0x73, 0x99, 0x7a, 0x82, 0x6c,
  0x8a, 0x51, 0x55, 0x66, 0x4e, 0xb4, 0x94, 0x69, 0x36, 0x92, 0x99, 0x7b,
  0x75, 0xa4, 0x65, 0x8c, 0x82, 0x9a, 0x88, 0x97, 0x9c, 0x7e, 0x9c, 0x7c,
  0xad, 0x85, 0x97, 0x96, 0x9c, 0x64, 0x76, 0x95, 0xd9, 0x97, 0x76, 0x82,
  0x7a, 0x9f, 0x79, 0x53, 0x6f, 0x89, 0xab, 0x7f, 0x78, 0x95, 0x64, 0x94,
  0xb4, 0xd4, 0x6c, 0x92, 0x58, 0x74, 0x7e, 0x71, 0x75, 0x59, 0x81, 0x69,
  0xdc, 0x72, 0x54, 0xcb, 0xc0, 0xab, 0x52, 0x7b, 0x49, 0xac, 0x89, 0x90,
  0x80, 0x95, 0x88, 0x80, 0x6d, 0x43, 0x4e, 0x88, 0x8b, 0xa5, 0x69, 0x7b,
  0xb3, 0x9c, 0xa6, 0x87, 0x75, 0x9a, 0x6f, 0x81, 0xba, 0x8b, 0xad, 0xbd,
  0x99, 0x96, 0x67, 0x83, 0x93, 0x8e, 0xbb, 0x88, 0xae, 0x94, 0x92, 0x8d,
  0x92, 0xb1, 0x77, 0x93, 0x78, 0x36, 0x89, 0x81, 0xb2, 0x6c, 0x46, 0xab,
  0xb8, 0x88, 0x7a, 0xa2, 0x60, 0x82, 0xc0, 0x55, 0x1f, 0x3b, 0xaa, 0xb8,
  0x97, 0x9f, 0x78, 0x8b, 0xad, 0x97, 0x5f, 0xbf, 0x70, 0x9c, 0x99, 0x6c,
  0x4b, 0x42, 0xdc, 0x77, 0x85, 0x74, 0x68, 0x90, 0xc5, 0x84, 0x79, 0x83,
  0x71, 0x69, 0x74, 0x53, 0x37, 0x4c, 0xb6, 0x6f, 0x80, 0x89, 0x81, 0x76,
  0x81, 0x65, 0x8f, 0x7e, 0x6f, 0x9a, 0xa7, 0x83, 0x7a, 0x27, 0x9b, 0x81,
  0x7a, 0x72, 0x74, 0x71, 0x84, 0x67, 0x61, 0x66, 0x3d, 0x72, 0x7b, 0x79,
  0x51, 0x62, 0xa5, 0x8a, 0x8c, 0x68, 0x95, 0x66, 0x72, 0x4e, 0x63, 0x87,
  0x76, 0x5e, 0x84, 0x67, 0x69, 0x6a, 0x7d, 0x98, 0x91, 0x5c, 0x97, 0x5e,
  0x88, 0x7c, 0x65, 0x91, 0x7f, 0x7d, 0x89, 0x77, 0x65, 0x75, 0x85, 0x86,
  0x65, 0x84, 0x7f, 0x5d, 0x69, 0x8e, 0x8f, 0x77, 0x72, 0x64, 0x97, 0x57,
  0x83, 0x8c, 0x78, 0x7b, 0x53, 0x91, 0x55, 0x78, 0x58, 0x65, 0x79, 0x4d,
  0x89, 0x59, 0x61, 0x78, 0x84, 0x81, 0x69, 0x71, 0x53, 0xbc, 0x44, 0x4d,
  0x67, 0x87, 0x84, 0x66, 0x53, 0xd2, 0xa3, 0x74, 0x98, 0xc6, 0x5f, 0x47,
  0x6c, 0x99, 0x83, 0x68, 0x86, 0x78, 0x87, 0x6e, 0x75, 0x6f, 0x6a, 0x90,
  0xad, 0xae, 0x9c, 0x28, 0x64, 0xc0, 0x69, 0x60, 0x55, 0x9e, 0x7b, 0x96,
  0x48, 0x8a, 0x84, 0x6e, 0xa4, 0xb4, 0x5b, 0x87, 0x6e, 0x72, 0x9b, 0x6f,
  0x79, 0x74, 0x7a, 0x8d, 0x85, 0x8a, 0x4f, 0xb9, 0xe8, 0x96, 0x56, 0x51,
  0x81, 0xc3, 0x49, 0x72, 0x7a, 0x87, 0x92, 0x48, 0x69, 0x8f, 0x56, 0x8b,
  0x64, 0xbb, 0x27, 0x89, 0x84, 0xa6, 0x8b, 0x82, 0x83, 0x6b, 0x9a, 0xcd,
  0x65, 0x8a, 0x77, 0xa6, 0xb8, 0x80, 0x5c, 0x43, 0x8f, 0x67, 0x96, 0x7d,
  0xa3, 0x5e, 0x71, 0xa9, 0xaa, 0x8a, 0x82, 0x96, 0x3b, 0x7a, 0x76, 0x5e,
  0x8c, 0x9e, 0x75, 0x6a, 0xa7, 0x6c, 0x77, 0x6a, 0x63, 0x75, 0xae, 0x87,
  0x60, 0x78, 0xb5, 0xa4, 0x77, 0xb6, 0xa2, 0x86, 0xa4, 0x9b, 0x9a, 0xb7,
  0x7a, 0x92, 0x99, 0x9e, 0x5b, 0x4f, 0xab, 0x74, 0x71, 0x5d, 0x48, 0x9a,
  0xd1, 0x7b, 0xa4, 0x6c, 0x8c, 0x6b, 0x52, 0x57, 0x2e, 0x3f, 0x8b, 0x91,
  0xa9, 0x97, 0x7e, 0x7f, 0x96, 0x73, 0x6a, 0xc0, 0x82, 0x9e, 0x80, 0x7c,
  0x44, 0x45, 0xa3, 0x90, 0x69, 0x65, 0x8d, 0x95, 0x83, 0x9b, 0x6c, 0x7a,
  0x56, 0x66, 0x5c, 0x6e, 0x45, 0x8b, 0x7a, 0x7b, 0x70, 0x7d, 0x6b, 0x63,
  0xaa, 0x7b, 0x54, 0x5d, 0x85, 0x61, 0x86, 0x8c, 0x47, 0x70, 0x8e, 0x9d,
  0x7d, 0x76, 0x7e, 0x7d, 0x69, 0x71, 0x6e, 0x70, 0x7c, 0x99, 0x67, 0x8f,
  0x46, 0x96, 0x6d, 0x7d, 0x74, 0x86, 0x81, 0x8a, 0x83, 0xa6, 0x96, 0x72,
  0x91, 0x68, 0x8b, 0x75, 0x97, 0x7f, 0x5b, 0x8f, 0x93, 0x8c, 0x82, 0x6a,
  0x60, 0x8b, 0x9c, 0x6e, 0x9b, 0x7b, 0x57, 0x78, 0x91, 0xa3, 0x40, 0x83,
  0x86, 0x9d, 0x55, 0x64, 0x6a, 0x7a, 0x95, 0x7a, 0x3a, 0x95, 0x85, 0x4e,
  0xaf, 0xd2, 0x4d, 0x41, 0x6f, 0x93, 0x7d, 0x7e, 0x71, 0xa5, 0x5f, 0x74,
  0x7b, 0x57, 0x6a, 0xb9, 0xc6, 0xa5, 0x91, 0x25, 0x86, 0x9a, 0x6c, 0x77,
  0x4a, 0xae, 0x9b, 0x80, 0x3f, 0x7c, 0x85, 0x2f, 0xb6, 0xcf, 0x3f, 0x80,
  0x63, 0x59, 0x52, 0x83, 0x7f, 0x54, 0x9f, 0x6e, 0xa7, 0x91, 0x50, 0xca,
  0xfe, 0x9e, 0x96, 0x31, 0x71, 0x9a, 0x4b, 0x67, 0x50, 0x70, 0x78, 0x65,
  0x59, 0x82, 0x7b, 0x8c, 0x72, 0x8a, 0x16, 0x82, 0xbb, 0x72, 0x94, 0x43,
  0x79, 0x7f, 0xa0, 0x94, 0x5b, 0x6b, 0x78, 0x96, 0x98, 0x8d, 0x8b, 0x55,
  0x84, 0x5a, 0xb2, 0x8d, 0xa4, 0x55, 0x48, 0x86, 0x63, 0x83, 0x7a, 0x7a,
  0x7a, 0x42, 0x89, 0x84, 0xb4, 0x5c, 0x6d, 0x97, 0xa7, 0x87, 0x84, 0x7e,
  0x6d, 0x50, 0x97, 0x71, 0x3b, 0x55, 0x98, 0xb3, 0x69, 0x76, 0x8b, 0x94,
  0x7c, 0x85, 0xa1, 0x91, 0x82, 0x8d, 0x86, 0x6a, 0x6c, 0x62, 0x93, 0x65,
  0x65, 0x8c, 0x4a, 0xae, 0xa2, 0x65, 0x6e, 0x55, 0x63, 0x95, 0x86, 0x4f,
  0x20, 0x6b, 0x8c, 0x9e, 0x82, 0x7d, 0x7f, 0x79, 0x71, 0x62, 0x92, 0x85,
  0x8f, 0x7c, 0x88, 0xa5, 0x69, 0x72, 0xa4, 0x51, 0x9b, 0x52, 0x6f, 0x9c,
  0x82, 0x81, 0x62, 0x92, 0x6b, 0x6e, 0x9c, 0x96, 0x66, 0x60, 0xa4, 0x7c,
  0x61, 0x8a, 0x73, 0x9f, 0x6b, 0x85, 0x83, 0x6e, 0x6c, 0x77, 0x66, 0x8a,
  0x4e, 0x70, 0x78, 0x6e, 0x4b, 0x6c, 0x8d, 0x73, 0x94, 0x6c, 0x9c, 0x6f,
  0x79, 0x79, 0x66, 0x77, 0x60, 0x5e, 0x8f, 0x61, 0x86, 0x85, 0x7c, 0x3f,
  0x5e, 0x86, 0x6d, 0x8d, 0x5b, 0x7c, 0x72, 0x5e, 0x7d, 0x73, 0x88, 0x61,
  0x53, 0xa8, 0x96, 0x8f, 0x74, 0x54, 0x96, 0x8a, 0x98, 0x9d, 0x95, 0x7a,
  0x85, 0x63, 0x61, 0x82, 0x8e, 0x90, 0x61, 0x59, 0x65, 0x79, 0x72, 0x4a,
  0x24, 0x9d, 0x81, 0x3b, 0x95, 0x92, 0x3e, 0x1e, 0x5c, 0x52, 0x4a, 0x42,
  0x7e, 0x68, 0x93, 0x5a, 0x4b, 0x6c, 0x6e, 0x9f, 0xb2, 0x76, 0x8f, 0x38,
  0x8a, 0x67, 0x49, 0x59, 0x36, 0x8a, 0x74, 0x5b, 0x0d, 0x7f, 0xaf, 0x53,
  0x82, 0xc7, 0x2a, 0x3d, 0x41, 0xa7, 0x72, 0x5e, 0x74, 0x7e, 0x6e, 0x7f,
  0x43, 0x85, 0x76, 0xb4, 0xbf, 0xa6, 0x74, 0x62, 0x9e, 0x91, 0x6a, 0x5e,
  0x85, 0x64, 0x75, 0x58, 0x74, 0x65, 0x8d, 0x7b, 0x64, 0x5d, 0x3f, 0xac,
  0x8f, 0xab, 0xbe, 0x4e, 0x49, 0x4c, 0x68, 0x82, 0x5d, 0x5a, 0x6b, 0x88,
  0x75, 0x84, 0x82, 0x58, 0x68, 0x78, 0xaa, 0xb7, 0x99, 0x7b, 0x5b, 0xaa,
  0x72, 0x8c, 0x80, 0x6b, 0x65, 0x28, 0x5f, 0x7f, 0xac, 0x6f, 0x83, 0x8a,
  0x99, 0x82, 0x7e, 0xb3, 0x6d, 0xa0, 0xb1, 0x3d, 0x26, 0x5c, 0x9f, 0xb7,
  0x6b, 0x86, 0x8d, 0x81, 0x8e, 0x5b, 0x76, 0x73, 0x93, 0x99, 0xa3, 0x75,
  0x73, 0x39, 0xa6, 0x6b, 0x8d, 0x91, 0x67, 0xa5, 0x8b, 0x91, 0x4d, 0x5f,
  0x66, 0x6e, 0x79, 0x39, 0x1c, 0x5a, 0xa1, 0x9f, 0x5f, 0x6a, 0x75, 0x74,
  0x5f, 0x7b, 0x67, 0x71, 0x88, 0x87, 0x8d, 0x5f, 0x38, 0x34, 0x70, 0x87,
  0x8d, 0x5e, 0x53, 0x6b, 0x7b, 0x83, 0x83, 0x73, 0x33, 0x86, 0x4f, 0x6e,
  0x44, 0x8e, 0x8b, 0xa7, 0x86, 0x5a, 0x43, 0x9f, 0x4a, 0x96, 0x73, 0x9e,
  0x6a, 0x7b, 0x54, 0x95, 0x96, 0x82, 0x96, 0x5c, 0x69, 0x74, 0x84, 0x4f,
  0x3d, 0x98, 0x7a, 0x86, 0x83, 0x75, 0x70, 0x50, 0x60, 0x9e, 0x78, 0x6f,
  0x6f, 0x71, 0x7e, 0x85, 0x7f, 0x77, 0x7b, 0x63, 0x70, 0x68, 0x76, 0x7c,
  0x96, 0x79, 0x42, 0x61, 0x67, 0x8b, 0x9c, 0x5c, 0x42, 0x7a, 0x62, 0x4a,
  0xb1, 0x91, 0x60, 0x8a, 0x80, 0x94, 0x5c, 0x61, 0xa5, 0x35, 0x32, 0x46,
  0x65, 0x5e, 0x9f, 0x55, 0x29, 0x4e, 0x85, 0x31, 0x97, 0x8e, 0x55, 0x30,
  0x27, 0x6a, 0x7b, 0x39, 0x2d, 0x9a, 0x75, 0x4a, 0x67, 0x67, 0x6e, 0x4b,
  0x52, 0x73, 0x77, 0x5f, 0x76, 0x81, 0x98, 0x9b, 0x84, 0x9c, 0x72, 0x56,
  0x42, 0x68, 0x7a, 0x3d, 0x5b, 0xa7, 0x35, 0x3b, 0x87, 0xa1, 0x6e, 0x2e,
  0x82, 0x8c, 0x89, 0x90, 0x69, 0x58, 0x7a, 0x8e, 0xa9, 0x5a, 0xa2, 0x46,
  0x7e, 0x6f, 0x7b, 0x6c, 0x7f, 0x6c, 0x51, 0x54, 0x75, 0x61, 0x6a, 0x83,
  0x2f, 0x6f, 0x48, 0xa3, 0x88, 0x80, 0x72, 0x5a, 0x8a, 0xaa, 0x5a, 0xb4,
  0x51, 0x92, 0x99, 0x9f, 0x72, 0x6e, 0x46, 0x57, 0xa9, 0x63, 0xaa, 0x8e,
  0x99, 0x7a, 0x8a, 0x78, 0xb6, 0x8b, 0x7c, 0x7b, 0x39, 0x51, 0x88, 0x73,
  0x62, 0x68, 0x62, 0x75, 0x8d, 0x57, 0x73, 0x8f, 0x4e, 0x42, 0xa9, 0x3b,
  0x0c, 0x50, 0x7b, 0xbd, 0x6d, 0x74, 0x79, 0x90, 0x70, 0x67, 0x5a, 0x93,
  0x99, 0x9b, 0x82, 0x6e, 0x71, 0x35, 0x80, 0xb1, 0x43, 0x7c, 0x81, 0x6c,
  0xa0, 0x50, 0x74, 0x80, 0x62, 0x80, 0x84, 0x47, 0x23, 0x44, 0x99, 0x96,
  0x72, 0x72, 0x3d, 0x6a, 0x66, 0x72, 0x85, 0x5c, 0xbb, 0x67, 0x5e, 0x55,
  0x43, 0x4e, 0x5a, 0x87, 0x53, 0x71, 0x5f, 0x95, 0x99, 0xa7, 0x4e, 0x48,
  0x63, 0x53, 0x84, 0x54, 0x49, 0x6b, 0x80, 0x81, 0x73, 0x61, 0x65, 0x41,
  0x60, 0x97, 0x55, 0x69, 0x79, 0x48, 0x8e, 0x96, 0x48, 0x64, 0x68, 0x62,
  0x6d, 0x4e, 0x72, 0x92, 0x62, 0x6e, 0x89, 0x8f, 0x66, 0x5e, 0xae, 0x88,
  0x44, 0x53, 0x80, 0x65, 0x6b, 0x7d, 0x6b, 0x7d, 0x4b, 0x6a, 0x5f, 0x69,
  0x7b, 0x56, 0x63, 0x51, 0x96, 0x92, 0x75, 0x81, 0x6f, 0x50, 0x93, 0x65,
  0x79, 0x7d, 0x89, 0x78, 0x5c, 0x6a, 0x6e, 0x7b, 0x71, 0x98, 0x38, 0x71,
  0x65, 0x67, 0x44, 0x3b, 0x7d, 0x88, 0x9d, 0x84, 0x30, 0x48, 0x89, 0x47,
  0x74, 0x68, 0x7c, 0x37, 0x27, 0x81, 0x61, 0x3d, 0x38, 0x6b, 0x65, 0x6a,
  0x78, 0x8a, 0xa0, 0x8d, 0x6c, 0x9c, 0x49, 0x57, 0x80, 0x83, 0x7b, 0x43,
  0x6a, 0x82, 0x7a, 0x83, 0x58, 0x48, 0x5d, 0x45, 0x8a, 0x69, 0x9d, 0x52,
  0x93, 0x7a, 0x85, 0x40, 0x6b, 0x66, 0x81, 0x96, 0x83, 0x63, 0x89, 0x81,
  0x72, 0x75, 0x5a, 0x4e, 0x74, 0x3a, 0x84, 0x8b, 0x85, 0x51, 0x58, 0x8a,
  0x6d, 0x8a, 0x6d, 0x86, 0x7d, 0x92, 0x3a, 0x90, 0x8b, 0xa7, 0xb5, 0x5c,
  0x83, 0x96, 0x7d, 0x9c, 0x80, 0x7f, 0x90, 0xa2, 0xc0, 0x73, 0x78, 0x4f,
  0x84, 0x65, 0xa4, 0x62, 0x77, 0x73, 0x4c, 0xb9, 0xd0, 0xaa, 0xab, 0x74,
  0x4a, 0x5c, 0x98, 0x69, 0xa1, 0x59, 0x5b, 0x6f, 0xa5, 0x8c, 0x89, 0x7f,
  0x54, 0x75, 0x65, 0x2c, 0x4f, 0x70, 0x8f, 0xf4, 0x47, 0x46, 0x92, 0x9d,
  0x86, 0x5c, 0x74, 0xb2, 0xc5, 0x83, 0x64, 0x6b, 0x60, 0x36, 0x81, 0x70,
  0x8d, 0x5e, 0x8c, 0x77, 0xa8, 0x54, 0x73, 0x84, 0x2f, 0x85, 0x72, 0x32,
  0x2b, 0x49, 0x8b, 0x8b, 0x7a, 0x6d, 0x53, 0x99, 0x7a, 0xa3, 0x43, 0x55,
  0x87, 0x94, 0xa6, 0x87, 0x85, 0x45, 0x75, 0x9d, 0x4c, 0x61, 0x62, 0x58,
  0x90, 0x6b, 0x85, 0x4f, 0x6a, 0x92, 0x64, 0x1e, 0x2d, 0x57, 0x83, 0x90,
  0x96, 0x46, 0x99, 0x50, 0x86, 0x8e, 0x68, 0x54, 0x84, 0x63, 0x60, 0x85,
  0x4f, 0x62, 0x43, 0x7c, 0x54, 0x8c, 0x86, 0x57, 0x62, 0x98, 0x9b, 0x7f,
  0x4b, 0x4b, 0x85, 0x62, 0x66, 0x74, 0x70, 0x6c, 0x7f, 0x70, 0x66, 0x53,
  0x7a, 0x87, 0x78, 0x63, 0x7c, 0x5e, 0x7c, 0x4c, 0x81, 0x89, 0x77, 0x55,
  0x64, 0x84, 0x8e, 0x75, 0x5b, 0x99, 0x84, 0x84, 0x2b, 0xac, 0x6a, 0x84,
  0x57, 0x91, 0x49, 0x37, 0x59, 0x5b, 0x5f, 0x80, 0x79, 0x78, 0x56, 0x61,
  0x4c, 0x93, 0x7b, 0x61, 0x52, 0x56, 0x54, 0x28, 0x8e, 0x8a, 0x9d, 0x68,
  0x64, 0x83, 0x73, 0x80, 0x90, 0x8d, 0x80, 0x7a, 0x64, 0x82, 0x3a, 0x2c,
  0x7f, 0x5f, 0x66, 0x79, 0x8f, 0x5c, 0x9f, 0x48, 0x5e, 0x6e, 0x56, 0x22,
  0x72, 0x77, 0x84, 0x86, 0x71, 0x74, 0x6d, 0x49, 0x44, 0x89, 0x96, 0x6f,
  0x79, 0x67, 0x6a, 0x69, 0x59, 0x83, 0x72, 0x6a, 0x90, 0x45, 0x6c, 0x98,
  0xa4, 0x4c, 0x5d, 0x4e, 0x71, 0x8d, 0x86, 0xa0, 0x67, 0x4d, 0x87, 0x95,
  0xa4, 0x88, 0x7b, 0x72, 0x4c, 0x82, 0x5c, 0x83, 0x79, 0x77, 0x82, 0x6a,
  0x7d, 0x9e, 0x4a, 0x72, 0x73, 0x65, 0x96, 0xba, 0x7f, 0x90, 0x6a, 0x85,
  0x9a, 0x63, 0x77, 0x79, 0x7b, 0x5d, 0x96, 0x82, 0x61, 0x58, 0x61, 0x9b,
  0xb6, 0x6f, 0x72, 0xa4, 0x47, 0x71, 0xae, 0x29, 0x1e, 0x7e, 0x73, 0xcd,
  0x5a, 0x78, 0x65, 0x86, 0x8c, 0x73, 0x5b, 0x9a, 0x9d, 0x88, 0x56, 0x7a,
  0x43, 0x4b, 0x94, 0x8f, 0x70, 0x8a, 0x4a, 0x78, 0x9e, 0x74, 0x76, 0x62,
  0x51, 0x56, 0xa1, 0x42, 0x0d, 0x65, 0x8d, 0x7f, 0x76, 0x67, 0x62, 0x5c,
  0x56, 0x83, 0x4e, 0x7d, 0x74, 0x4e, 0x74, 0x90, 0x6a, 0x79, 0x8c, 0x95,
  0x80, 0x65, 0x66, 0x3a, 0x72, 0x60, 0x67, 0x43, 0x30, 0x88, 0x6d, 0x3c,
  0x23, 0x5e, 0x6a, 0x77, 0x54, 0x5d, 0x74, 0x78, 0x87, 0x6e, 0x34, 0x6a,
  0x5a, 0x65, 0x8e, 0x7c, 0x6f, 0x4f, 0x67, 0xa8, 0x6f, 0x5c, 0x65, 0x68,
  0x80, 0x8f, 0x8a, 0x58, 0x5f, 0x49, 0x5d, 0x5b, 0x55, 0x5a, 0x73, 0x71,
  0x62, 0x5f, 0x81, 0x4f, 0x77, 0x67, 0x6f, 0x7e, 0x61, 0x51, 0x9d, 0x57,
  0x7a, 0x67, 0x6d, 0x67, 0x84, 0x71, 0x98, 0x53, 0x55, 0x89, 0x95, 0x7f,
  0x45, 0x4d, 0x82, 0x73, 0x57, 0x92, 0x51, 0x76, 0x5d, 0x47, 0x56, 0x92,
  0x64, 0x80, 0x93, 0x4b, 0x66, 0x40, 0x97, 0x39, 0x7f, 0x85, 0x58, 0x5b,
  0x65, 0x86, 0x6a, 0x50, 0x73, 0x6c, 0x57, 0x65, 0x86, 0x52, 0x79, 0x59,
  0x84, 0x78, 0x6b, 0x4d, 0x83, 0x44, 0x77, 0x66, 0x81, 0x9e, 0x54, 0x38,
  0x7b, 0x54, 0x75, 0x60, 0x5b, 0x90, 0x70, 0x5c, 0x7c, 0x97, 0x71, 0x6b,
  0x69, 0x7b, 0x74, 0x6c, 0x8d, 0x8b, 0x82, 0x69, 0x71, 0x7f, 0x85, 0x84,
  0x78, 0x69, 0x78, 0x6f, 0x87, 0x5e, 0x96, 0x9d, 0x57, 0x7a, 0x71, 0xb9,
  0x6d, 0x95, 0x4d, 0x98, 0x93, 0x78, 0xa6, 0x62, 0x74, 0x6c, 0x5f, 0x7e,
  0x76, 0x8b, 0x80, 0x88, 0xad, 0x94, 0x62, 0x52, 0xa4, 0x70, 0x95, 0xa6,
  0xbd, 0x8b, 0x52, 0xc2, 0x86, 0x88, 0x91, 0x89, 0x65, 0x61, 0x91, 0xa7,
  0xba, 0xa7, 0x4d, 0x67, 0x96, 0x82, 0x4d, 0x93, 0x4b, 0x8d, 0x80, 0x6a,
  0x2d, 0x65, 0x85, 0xa4, 0x7c, 0x9a, 0x96, 0x9e, 0xb1, 0x79, 0x47, 0x89,
  0x9c, 0xa1, 0x97, 0x7e, 0x6b, 0x2f, 0x87, 0xb5, 0xb5, 0x99, 0x90, 0x83,
  0x9d, 0x6c, 0x8c, 0x63, 0x60, 0x48, 0x77, 0x4c, 0x3b, 0x5e, 0x78, 0x8f,
  0x88, 0x72, 0x67, 0x5f, 0x7f, 0x55, 0x45, 0x8d, 0x9d, 0x7f, 0x89, 0x60,
  0x70, 0x68, 0x73, 0x62, 0x73, 0x76, 0x8b, 0x77, 0x91, 0x82, 0x87, 0x79,
  0x44, 0x5d, 0x8c, 0x5a, 0x4c, 0x64, 0x94, 0x47, 0x77, 0x5a, 0x71, 0x7f,
  0x87, 0x59, 0x6e, 0x85, 0xa9, 0x65, 0xac, 0x73, 0x5e, 0x7b, 0x97, 0x86,
  0x5a, 0x83, 0x8f, 0x45, 0x55, 0x67, 0x55, 0x4a, 0x3e, 0x4d, 0x74, 0x5a,
  0x8c, 0x50, 0xa9, 0x7d, 0x7d, 0x76, 0x4a, 0x9f, 0x66, 0x73, 0x5f, 0x7c,
  0x45, 0x74, 0x82, 0x7b, 0x8f, 0x81, 0x5b, 0x62, 0x64, 0x73, 0x62, 0x62,
  0x65, 0xa2, 0x7f, 0x86, 0x77, 0x97, 0x5c, 0x5d, 0x7b, 0xb0, 0x93, 0x35,
  0xa9, 0x78, 0x4e, 0x87, 0x59, 0x60, 0x62, 0x90, 0x64, 0x7e, 0x52, 0x3e,
  0x79, 0xa4, 0x40, 0x6c, 0x59, 0x7d, 0x89, 0x97, 0x66, 0x6a, 0x7f, 0x82,
  0x94, 0x46, 0x76, 0x72, 0x90, 0x71, 0x8b, 0x4b, 0x5f, 0x63, 0x8c, 0x97,
  0x74, 0x6b, 0x78, 0x75, 0x69, 0x73, 0x54, 0x4b, 0x6b, 0x95, 0x63, 0x74,
  0x87, 0x87, 0x68, 0x58, 0x81, 0x77, 0x7c, 0x64, 0x9d, 0x5d, 0x5c, 0x76,
  0xaf, 0x74, 0x86, 0x31, 0xa2, 0xaf, 0x4f, 0xa5, 0x8a, 0x60, 0x8b, 0x5d,
  0x6d, 0x47, 0x99, 0x7c, 0x57, 0x96, 0x9f, 0x72, 0x94, 0x90, 0x48, 0x55,
  0x70, 0x74, 0x85, 0x85, 0x90, 0x67, 0x82, 0x97, 0x84, 0x92, 0x86, 0x74,
  0x66, 0x68, 0x7a, 0xa2, 0x91, 0x97, 0x52, 0xab, 0xa9, 0x8d, 0x5f, 0x53,
  0x85, 0x4f, 0x7a, 0x7d, 0x8f, 0x69, 0x66, 0x66, 0x79, 0x95, 0xa2, 0x50,
  0x73, 0x59, 0xa8, 0x51, 0x4f, 0x32, 0x84, 0x9d, 0x6a, 0x89, 0x66, 0x66,
  0x8b, 0x68, 0x6a, 0x53, 0x89, 0x70, 0x97, 0x83, 0x64, 0x1b, 0x67, 0x60,
  0x95, 0x5e, 0x58, 0x8b, 0x8b, 0x80, 0x71, 0x73, 0x41, 0x5f, 0x79, 0x25,
  0x3b, 0x46, 0x88, 0x61, 0x7c, 0x7e, 0x50, 0x8a, 0x78, 0x5b, 0x5b, 0x85,
  0x54, 0x7b, 0x92, 0x5c, 0x55, 0x66, 0x83, 0x54, 0x95, 0x7d, 0x62, 0x5c,
  0x40, 0x69, 0x8d, 0x88, 0x50, 0x7a, 0x64, 0x34, 0x51, 0x5e, 0x77, 0x7e,
  0x71, 0x77, 0x60, 0x73, 0x81, 0x6b, 0x59, 0x4d, 0x45, 0x6e, 0x53, 0x63,
  0xb1, 0x6c, 0x48, 0x65, 0x6e, 0x80, 0x91, 0x79, 0x42, 0x9c, 0xa9, 0x5d,
  0x66, 0x8c, 0x89, 0x72, 0x7f, 0x60, 0x78, 0x59, 0x79, 0x74, 0x8e, 0x7b,
  0x51, 0x6b, 0x64, 0x6b, 0x58, 0x53, 0x62, 0x68, 0x83, 0xa0, 0x80, 0x8d,
  0x74, 0x8a, 0x5d, 0x24, 0x63, 0x78, 0xa7, 0x68, 0x49, 0x61, 0x8d, 0xa1,
  0x9d, 0x8f, 0x63, 0x35, 0x7b, 0x7f, 0x44, 0x4d, 0x7f, 0x52, 0x90, 0x50,
  0x51, 0x80, 0x7f, 0x60, 0x7a, 0x5f, 0x73, 0x51, 0x84, 0x6d, 0x7f, 0x60,
  0x69, 0x6c, 0xa8, 0x65, 0x77, 0x78, 0x6f, 0x80, 0x76, 0x73, 0x62, 0x56,
  0x69, 0x70, 0x7d, 0x84, 0x72, 0x78, 0x64, 0x7b, 0x36, 0x89, 0x75, 0x78,
  0x64, 0x72, 0x77, 0x47, 0x6c, 0x61, 0x81, 0x9a, 0x70, 0x7e, 0x6c, 0x9a,
  0x7a, 0x73, 0x55, 0x6f, 0x81, 0x65, 0xa0, 0x8c, 0x8c, 0x7f, 0x84, 0x60,
  0x60, 0x8a, 0x80, 0x92, 0x6e, 0x81, 0xa0, 0x4b, 0x5f, 0x9e, 0x5c, 0x76,
  0x9b, 0x78, 0x54, 0x6a, 0x71, 0x8e, 0x7c, 0x72, 0x45, 0x70, 0x94, 0x8d,
  0x76, 0x56, 0x8e, 0x78, 0x77, 0x96, 0x70, 0x94, 0x6c, 0x6a, 0x5f, 0x88,
  0xa7, 0x8b, 0x61, 0x66, 0x37, 0x3b, 0x76, 0x6f, 0x70, 0x85, 0x7b, 0x5c,
  0x8a, 0x82, 0x7f, 0x76, 0x27, 0x7f, 0x74, 0x53, 0x70, 0x47, 0x9f, 0x85,
  0x5f, 0x74, 0x41, 0x8d, 0x7a, 0x94, 0x4f, 0x96, 0x5c, 0x8d, 0x62, 0x71,
  0x63, 0x65, 0x89, 0x84, 0x81, 0x8e, 0x63, 0x6d, 0x8b, 0x53, 0x79, 0x53,
  0x37, 0x97, 0x92, 0x79, 0x78, 0x5d, 0x74, 0x72, 0x73, 0x7f, 0x55, 0xaf,
  0x7e, 0x62, 0x85, 0x89, 0x55, 0x74, 0x7b, 0x7c, 0x61, 0x38, 0x56, 0x20,
  0x42, 0x8b, 0x52, 0x60, 0x9d, 0x88, 0x9b, 0x3e, 0x6c, 0x71, 0x6e, 0x76,
  0x4f, 0x96, 0xad, 0x6d, 0x8b, 0x56, 0x7c, 0x74, 0x7f, 0x4b, 0x5f, 0x58,
  0x27, 0x7e, 0xae, 0x4f, 0x92, 0x96, 0x7b, 0x4a, 0x6e, 0x8b, 0x6f, 0x4a,
  0x6a, 0x5f, 0x73, 0x6b, 0x55, 0x7e, 0x8d, 0x9b, 0x61, 0x88, 0x82, 0x3d,
  0x4c, 0x7e, 0x2b, 0x49, 0x44, 0x6b, 0x64, 0x71, 0x14, 0x55, 0x87, 0x75,
  0x76, 0x74, 0x57, 0x4e, 0x65, 0x94, 0x7c, 0x5c, 0x7e, 0x84, 0x7f, 0x4d,
  0x51, 0x8a, 0x46, 0xa0, 0xad, 0x8b, 0xa2, 0x50, 0xb6, 0xdd, 0xb9, 0x9f,
  0xb8, 0x5b, 0x9d, 0xd0, 0x93, 0xd2, 0x5b, 0xb4, 0x64, 0x74, 0xe4, 0x55,
  0xc4, 0x4f, 0x5b, 0x98, 0xc9, 0x86, 0x72, 0x63, 0x5a, 0xaa, 0x5e, 0xb1,
  0x61, 0x67, 0xde, 0x80, 0x89, 0xbc, 0x91, 0xa4, 0x9b, 0x55, 0x82, 0xc3,
  0x94, 0xc3, 0x7c, 0x80, 0x54, 0x77, 0x9f, 0x6f, 0xb6, 0x63, 0x97, 0x77,
  0x98, 0xa0, 0x8e, 0x6d, 0x8a, 0x63, 0x76, 0x75, 0x5b, 0x56, 0x85, 0x89,
  0x73, 0x86, 0x72, 0x8a, 0xac, 0x8c, 0x86, 0x7e, 0x79, 0xa9, 0x72, 0x73,
  0x5c, 0x6f, 0xc1, 0x85, 0x5a, 0x46, 0xab, 0x77, 0xba, 0x79, 0x60, 0x7c,
  0x6e, 0x7e, 0x94, 0x69, 0x64, 0x78, 0xaa, 0x8c, 0x7d, 0x91, 0x95, 0x9b,
  0x68, 0x62, 0x79, 0x9c, 0x9e, 0x9b, 0x82, 0x5f, 0x85, 0x6d, 0x99, 0x71,
  0x94, 0x81, 0x73, 0xb8, 0x91, 0x7c, 0x5f, 0x75, 0x7e, 0x78, 0x8a, 0x9e,
  0x6b, 0x4c, 0x91, 0x98, 0xae, 0x87, 0x8f, 0x7a, 0x84, 0x87, 0x7a, 0x8a,
  0x6e, 0x80, 0xa1, 0x9f, 0x66, 0x93, 0x79, 0x4c, 0x7a, 0x63, 0x71, 0x63,
  0xbd, 0x96, 0x57, 0x77, 0x8c, 0x8f, 0x81, 0x79, 0x63, 0x9b, 0x92, 0x86,
  0x5d, 0x78, 0x6d, 0x92, 0x65, 0x61, 0x66, 0x6d, 0x6c, 0x32, 0x76, 0x7a,
  0x80, 0x98, 0x7b, 0x7a, 0x6b, 0x88, 0x72, 0x57, 0x50, 0x62, 0x78, 0x63,
  0x87, 0x86, 0x88, 0x75, 0x74, 0x9b, 0x74, 0x63, 0x86, 0x55, 0x6a, 0x81,
  0x8e, 0xa9, 0x96, 0x67, 0x90, 0x46, 0xa2, 0x72, 0x7b, 0x80, 0x4d, 0x7a,
  0xb1, 0xa5, 0x81, 0x80, 0x5b, 0x72, 0x6e, 0x93, 0x68, 0x65, 0xa2, 0x64,
  0x89, 0x86, 0x40, 0x8e, 0x8f, 0x59, 0x78, 0x8e, 0x9d, 0x74, 0x82, 0x6e,
  0x82, 0x6a, 0x92, 0x78, 0x7d, 0x8a, 0x54, 0x64, 0x9e, 0xaf, 0x83, 0x7b,
  0x64, 0x62, 0x77, 0x6a, 0x6e, 0x73, 0x88, 0x6e, 0x48, 0x9d, 0x5f, 0x5e,
  0x8a, 0x97, 0xc2, 0xb9, 0xab, 0x66, 0x88, 0xb5, 0x7b, 0xd7, 0x8f, 0x81,
  0x99, 0x52, 0xd2, 0x81, 0xa1, 0x9f, 0x50, 0xdf, 0xa4, 0x5e, 0x7b, 0x8e,
  0x73, 0x7e, 0x53, 0x4e, 0x59, 0x5e, 0x96, 0x95, 0x9b, 0x9f, 0x89, 0x70,
  0x74, 0x9c, 0x83, 0xad, 0x7d, 0xa4, 0x96, 0xa0, 0x93, 0x80, 0x90, 0x6a,
  0x70, 0x7c, 0x65, 0x7d, 0xb2, 0x85, 0xa5, 0x63, 0x5f, 0x83, 0x5e, 0x7b,
  0x68, 0x40, 0x77, 0x84, 0x80, 0x96, 0x98, 0x99, 0x7b, 0x9e, 0x8b, 0x9e,
  0x8d, 0xaf, 0x96, 0x84, 0x93, 0x88, 0x7f, 0x79, 0x96, 0x75, 0x96, 0x89,
  0x8f, 0x52, 0x56, 0x8e, 0x51, 0x8b, 0x80, 0x5b, 0x34, 0x5c, 0xc0, 0x66,
  0x6d, 0x8d, 0x6b, 0x6e, 0x7b, 0x4a, 0x9f, 0xa4, 0x6e, 0xa4, 0x99, 0x6d,
  0x4e, 0x7a, 0x89, 0x67, 0x6f, 0x8c, 0xae, 0x7b, 0xb9, 0x67, 0x65, 0x60,
  0x3e, 0x5f, 0x79, 0x4f, 0x5a, 0x8b, 0x8c, 0x8b, 0x9b, 0x74, 0x4e, 0x77,
  0x76, 0x76, 0x6c, 0x79, 0x7c, 0x95, 0x93, 0x5a, 0x89, 0x45, 0x8d, 0x46,
  0x7f, 0x7b, 0x6f, 0x7b, 0x8b, 0x58, 0x6c, 0x8a, 0x5b, 0x7e, 0x85, 0x73,
  0x4b, 0x72, 0x81, 0x58, 0x86, 0x6d, 0x53, 0x65, 0x4a, 0x84, 0x91, 0x69,
  0x51, 0x54, 0x99, 0x46, 0x62, 0x6c, 0x60, 0x4a, 0x68, 0x8f, 0xa5, 0x7a,
  0x7f, 0x79, 0x67, 0x5d, 0x7c, 0x89, 0x8c, 0x78, 0x62, 0x82, 0x66, 0x51,
  0x66, 0x4f, 0x59, 0x69, 0x6d, 0x5f, 0x52, 0x3f, 0x4d, 0x55, 0x88, 0x6f,
  0x98, 0x66, 0x4f, 0x90, 0x84, 0x9e, 0x76, 0x83, 0x57, 0x68, 0xaa, 0x68,
  0x93, 0x81, 0xa1, 0x7b, 0x4d, 0x9f, 0x78, 0x9c, 0x58, 0x50, 0x50, 0x62,
  0xa2, 0x88, 0x70, 0x6d, 0x84, 0x73, 0x77, 0x8b, 0x6a, 0x61, 0x90, 0x95,
  0x90, 0x6f, 0x7f, 0x77, 0x87, 0x66, 0x9a, 0x7b, 0x98, 0x92, 0x8f, 0x57,
  0x5f, 0x8b, 0x81, 0x96, 0x7c, 0x7a, 0xcd, 0xae, 0xb7, 0x85, 0xab, 0xae,
  0x91, 0xd3, 0x73, 0x84, 0x5f, 0x66, 0xc2, 0x77, 0x9c, 0x7b, 0x9a, 0xac,
  0xc1, 0x80, 0x84, 0x9d, 0x66, 0x78, 0x6c, 0x73, 0x44, 0x71, 0xc2, 0xb3,
  0xb0, 0x94, 0x8b, 0x7a, 0x93, 0x8f, 0x68, 0x89, 0x89, 0x7f, 0x85, 0x85,
  0x88, 0x3f, 0xb1, 0x8a, 0x92, 0x7c, 0x9a, 0x97, 0xb6, 0x80, 0x7c, 0x8b,
  0x53, 0x63, 0x58, 0x75, 0x5b, 0x45, 0xb2, 0x5f, 0x6e, 0x82, 0x80, 0x71,
  0x96, 0x7a, 0x9d, 0x8c, 0x86, 0x85, 0x81, 0x6c, 0x8c, 0x53, 0x80, 0x35,
  0x60, 0x8f, 0x9c, 0x77, 0x8e, 0x60, 0x7a, 0x7e, 0x74, 0x70, 0x5c, 0x62,
  0x39, 0x81, 0x65, 0x71, 0x6f, 0x92, 0xa1, 0x7c, 0x69, 0x8e, 0xa6, 0xa1,
  0x41, 0x72, 0x9b, 0x66, 0x82, 0x69, 0x9f, 0x4f, 0x78, 0x5e, 0x6b, 0x96,
  0xa9, 0x5b, 0x70, 0x97, 0x57, 0x81, 0x94, 0x6b, 0x80, 0x51, 0x97, 0x74,
  0x89, 0x5a, 0xa9, 0x6b, 0x61, 0x7e, 0x3d, 0x76, 0x66, 0x60, 0x7e, 0x46,
  0x83, 0x67, 0x87, 0x5e, 0x54, 0x75, 0x6d, 0x81, 0x9e, 0x96, 0x4e, 0x72,
  0x55, 0x69, 0x85, 0x86, 0x96, 0xa8, 0x71, 0x64, 0x54, 0x93, 0x47, 0x6e,
  0x67, 0x64, 0x73, 0x61, 0x51, 0x52, 0x70, 0x47, 0x7b, 0x42, 0x39, 0x69,
  0x5d, 0x7c, 0xa3, 0x78, 0x59, 0x87, 0x86, 0x64, 0x71, 0x83, 0x74, 0x72,
  0x79, 0x81, 0x44, 0x39, 0x67, 0x64, 0x7a, 0x76, 0x7c, 0x7f, 0xb4, 0x74,
  0x95, 0x47, 0x7d, 0x61, 0x77, 0x95, 0x79, 0x6e, 0x8f, 0x67, 0x82, 0x9a,
  0x73, 0x6d, 0x92, 0x7d, 0xb5, 0x6f, 0x81, 0x82, 0x63, 0x8f, 0x4b, 0x8c,
  0xa7, 0x80, 0x61, 0x83, 0xb1, 0x71, 0x95, 0x79, 0x90, 0x7a, 0x5b, 0x92,
  0x89, 0x60, 0x63, 0x7d, 0x77, 0x7e, 0x9c, 0x8d, 0x8b, 0x79, 0x69, 0x91,
  0xa8, 0x7b, 0xa6, 0x72, 0x6d, 0x5a, 0x73, 0x7c, 0x78, 0xaf, 0xc9, 0xa9,
  0xbe, 0x6e, 0x83, 0xbc, 0x9e, 0xce, 0x7d, 0x66, 0x71, 0x3f, 0xdb, 0x71,
  0x89, 0x7a, 0x87, 0xd5, 0xb3, 0x96, 0x63, 0x81, 0x74, 0x86, 0x75, 0x5d,
  0x60, 0x6d, 0xaf, 0xcc, 0xa5, 0x94, 0xa0, 0x63, 0xb0, 0x8b, 0x70, 0x85,
  0x92, 0x7e, 0xa2, 0x7f, 0x64, 0x75, 0x88, 0x68, 0x61, 0x69, 0x63, 0x7b,
  0x84, 0x62, 0x76, 0xb9, 0x5c, 0x68, 0x50, 0x65, 0x56, 0x58, 0x92, 0xa8,
  0x85, 0x8d, 0x94, 0x79, 0x7d, 0x82, 0x61, 0x83, 0x85, 0x87, 0xa7, 0x36,
  0x3e, 0x47, 0x9a, 0x91, 0x65, 0x99, 0x87, 0x95, 0x73, 0x8e, 0x73, 0x7d,
  0x73, 0x98, 0x46, 0x51, 0x39, 0x65, 0x8a, 0x75, 0x89, 0x5b, 0x9c, 0x82,
  0x67, 0x64, 0x50, 0x84, 0x78, 0xb4, 0x6e, 0x69, 0x74, 0x5a, 0xa2, 0x64,
  0x74, 0x61, 0x74, 0x97, 0x7f, 0x7d, 0x7f, 0x78, 0x6d, 0x76, 0x96, 0x53,
  0x56, 0x78, 0x63, 0x51, 0x8f, 0x64, 0x71, 0x7f, 0x81, 0x81, 0x70, 0x8d,
  0x95, 0x61, 0x74, 0x57, 0x86, 0x52, 0x99, 0x4e, 0x78, 0x76, 0x99, 0x77,
  0x70, 0x8f, 0x4c, 0x86, 0x71, 0x85, 0x8c, 0x7b, 0x5b, 0x92, 0x73, 0x5e,
  0x74, 0x70, 0x58, 0x4d, 0x6c, 0x8a, 0x80, 0x73, 0x5d, 0x2a, 0x81, 0x6b,
  0x95, 0x85, 0x6e, 0x83, 0x83, 0x66, 0x90, 0x52, 0x39, 0x79, 0x77, 0x74,
  0x4b, 0x72, 0x99, 0x85, 0x60, 0x7b, 0x78, 0x69, 0x8d, 0x84, 0x70, 0x5f,
  0x8a, 0x56, 0xaa, 0x77, 0x6b, 0x67, 0x99, 0xa8, 0x71, 0x84, 0x72, 0x7c,
  0x6b, 0x86, 0x69, 0x52, 0x3d, 0x6c, 0x83, 0x91, 0x8f, 0x83, 0x67, 0x76,
  0x75, 0x88, 0x7b, 0x6d, 0x6c, 0x52, 0x80, 0x59, 0xb2, 0x7c, 0x72, 0x70,
  0x63, 0x6f, 0x62, 0xa0, 0x7a, 0x57, 0x59, 0x9b, 0x91, 0xa3, 0x99, 0x94,
  0x8c, 0x74, 0x86, 0x70, 0x81, 0x76, 0x72, 0x88, 0x6f, 0x81, 0x7b, 0x82,
  0x93, 0x9a, 0xe8, 0x97, 0x9f, 0xa6, 0x7e, 0xbb, 0xa5, 0xc3, 0x8c, 0x6f,
  0x72, 0x2f, 0xce, 0x86, 0x88, 0x8a, 0x7e, 0xf8, 0xf2, 0x89, 0x69, 0xa4,
  0x64, 0x9b, 0x88, 0x54, 0x2f, 0x34, 0x99, 0xc3, 0x8c, 0x88, 0x8b, 0x80,
  0x7d, 0x96, 0x9f, 0xb8, 0x68, 0x6e, 0x86, 0x79, 0x67, 0x4f, 0x7e, 0x56,
  0x62, 0x4b, 0x82, 0x9d, 0x79, 0x6c, 0x60, 0x89, 0x6d, 0x87, 0x84, 0x50,
  0x1d, 0x27, 0x8a, 0xa7, 0x4c, 0x87, 0x97, 0x7d, 0x8a, 0x78, 0x4b, 0x7e,
  0x82, 0x61, 0x7c, 0xa0, 0x63, 0x6e, 0x78, 0x4a, 0x52, 0x82, 0x70, 0x7b,
  0x7a, 0x93, 0x67, 0x79, 0x53, 0x5e, 0x56, 0x77, 0x31, 0x62, 0x7e, 0x6b,
  0x8d, 0x58, 0x8a, 0x96, 0x44, 0xa9, 0x63, 0x9e, 0x80, 0x5a, 0x6b, 0x69,
  0x4d, 0x75, 0x7d, 0x5d, 0x62, 0x83, 0x94, 0x65, 0x87, 0x65, 0x5d, 0x4e,
  0x55, 0x7f, 0x81, 0x5a, 0x7b, 0x95, 0x6a, 0x48, 0x75, 0x6a, 0x66, 0x78,
  0x65, 0x6f, 0x4d, 0x76, 0x39, 0xb5, 0x82, 0x5f, 0x77, 0x69, 0x5e, 0x59,
  0x6b, 0x85, 0x73, 0x79, 0x57, 0x8e, 0x58, 0x65, 0x45, 0x97, 0x9d, 0x6e,
  0x5f, 0x5e, 0x5c, 0x4a, 0x77, 0x67, 0x58, 0x7f, 0x62, 0x69, 0x4f, 0x54,
  0x59, 0x47, 0x7a, 0x5e, 0x65, 0x8e, 0x6e, 0x53, 0x6d, 0x6f, 0x71, 0x3b,
  0x60, 0x7f, 0x6c, 0x57, 0x57, 0x81, 0x79, 0x6a, 0x67, 0x7b, 0x58, 0x71,
  0x67, 0x64, 0x92, 0x4e, 0x8d, 0x63, 0x90, 0x82, 0x67, 0x82, 0x79, 0x9d,
  0x74, 0x95, 0x57, 0x6d, 0xb6, 0x68, 0x75, 0x92, 0x59, 0x90, 0x6c, 0x6a,
  0x5e, 0x79, 0x80, 0xa8, 0x7a, 0xa1, 0x60, 0x6e, 0x6b, 0x8a, 0x77, 0x59,
  0x8a, 0xab, 0x9f, 0x52, 0x82, 0x98, 0x93, 0x8e, 0x84, 0x66, 0x8e, 0x98,
  0xb3, 0x60, 0x71, 0x7b, 0x6c, 0x8e, 0x4d, 0x8a, 0x7a, 0x79, 0x72, 0x7e,
  0x7b, 0x64, 0x7d, 0x3f, 0xa2, 0x99, 0x8a, 0xac, 0x76, 0x6a, 0x5f, 0xe5,
  0x9b, 0xbf, 0x6c, 0x90, 0x4f, 0x56, 0xc1, 0x63, 0x7a, 0x60, 0x88, 0xe2,
  0xef, 0x8f, 0x6d, 0x84, 0x88, 0x6f, 0x92, 0x3f, 0x1f, 0x55, 0x8a, 0xc6,
  0x88, 0x99, 0x95, 0x87, 0xa2, 0x58, 0x79, 0x9b, 0x88, 0x71, 0x68, 0x58,
  0x50, 0x78, 0x80, 0x49, 0x9b, 0x5c, 0x6a, 0x9f, 0x94, 0x7f, 0x54, 0x66,
  0x3a, 0x46, 0x79, 0x3c, 0x29, 0x50, 0x75, 0x63, 0x6b, 0x8c, 0x58, 0x6a,
  0x62, 0x8c, 0x5e, 0x65, 0x64, 0x97, 0x6a, 0x89, 0x6b, 0x6e, 0x9e, 0x33,
  0x49, 0x83, 0x6d, 0x83, 0x65, 0x5e, 0xa4, 0x62, 0x42, 0x70, 0x5c, 0x6e,
  0x55, 0x6f, 0x92, 0x61, 0x97, 0x7b, 0x70, 0x6e, 0x6b, 0x80, 0x65, 0x90,
  0x72, 0xac, 0xa4, 0x55, 0x83, 0x80, 0x65, 0x5b, 0x82, 0x67, 0x6c, 0x74,
  0xa9, 0x65, 0x78, 0x50, 0x4a, 0x5b, 0x50, 0x7b, 0x67, 0x68, 0x65, 0x62,
  0x6f, 0x8b, 0x46, 0x9f, 0x58, 0x6a, 0x7d, 0x4a, 0x74, 0x77, 0x53, 0x66,
  0x7c, 0x51, 0x6a, 0x56, 0x64, 0x87, 0x66, 0x6f, 0x79, 0x6c, 0x99, 0x82,
  0x3a, 0x97, 0x98, 0x75, 0x7e, 0x6e, 0xaf, 0x70, 0x8a, 0x75, 0x66, 0x5e,
  0x71, 0x6f, 0x43, 0x72, 0x73, 0x53, 0x81, 0x88, 0xa3, 0x62, 0x5a, 0x2a,
  0x56, 0x67, 0xa0, 0x5f, 0x2e, 0x80, 0x75, 0x78, 0x6e, 0xa3, 0x69, 0x8d,
  0x75, 0xa2, 0x75, 0x59, 0x8c, 0x60, 0x8c, 0x7a, 0xa5, 0x5a, 0x7e, 0x59,
  0x86, 0x40, 0x62, 0x54, 0x46, 0x83, 0x5b, 0x71, 0x66, 0xa4, 0x95, 0x6c,
  0x5d, 0x88, 0x71, 0x80, 0x61, 0x80, 0x86, 0x65, 0x79, 0x7e, 0x5e, 0x99,
  0x77, 0x5d, 0x56, 0x8a, 0x9f, 0x64, 0x87, 0x73, 0x7c, 0x72, 0x6b, 0x83,
  0x7e, 0x67, 0x5b, 0x7f, 0x88, 0x7e, 0x80, 0x88, 0x82, 0x82, 0x87, 0xa5,
  0x8e, 0x7b, 0xa1, 0x6f, 0x4c, 0x55, 0x5b, 0x92, 0x70, 0xd0, 0xb0, 0xb1,
  0xa5, 0x9e, 0x98, 0xd2, 0xa9, 0xc3, 0x6c, 0x91, 0x41, 0x35, 0xf2, 0x90,
  0xad, 0x5c, 0x87, 0xc1, 0xcc, 0x77, 0x97, 0x96, 0x6b, 0x9f, 0x95, 0x67,
  0x4f, 0x85, 0xaf, 0xac, 0x76, 0x76, 0xac, 0x65, 0x6c, 0x5d, 0x7b, 0xa1,
  0xbb, 0x9d, 0x6f, 0x70, 0x5d, 0x80, 0xcc, 0x62, 0x6a, 0x46, 0xa7, 0xa4,
  0xb5, 0x8b, 0x72, 0x69, 0x51, 0x4e, 0x76, 0x46, 0x4c, 0x52, 0x9a, 0x7f,
  0x5e, 0x89, 0x93, 0x70, 0x5d, 0x81, 0x4e, 0x6d, 0x4d, 0x61, 0x4b, 0x64,
  0x77, 0x55, 0x91, 0x32, 0x4c, 0x53, 0x83, 0x87, 0x55, 0x4d, 0x8d, 0x64,
  0x6c, 0x49, 0x77, 0x31, 0x4e, 0x81, 0x65, 0x5c, 0x84, 0x6a, 0x69, 0x6a,
  0x4f, 0xac, 0x54, 0x64, 0x4b, 0x73, 0x8e, 0x66, 0x8d, 0x81, 0x64, 0x8e,
  0x9c, 0x63, 0x73, 0x68, 0x49, 0x68, 0x87, 0x7f, 0x35, 0x78, 0xa0, 0x5e,
  0x57, 0x78, 0x6c, 0x28, 0x7a, 0x7e, 0x51, 0x8f, 0x4c, 0x88, 0x89, 0x7d,
  0x75, 0x5e, 0x6c, 0x77, 0x6f, 0x82, 0x43, 0x73, 0x64, 0x8d, 0x9c, 0x33,
  0x55, 0x70, 0x7f, 0x7f, 0x5b, 0x8c, 0x89, 0x83, 0x63, 0x8d, 0x88, 0x28,
  0x94, 0x37, 0x64, 0x4a, 0x75, 0x54, 0x7f, 0x55, 0x5e, 0x4c, 0x66, 0x76,
  0x6f, 0x52, 0x42, 0x83, 0x76, 0x8e, 0x98, 0x49, 0x4a, 0x85, 0xa2, 0x5f,
  0x6d, 0x65, 0x56, 0x78, 0x7b, 0x82, 0x70, 0x49, 0x57, 0x63, 0x6f, 0x6d,
  0xa3, 0x75, 0x7f, 0x64, 0x79, 0x70, 0x71, 0x85, 0x9b, 0x55, 0x87, 0xa1,
  0x86, 0x7c, 0x69, 0x78, 0x5d, 0x76, 0x88, 0x54, 0x5c, 0x70, 0x67, 0x71,
  0x7c, 0xa0, 0x55, 0x8a, 0x66, 0x9a, 0x73, 0x76, 0x98, 0x66, 0x57, 0x86,
  0x8c, 0x75, 0xad, 0x8a, 0x5d, 0x62, 0x62, 0x92, 0x8d, 0x7f, 0xa3, 0x9f,
  0x66, 0x87, 0x9b, 0x67, 0x76, 0x84, 0x7f, 0x73, 0x56, 0x51, 0x91, 0x94,
  0x89, 0x9c, 0xb7, 0x95, 0xaf, 0x7c, 0x7f, 0xa5, 0xaa, 0xc9, 0x74, 0x93,
  0x72, 0x49, 0xc7, 0xbb, 0xa8, 0x8a, 0x43, 0xc5, 0xba, 0x7b, 0x84, 0x6d,
  0x94, 0x75, 0x95, 0x80, 0x1b, 0x6c, 0x97, 0x8e, 0xa5, 0x73, 0x4d, 0x6f,
  0x7a, 0xa8, 0x96, 0x9c, 0xa2, 0xb2, 0xae, 0x82, 0x47, 0x5c, 0xbd, 0x83,
  0x62, 0x92, 0x46, 0x81, 0xcf, 0x7d, 0x8e, 0x9a, 0x7b, 0x79, 0x58, 0x77,
  0x57, 0x71, 0x7d, 0x8c, 0x5f, 0x79, 0x3e, 0x6f, 0x53, 0x7a, 0x66, 0x97,
  0x4b, 0x64, 0x83, 0x47, 0x7e, 0x7d, 0x7c, 0x28, 0x64, 0xa0, 0xa3, 0x91,
  0x81, 0x6f, 0x85, 0x5f, 0x59, 0x65, 0x68, 0x4b, 0x7f, 0x65, 0x8b, 0x25,
  0x9a, 0x75, 0x5b, 0x45, 0x87, 0x7f, 0x79, 0x82, 0x2f, 0x6c, 0x77, 0x5d,
  0x8c, 0x7b, 0x71, 0x63, 0x68, 0xa7, 0x88, 0x3c, 0x59, 0xa2, 0x7d, 0x85,
  0x45, 0x78, 0x97, 0x3f, 0x88, 0x87, 0x84, 0x2e, 0x81, 0x51, 0x57, 0x7a,
  0x7b, 0x75, 0x62, 0x53, 0x3a, 0x4d, 0x6b, 0x6b, 0x8c, 0xa1, 0x87, 0x71,
  0x7b, 0x6a, 0x4c, 0x41, 0x48, 0x8a, 0xa4, 0x79, 0x91, 0x6d, 0x71, 0x4c,
  0x4d, 0x9b, 0x7a, 0x5e, 0x84, 0x6c, 0x61, 0x60, 0x78, 0x6b, 0x71, 0x68,
  0x7b, 0x4c, 0x68, 0x89, 0x86, 0x82, 0x60, 0x4d, 0x6d, 0x7b, 0x76, 0x3b,
  0x14, 0x9d, 0x7b, 0x91, 0x7b, 0x7b, 0xb7, 0x53, 0x8c, 0xb0, 0x90, 0x42,
  0x85, 0x72, 0x88, 0x81, 0x6d, 0x71, 0x51, 0x61, 0x7b, 0x4d, 0x74, 0x7d,
  0x89, 0xa0, 0x76, 0x95, 0xa8, 0x6f, 0x93, 0x76, 0x6e, 0x80, 0x57, 0x85,
  0x82, 0x67, 0x9a, 0x63, 0x5a, 0x83, 0x87, 0x5f, 0x8d, 0x75, 0x8e, 0x7b,
  0x86, 0xa8, 0x80, 0x8a, 0xb1, 0x89, 0x85, 0xa1, 0x6a, 0x81, 0x79, 0x9f,
  0x5d, 0x7d, 0x64, 0xa1, 0x46, 0x8e, 0x8f, 0x89, 0x8b, 0x71, 0x91, 0x74,
  0x7f, 0x8f, 0x8a, 0x99, 0x92, 0xac, 0x7c, 0x7b, 0x9c, 0x64, 0x5b, 0xb8,
  0x9a, 0x86, 0x74, 0x99, 0x7e, 0x52, 0xae, 0x72, 0x92, 0x5d, 0x8b, 0xb7,
  0xe5, 0x64, 0x69, 0x5b, 0x62, 0x88, 0x71, 0x6f, 0x66, 0x68, 0xac, 0x89,
  0x6d, 0xb5, 0x99, 0x73, 0x84, 0x7f, 0x55, 0x73, 0x68, 0x83, 0x64, 0x62,
  0x5d, 0x49, 0xa4, 0x6e, 0x60, 0x72, 0x8b, 0x9d, 0xb2, 0x81, 0x8c, 0x5a,
  0x84, 0x71, 0x87, 0x82, 0x63, 0x6b, 0xa4, 0x72, 0x8f, 0x60, 0x51, 0x8b,
  0x4f, 0x91, 0x43, 0x68, 0x37, 0x9b, 0x97, 0x5b, 0x67, 0x99, 0x4f, 0x3b,
  0x6c, 0x58, 0x8c, 0x3c, 0x59, 0x6a, 0x4e, 0x79, 0x5e, 0x6b, 0x51, 0x6d,
  0x65, 0x52, 0x70, 0x65, 0x98, 0x60, 0x84, 0x75, 0x59, 0x68, 0x59, 0x5d,
  0x56, 0x81, 0x52, 0x55, 0x7c, 0x7a, 0x4f, 0x82, 0x62, 0x65, 0x86, 0x8d,
  0x3b, 0x6b, 0x77, 0x7f, 0x3a, 0x6f, 0x6e, 0x5d, 0x5d, 0x85, 0x7c, 0x41,
  0x5f, 0x82, 0x79, 0x6d, 0x6c, 0x67, 0x93, 0x60, 0x3a, 0x90, 0x8b, 0x76,
  0x45, 0x48, 0x46, 0x68, 0x5f, 0x71, 0x77, 0x57, 0x6e, 0x82, 0x5c, 0x61,
  0x57, 0x9d, 0xb7, 0x5f, 0x75, 0x9f, 0x66, 0x60, 0xab, 0x5e, 0x4d, 0x5f,
  0x8d, 0x77, 0x88, 0x6c, 0x6a, 0x6e, 0x75, 0x64, 0x90, 0x6b, 0x6a, 0x59,
  0x4f, 0x93, 0x7f, 0x25, 0x4d, 0x4f, 0x76, 0x82, 0x43, 0x89, 0x6b, 0x86,
  0x83, 0x78, 0x65, 0x4a, 0x94, 0xab, 0x75, 0x79, 0x81, 0x59, 0x71, 0x60,
  0x85, 0x67, 0x99, 0x94, 0xa8, 0x78, 0x74, 0x8c, 0x6f, 0x8b, 0x69, 0x67,
  0x9e, 0x86, 0x77, 0x71, 0x69, 0x6a, 0x8f, 0x82, 0x58, 0x88, 0x7b, 0x63,
  0x4f, 0x6d, 0x5e, 0x56, 0x68, 0x74, 0x52, 0x62, 0x9f, 0x6e, 0x53, 0x83,
  0x6a, 0x58, 0x62, 0x8d, 0xad, 0xa2, 0x74, 0x6e, 0x6c, 0x9c, 0x83, 0x7e,
  0x8d, 0x6e, 0x7a, 0x6b, 0xa4, 0x8c, 0x4f, 0x63, 0x65, 0x99, 0x9c, 0x96,
  0x69, 0x8c, 0x5e, 0x8a, 0x72, 0xc9, 0x57, 0x9d, 0x4f, 0x87, 0x93, 0x7a,
  0x87, 0x83, 0x6f, 0x72, 0xb1, 0x9c, 0x71, 0x62, 0x94, 0x91, 0x6a, 0xa8,
  0x9f, 0x6b, 0x90, 0x5d, 0x86, 0x92, 0x55, 0x71, 0x84, 0x52, 0x6d, 0x7e,
  0x3e, 0xba, 0x83, 0x4d, 0x64, 0x65, 0x90, 0x4d, 0x54, 0x66, 0x72, 0x83,
  0x9c, 0x73, 0x6d, 0x81, 0x88, 0x48, 0x61, 0x3a, 0x60, 0x76, 0x8b, 0x68,
  0x6e, 0x58, 0x50, 0x5c, 0x79, 0x71, 0x73, 0x95, 0x66, 0x5a, 0x8b, 0x2b,
  0x60, 0x47, 0x4d, 0x27, 0x57, 0xa6, 0x5c, 0x6e, 0x41, 0x68, 0x5c, 0x79,
  0x6b, 0x7b, 0x77, 0x90, 0x6d, 0x99, 0x91, 0x5e, 0xa1, 0x5f, 0x2c, 0x44,
  0x7f, 0xa2, 0x50, 0x8b, 0x29, 0x95, 0x47, 0x3d, 0x8e, 0x86, 0x77, 0x3a,
  0x5e, 0x55, 0x9a, 0x6d, 0x58, 0x78, 0x69, 0x44, 0x6a, 0x6c, 0x5d, 0x42,
  0x5c, 0x45, 0x49, 0x4d, 0x7a, 0x4d, 0x62, 0x56, 0x86, 0x62, 0x85, 0x30,
  0x23, 0x37, 0x9e, 0x33, 0x8f, 0x72, 0x4b, 0x44, 0x5d, 0x83, 0x8b, 0x5d,
  0x6e, 0x7d, 0x53, 0x82, 0x5f, 0x8f, 0x9a, 0x65, 0x6d, 0x7a, 0x52, 0x36,
  0x79, 0x91, 0x92, 0x42, 0x4f, 0x73, 0x7c, 0x45, 0x56, 0x88, 0x96, 0x41,
  0x6e, 0x9e, 0x68, 0x53, 0x86, 0x54, 0x89, 0x39, 0x89, 0xae, 0x88, 0x6a,
  0x54, 0x95, 0x8a, 0x89, 0x87, 0x85, 0x8e, 0x3f, 0x8d, 0x56, 0x9b, 0x94,
  0x42, 0x59, 0x81, 0x6a, 0x69, 0x5f, 0x63, 0x96, 0x93, 0x8b, 0x68, 0x52,
  0x92, 0x68, 0x89, 0x8f, 0x6f, 0x73, 0x8d, 0x95, 0x73, 0x65, 0x70, 0x9f,
  0x6c, 0x50, 0x5f, 0x69, 0x6e, 0x8a, 0x75, 0x8b, 0x75, 0x74, 0x78, 0x8e,
  0x6f, 0x6e, 0x66, 0xa5, 0x53, 0x8f, 0xb1, 0x6f, 0x72, 0x83, 0x67, 0x98,
  0x9e, 0x68, 0x7f, 0x82, 0x79, 0x83, 0x6d, 0x63, 0x99, 0x8f, 0x86, 0x62,
  0x53, 0x46, 0x63, 0xa0, 0x6c, 0x7d, 0x58, 0x4d, 0x6d, 0x72, 0x92, 0x6c,
  0x7d, 0x62, 0x5f, 0xbb, 0x75, 0x64, 0x6e, 0x77, 0x82, 0x77, 0x5b, 0x69,
  0x77, 0x5b, 0x98, 0x8d, 0x7b, 0x67, 0x4e, 0x8e, 0xaa, 0x3f, 0x86, 0x7a,
  0x68, 0x77, 0x8f, 0x85, 0x7b, 0x59, 0x68, 0x83, 0x7d, 0x61, 0x7b, 0x7f,
  0x83, 0x91, 0x7c, 0x51, 0x84, 0x48, 0x8f, 0x6a, 0x96, 0x7c, 0x6f, 0x62,
  0x73, 0x9a, 0x51, 0x78, 0x52, 0x51, 0x94, 0x91, 0x7f, 0x70, 0x58, 0x3b,
  0x91, 0x54, 0x72, 0x9d, 0x63, 0x70, 0x63, 0xa0, 0x79, 0x98, 0x75, 0x7c,
  0x79, 0x7d, 0x68, 0x6c, 0x7f, 0x8e, 0x9e, 0x44, 0x4e, 0x8d, 0x5e, 0x8e,
  0x99, 0x44, 0x68, 0x8a, 0x58, 0x5f, 0x8e, 0x5c, 0x90, 0x54, 0x9d, 0x87,
  0x8a, 0x5f, 0x54, 0x9e, 0x7e, 0x91, 0x56, 0x77, 0x7a, 0x5c, 0x61, 0x54,
  0x4d, 0x7b, 0xa0, 0x53, 0x32, 0x6b, 0x74, 0x68, 0x92, 0x50, 0x60, 0x93,
  0xa7, 0x52, 0x8d, 0x4b, 0xa6, 0x63, 0xaa, 0x96, 0x9b, 0x45, 0x4d, 0x97,
  0x7d, 0x47, 0x71, 0x63, 0x4e, 0x4c, 0x6b, 0x83, 0x6f, 0x7a, 0xb4, 0x5a,
  0x5b, 0x61, 0x61, 0xa0, 0x71, 0x4d, 0x52, 0x60, 0xb1, 0x78, 0x7f, 0x44,
  0x59, 0x3f, 0x76, 0x7d, 0x6d, 0x3c, 0x75, 0xa0, 0x83, 0x79, 0x9a, 0x43,
  0x62, 0x79, 0x64, 0x74, 0x7e, 0x6e, 0x84, 0x56, 0x6e, 0x5a, 0x58, 0x69,
  0x7b, 0x54, 0x65, 0x87, 0xa4, 0x7b, 0x51, 0x95, 0xb4, 0x80, 0x57, 0x97,
  0x9a, 0x6a, 0x7f, 0xa1, 0x9a, 0x68, 0x5b, 0x60, 0x92, 0x68, 0x69, 0x69,
  0x73, 0x52, 0x7c, 0x47, 0x5a, 0x67, 0x92, 0x8e, 0x74, 0x6e, 0x4f, 0xa0,
  0x9a, 0x96, 0x73, 0x78, 0x8f, 0xa7, 0x72, 0x83, 0xaa, 0x4b, 0x66, 0x73,
  0x5f, 0x59, 0x76, 0x89, 0x7e, 0x7b, 0x9e, 0x61, 0x63, 0xa6, 0x60, 0x54,
  0x54, 0x87, 0xa5, 0xb8, 0xa3, 0x67, 0x5f, 0x82, 0x86, 0x6c, 0x77, 0x74,
