/* Copyright 2018 The TensorFlow Authors. All Rights Reserved.

Licensed under the Apache License, Version 2.0 (the "License");
you may not use this file except in compliance with the License.
You may obtain a copy of the License at

    http://www.apache.org/licenses/LICENSE-2.0

Unless required by applicable law or agreed to in writing, software
distributed under the License is distributed on an "AS IS" BASIS,
WITHOUT WARRANTIES OR CONDITIONS OF ANY KIND, either express or implied.
See the License for the specific language governing permissions and
limitations under the License.
==============================================================================*/

// Automatically created from a TensorFlow Lite flatbuffer using the command:
// xxd -i tiny_conv.tflite > tiny_conv_simple_features_model_data.cc
// See the README for a full description of the creation process.

#include "tensorflow/lite/experimental/micro/examples/micro_speech/micro_features/tiny_conv_micro_features_model_data.h"

// We need to keep the data array aligned on some architectures.
#ifdef __has_attribute
#define HAVE_ATTRIBUTE(x) __has_attribute(x)
#else
#define HAVE_ATTRIBUTE(x) 0
#endif
#if HAVE_ATTRIBUTE(aligned) || (defined(__GNUC__) && !defined(__clang__))
#define DATA_ALIGN_ATTRIBUTE __attribute__((aligned(4)))
#else
#define DATA_ALIGN_ATTRIBUTE
#endif

const unsigned char
    g_tiny_conv_micro_features_model_data[] DATA_ALIGN_ATTRIBUTE = {
  0x1c, 0x00, 0x00, 0x00, 0x54, 0x46, 0x4c, 0x33, 0x00, 0x00, 0x00, 0x00,
  0x00, 0x00, 0x0e, 0x00, 0x18, 0x00, 0x04, 0x00, 0x08, 0x00, 0x0c, 0x00,
  0x10, 0x00, 0x14, 0x00, 0x0e, 0x00, 0x00, 0x00, 0x03, 0x00, 0x00, 0x00,
  0xc4, 0x46, 0x00, 0x00, 0x0c, 0x00, 0x00, 0x00, 0x10, 0x00, 0x00, 0x00,
  0x20, 0x00, 0x00, 0x00, 0x01, 0x00, 0x00, 0x00, 0xb4, 0x41, 0x00, 0x00,
  0x0f, 0x00, 0x00, 0x00, 0x54, 0x4f, 0x43, 0x4f, 0x20, 0x43, 0x6f, 0x6e,
  0x76, 0x65, 0x72, 0x74, 0x65, 0x64, 0x2e, 0x00, 0x09, 0x00, 0x00, 0x00,
  0x94, 0x41, 0x00, 0x00, 0x04, 0x03, 0x00, 0x00, 0x74, 0x00, 0x00, 0x00,
  0x6c, 0x00, 0x00, 0x00, 0x64, 0x00, 0x00, 0x00, 0x34, 0x00, 0x00, 0x00,
  0x2c, 0x00, 0x00, 0x00, 0x0c, 0x00, 0x00, 0x00, 0x04, 0x00, 0x00, 0x00,
  0xfc, 0xb9, 0xff, 0xff, 0x5a, 0xba, 0xff, 0xff, 0x04, 0x00, 0x00, 0x00,
  0x10, 0x00, 0x00, 0x00, 0xfe, 0x03, 0x00, 0x00, 0x6d, 0xfd, 0xff, 0xff,
  0xc8, 0xfd, 0xff, 0xff, 0xc3, 0x00, 0x00, 0x00, 0x1c, 0xba, 0xff, 0xff,
  0x7a, 0xba, 0xff, 0xff, 0x04, 0x00, 0x00, 0x00, 0x20, 0x00, 0x00, 0x00,
  0x52, 0xff, 0xff, 0xff, 0x84, 0xff, 0xff, 0xff, 0x25, 0xff, 0xff, 0xff,
  0x23, 0xfc, 0xff, 0xff, 0x4c, 0x00, 0x00, 0x00, 0xca, 0xfd, 0xff, 0xff,
  0xbb, 0xff, 0xff, 0xff, 0x6a, 0xfd, 0xff, 0xff, 0x4c, 0xba, 0xff, 0xff,
  0x50, 0xba, 0xff, 0xff, 0xae, 0xba, 0xff, 0xff, 0x04, 0x00, 0x00, 0x00,
  0x80, 0x02, 0x00, 0x00, 0x70, 0x48, 0xa6, 0x86, 0x5b, 0x42, 0xa9, 0x6a,
  0xa4, 0x72, 0xa9, 0x7a, 0x70, 0x41, 0x86, 0x55, 0xaf, 0x91, 0x9b, 0x7b,
  0x74, 0x81, 0x9d, 0x95, 0x96, 0x88, 0x9b, 0x7a, 0x95, 0x51, 0x7f, 0x7b,
  0x76, 0xad, 0x87, 0x5a, 0x55, 0x80, 0x87, 0xb5, 0x6c, 0x8f, 0x71, 0x8e,
  0x67, 0x65, 0x7a, 0x86, 0x5f, 0xaf, 0x59, 0x4f, 0x3a, 0xa2, 0x89, 0xa8,
  0x81, 0x90, 0x5b, 0x95, 0x47, 0x96, 0x84, 0x84, 0x75, 0x3d, 0xae, 0xb7,
  0x6c, 0x52, 0xb0, 0x54, 0xa5, 0x60, 0x9b, 0x86, 0x77, 0x45, 0x82, 0x5e,
  0xa4, 0x75, 0x9d, 0x92, 0x78, 0x9d, 0x9e, 0xa2, 0x95, 0x7c, 0x95, 0x78,
  0xb0, 0x60, 0x71, 0x88, 0x72, 0xb3, 0x85, 0x65, 0x68, 0xab, 0x83, 0xbc,
  0x67, 0x7c, 0x6c, 0x86, 0x74, 0x87, 0x75, 0x7a, 0x4b, 0xbf, 0x54, 0x46,
  0x59, 0xbd, 0x79, 0xa7, 0x84, 0x9c, 0x52, 0x7e, 0x6f, 0xa5, 0x7d, 0x75,
  0x78, 0x3e, 0xa5, 0xd2, 0x63, 0x59, 0xab, 0x5b, 0x9d, 0x4d, 0x96, 0x87,
  0x75, 0x39, 0x7c, 0x62, 0x8b, 0x67, 0xa0, 0xa5, 0x74, 0xcb, 0xab, 0xbd,
  0x95, 0x69, 0x8e, 0x6b, 0xa2, 0x5f, 0x72, 0x89, 0x5b, 0xa3, 0x8d, 0x67,
  0x5c, 0xc8, 0x74, 0xbc, 0x6f, 0x7d, 0x6b, 0x6e, 0x75, 0x7d, 0x76, 0x70,
  0x48, 0xc4, 0x49, 0x32, 0x6d, 0xb9, 0x71, 0xa7, 0x80, 0x9c, 0x4f, 0x5e,
  0x86, 0x96, 0x7b, 0x69, 0x7a, 0x42, 0xba, 0xf8, 0x71, 0x7a, 0xb5, 0x72,
  0xb8, 0x54, 0xa8, 0x90, 0x8b, 0x5a, 0x76, 0x6e, 0x94, 0x53, 0x9e, 0xc4,
  0x83, 0xee, 0xa8, 0xcd, 0xa5, 0x66, 0x96, 0x6d, 0xb7, 0x6c, 0x79, 0x8b,
  0x51, 0x9d, 0x7f, 0x63, 0x61, 0xde, 0x6b, 0xb6, 0x71, 0x87, 0x70, 0x6f,
  0x7d, 0x76, 0x65, 0x67, 0x3e, 0xc5, 0x2c, 0x34, 0x74, 0xa5, 0x68, 0x9c,
  0x8f, 0xa3, 0x49, 0x56, 0x8c, 0x7e, 0x76, 0x60, 0x89, 0x4a, 0xb6, 0xff,
  0x6f, 0x9b, 0xa5, 0x90, 0xb9, 0x55, 0xb0, 0x85, 0x8e, 0x6f, 0x79, 0x6d,
  0x8a, 0x50, 0x9d, 0xd3, 0x84, 0xf1, 0x92, 0xd0, 0xa4, 0x57, 0x91, 0x63,
  0xb2, 0x72, 0x75, 0x81, 0x36, 0x8b, 0x6c, 0x6c, 0x6c, 0xc2, 0x61, 0xb0,
  0x74, 0x79, 0x6d, 0x62, 0x74, 0x66, 0x6e, 0x5e, 0x3e, 0xcd, 0x19, 0x43,
  0x7d, 0x7d, 0x6e, 0x98, 0x9a, 0xa8, 0x51, 0x45, 0x9a, 0x65, 0x77, 0x60,
  0x82, 0x59, 0xb2, 0xff, 0x8a, 0xb0, 0xaa, 0x99, 0xb1, 0x5a, 0xb0, 0x81,
  0xb5, 0x77, 0x81, 0x74, 0x76, 0x57, 0xa3, 0xe3, 0x8e, 0xe1, 0x8b, 0xc0,
  0x96, 0x5b, 0x99, 0x5d, 0xc3, 0x6f, 0x72, 0x7b, 0x33, 0x7c, 0x56, 0x81,
  0x6a, 0xa2, 0x4f, 0xa2, 0x76, 0x80, 0x6f, 0x65, 0x88, 0x61, 0x7c, 0x63,
  0x57, 0xc5, 0x18, 0x4f, 0x73, 0x6a, 0x76, 0x7e, 0x9a, 0xb4, 0x61, 0x43,
  0x99, 0x4a, 0x85, 0x5f, 0x81, 0x57, 0xa4, 0xe4, 0x79, 0xb2, 0x9a, 0xa2,
  0xad, 0x69, 0xab, 0x7a, 0xa9, 0x85, 0x7a, 0x72, 0x56, 0x4f, 0x81, 0xf5,
  0x90, 0xc6, 0x7c, 0xaf, 0x84, 0x53, 0x75, 0x60, 0xff, 0x68, 0x75, 0x76,
  0x35, 0x77, 0x41, 0xa3, 0x62, 0x94, 0x5c, 0x95, 0x81, 0x86, 0x62, 0x67,
  0x92, 0x62, 0x77, 0x63, 0x6a, 0xb4, 0x39, 0x6f, 0x65, 0x4b, 0x74, 0x76,
  0xa7, 0xb2, 0x63, 0x42, 0xad, 0x42, 0x93, 0x64, 0x6e, 0x5b, 0x83, 0xaf,
  0x72, 0xa7, 0x79, 0x96, 0x8a, 0x73, 0x7d, 0x61, 0x8f, 0x8e, 0x73, 0x79,
  0x42, 0x52, 0x72, 0xe6, 0x78, 0xa0, 0x6b, 0x99, 0x62, 0x61, 0x42, 0x63,
  0xaa, 0x6f, 0x6e, 0x78, 0x3f, 0x7e, 0x4e, 0xb9, 0x57, 0x7a, 0x7b, 0x87,
  0x78, 0x87, 0x5b, 0x69, 0x75, 0x75, 0x88, 0x68, 0x7e, 0xa3, 0x4d, 0x8f,
  0x55, 0x41, 0x77, 0x69, 0xa2, 0xa9, 0x70, 0x4f, 0x98, 0x4f, 0x8a, 0x63,
  0x58, 0x5f, 0x51, 0x72, 0x49, 0x98, 0x63, 0x8d, 0x59, 0x7c, 0x45, 0x47,
  0x86, 0x96, 0x6e, 0x7e, 0x40, 0x5b, 0x3b, 0xcc, 0x65, 0x8e, 0x61, 0x81,
  0x4a, 0x56, 0x1e, 0x64, 0xb3, 0x7d, 0x71, 0x7e, 0x54, 0x73, 0x45, 0xcf,
  0x47, 0x6e, 0x87, 0x78, 0x7e, 0x7a, 0x46, 0x7c, 0x89, 0x82, 0x97, 0x6c,
  0x7b, 0xa7, 0x61, 0xc0, 0x4e, 0x4a, 0x81, 0x54, 0xa3, 0x9d, 0x7c, 0x5d,
  0x98, 0x64, 0x9d, 0x5f, 0x48, 0x5f, 0x35, 0x39, 0x34, 0x87, 0x62, 0x6e,
  0x3c, 0x7c, 0x01, 0x28, 0x68, 0xa0, 0x63, 0x82, 0x32, 0x51, 0x36, 0xa2,
  0x48, 0x7a, 0x73, 0x70, 0x41, 0x59, 0x02, 0x57, 0xa6, 0x8c, 0x82, 0x7f,
  0x54, 0x74, 0x4a, 0xd1, 0x3b, 0x67, 0x88, 0x76, 0x76, 0x67, 0x4a, 0x87,
  0x72, 0x95, 0x92, 0x65, 0x7b, 0x88, 0x60, 0xde, 0x57, 0x50, 0x83, 0x5b,
  0xa1, 0x7c, 0x7d, 0x7b, 0x96, 0x7e, 0x93, 0x69, 0x3a, 0xbd, 0xff, 0xff,
  0x04, 0x00, 0x00, 0x00, 0x80, 0x3e, 0x00, 0x00, 0x97, 0x60, 0x7c, 0x78,
  0x88, 0x98, 0x5c, 0x91, 0xa3, 0x9c, 0x77, 0x96, 0x8e, 0xa1, 0x9f, 0x7f,
  0x6f, 0xb0, 0x6f, 0xa0, 0x5b, 0xaa, 0x5b, 0x9e, 0x98, 0x77, 0x90, 0x8a,
  0x6c, 0x65, 0x6e, 0x7e, 0xa1, 0x88, 0x98, 0x74, 0x66, 0x8b, 0x75, 0x70,
  0x7a, 0x94, 0x80, 0x8d, 0x8c, 0xa9, 0x8d, 0x61, 0x69, 0xa2, 0x84, 0x7c,
  0xab, 0x74, 0x80, 0xa4, 0x8c, 0x7f, 0x63, 0x6b, 0x9f, 0x9c, 0x82, 0x72,
  0x85, 0xb3, 0x9d, 0x7a, 0x7e, 0x5c, 0x71, 0x9b, 0x7f, 0x7e, 0x75, 0x8a,
  0x98, 0x83, 0x6f, 0x89, 0x71, 0x5a, 0x80, 0x85, 0x66, 0x83, 0x56, 0x7b,
  0x88, 0xa1, 0x71, 0x7a, 0x90, 0x8a, 0x55, 0x84, 0x5b, 0x88, 0x70, 0x89,
  0x94, 0x6b, 0x9c, 0x71, 0x8a, 0x9b, 0x8c, 0x9b, 0x68, 0x85, 0x81, 0x95,
  0x95, 0x7b, 0x87, 0x8f, 0x6b, 0x74, 0x87, 0x8b, 0x7d, 0x7d, 0x60, 0x7e,
  0x94, 0xb2, 0x76, 0x87, 0x91, 0x91, 0x86, 0x89, 0x7a, 0x8b, 0x86, 0x8a,
  0x96, 0x84, 0x89, 0x89, 0x93, 0x98, 0x9a, 0x83, 0xa6, 0x7c, 0x7a, 0x93,
  0x9f, 0x9d, 0x71, 0x85, 0xaa, 0x7f, 0x9c, 0x82, 0x87, 0x7e, 0x76, 0x95,
  0xa1, 0x6a, 0x71, 0x6b, 0x83, 0x7e, 0x82, 0x86, 0x9b, 0x7f, 0x80, 0x92,
  0x71, 0xd5, 0x77, 0x8e, 0x96, 0x9e, 0x8b, 0x9b, 0x72, 0x92, 0x8c, 0x96,
  0x98, 0x9f, 0x74, 0x31, 0x74, 0x69, 0x91, 0x93, 0x7f, 0x6f, 0x7e, 0x40,
  0x51, 0x8b, 0x91, 0x77, 0x78, 0x6c, 0x81, 0x45, 0x73, 0x7b, 0x63, 0x93,
  0x9e, 0x90, 0x5f, 0x2e, 0x58, 0x8c, 0x7b, 0x7a, 0x73, 0x99, 0x59, 0x56,
  0xb3, 0x94, 0x87, 0x73, 0x7f, 0x8b, 0x7b, 0x6a, 0x7e, 0x96, 0x8f, 0x79,
  0x7b, 0x8f, 0x86, 0x6b, 0x86, 0x73, 0x89, 0x93, 0x94, 0xb2, 0x75, 0x68,
  0x80, 0x98, 0x90, 0x62, 0x93, 0x8f, 0x8d, 0x70, 0x9b, 0x9c, 0x7f, 0x96,
  0x74, 0x87, 0x79, 0x6c, 0x8a, 0x88, 0x98, 0x6f, 0x78, 0x96, 0x78, 0x7e,
  0x92, 0x9f, 0x92, 0x7f, 0x87, 0x69, 0x7c, 0x5f, 0x72, 0x93, 0x98, 0x7b,
  0x72, 0x73, 0x7a, 0x77, 0x9a, 0x9c, 0x5f, 0xa6, 0xa8, 0x9d, 0x93, 0x7d,
  0x9a, 0x90, 0x85, 0x80, 0x6e, 0x62, 0x84, 0x8c, 0x9d, 0x83, 0x5d, 0x58,
  0x6c, 0x5c, 0x79, 0x77, 0x8a, 0x7d, 0x8f, 0x83, 0x7b, 0xac, 0x90, 0x82,
  0xa2, 0x93, 0x98, 0x96, 0x77, 0x86, 0x88, 0x6c, 0x92, 0x7f, 0x71, 0x7a,
  0xac, 0x9c, 0xa0, 0xaa, 0x58, 0x8a, 0x6f, 0x7c, 0x9c, 0x8a, 0x6d, 0x8a,
  0x4b, 0x77, 0x81, 0x7c, 0xa0, 0x8e, 0x60, 0x37, 0x6f, 0x7f, 0x7d, 0x9e,
  0x73, 0x98, 0x7c, 0x40, 0x9e, 0x8a, 0x78, 0x7a, 0x88, 0x85, 0x5f, 0x46,
  0x9d, 0x7a, 0x6f, 0x70, 0x93, 0x86, 0x8a, 0x42, 0x71, 0x6f, 0x76, 0x83,
  0x92, 0x96, 0x7a, 0x53, 0xa5, 0x66, 0x8c, 0xac, 0x6a, 0x8b, 0x76, 0x59,
  0x84, 0x75, 0x9d, 0x7f, 0x8d, 0x80, 0x70, 0x60, 0x9a, 0x59, 0x95, 0x77,
  0x92, 0xb4, 0x7c, 0x62, 0x8d, 0x53, 0x6e, 0x8a, 0x5c, 0x8e, 0x68, 0x65,
  0xae, 0x8b, 0x65, 0x73, 0x5d, 0x6e, 0x92, 0x66, 0x56, 0x5f, 0x82, 0xa9,
  0x7f, 0x94, 0x73, 0x6d, 0x7c, 0x73, 0x9f, 0x96, 0x94, 0x8f, 0x87, 0x5a,
  0x99, 0x6b, 0xb0, 0x7b, 0xab, 0x77, 0x64, 0x83, 0x64, 0x66, 0x61, 0x9e,
  0x9e, 0x7b, 0xa9, 0x96, 0x76, 0x61, 0x9a, 0x9c, 0x82, 0x6f, 0x75, 0x94,
  0x7b, 0x3c, 0xa5, 0x9e, 0x7e, 0x87, 0x82, 0x87, 0x91, 0x7c, 0x83, 0x82,
  0x88, 0xa5, 0x94, 0x7a, 0x6e, 0x60, 0x84, 0x80, 0x91, 0x8c, 0x86, 0x8a,
  0xbd, 0x9e, 0xa5, 0x7b, 0xa2, 0x81, 0x9e, 0xa9, 0x91, 0x8e, 0xaf, 0x77,
  0x6c, 0x5d, 0x89, 0x7c, 0x81, 0x5f, 0x78, 0x7f, 0x6c, 0x5f, 0x93, 0x50,
  0xa2, 0x76, 0x71, 0x6b, 0x8e, 0x67, 0x6b, 0x60, 0x79, 0x6d, 0x83, 0x73,
  0x79, 0x79, 0x8c, 0x49, 0x96, 0x8c, 0x6c, 0x80, 0x69, 0x7e, 0x8d, 0x43,
  0x6c, 0x78, 0x73, 0x74, 0x7e, 0x81, 0x81, 0x5a, 0x8d, 0x5e, 0x86, 0x69,
  0x77, 0x8a, 0x62, 0x84, 0x8d, 0x6a, 0x75, 0x60, 0x4c, 0x91, 0x92, 0x82,
  0x9e, 0x5e, 0x69, 0x59, 0x67, 0x9b, 0x51, 0x74, 0x79, 0x63, 0x75, 0x56,
  0x69, 0x5b, 0x76, 0x9c, 0x73, 0x50, 0x74, 0x8c, 0xa1, 0xa2, 0xa0, 0x74,
  0xaf, 0x80, 0x78, 0x81, 0x82, 0x9e, 0x7d, 0x7a, 0xa0, 0x79, 0x80, 0x66,
  0x8e, 0x90, 0x63, 0x7e, 0x73, 0x8c, 0x6f, 0x8d, 0x6b, 0x8c, 0x9d, 0x67,
  0x7c, 0x95, 0xa0, 0x9c, 0x67, 0x6e, 0x98, 0x73, 0x6f, 0x47, 0xa3, 0x97,
  0x67, 0x77, 0x58, 0x7c, 0xb7, 0x74, 0x7c, 0xa7, 0x6c, 0x99, 0x9a, 0x79,
  0xb4, 0x79, 0x93, 0x7a, 0x89, 0x83, 0x8b, 0x84, 0xbc, 0x7b, 0xa2, 0x86,
  0x8c, 0x71, 0x79, 0x6f, 0xe0, 0x9a, 0x78, 0x6b, 0x81, 0x71, 0x89, 0x99,
  0xdf, 0x6c, 0x71, 0x62, 0x9a, 0x7c, 0xa3, 0x5b, 0x83, 0x81, 0x88, 0x70,
  0x7c, 0x6e, 0x75, 0x2c, 0x91, 0x9e, 0x73, 0x6b, 0x69, 0x72, 0x95, 0x58,
  0x90, 0x9a, 0x5e, 0x6a, 0x5e, 0x72, 0x6e, 0x47, 0xab, 0x7c, 0x5e, 0x5f,
  0x79, 0x85, 0x56, 0x3e, 0xa9, 0x94, 0x79, 0x88, 0x7d, 0x8d, 0x5f, 0x5a,
  0xa4, 0x7a, 0x98, 0x74, 0x7e, 0x78, 0x63, 0x67, 0x99, 0x51, 0x4c, 0x47,
  0x64, 0x6f, 0x4f, 0x76, 0x96, 0x65, 0x68, 0x5f, 0x77, 0x7d, 0x77, 0x74,
  0xbd, 0x8a, 0x98, 0x7e, 0x76, 0x6f, 0x8d, 0x72, 0xc5, 0x80, 0x78, 0x73,
  0xb1, 0x92, 0x98, 0x92, 0xaa, 0x8f, 0xb1, 0xa7, 0x86, 0x7b, 0x84, 0x97,
  0xb2, 0x78, 0x6d, 0x8f, 0x8b, 0xa3, 0x62, 0x54, 0xa6, 0x73, 0x8c, 0x7a,
  0x80, 0x72, 0x5e, 0x6e, 0xc9, 0x61, 0x9c, 0xb5, 0x85, 0x60, 0x51, 0x6c,
  0xad, 0x78, 0x89, 0xb0, 0x88, 0x80, 0x71, 0x7e, 0xb8, 0x6e, 0x73, 0x94,
  0x8b, 0x74, 0x5d, 0x84, 0x95, 0x7f, 0x80, 0x96, 0x94, 0x92, 0xc7, 0x7a,
  0xb1, 0x87, 0xa1, 0x80, 0x5c, 0x7d, 0x6e, 0x74, 0xb9, 0x64, 0xb5, 0x86,
  0xa6, 0x79, 0x8c, 0x5c, 0xab, 0x7d, 0x62, 0x70, 0x4f, 0x82, 0x55, 0x72,
  0x7e, 0xab, 0x76, 0x6a, 0xa4, 0x5e, 0x61, 0x4c, 0xac, 0xad, 0x89, 0x7b,
  0x88, 0x86, 0x7a, 0x28, 0x9f, 0x75, 0x6f, 0x67, 0x8f, 0x89, 0x58, 0x3b,
  0xd9, 0x87, 0x91, 0x89, 0x63, 0x86, 0x57, 0x76, 0xb8, 0x71, 0x8d, 0x7b,
  0x72, 0x78, 0x6b, 0x63, 0xb9, 0x73, 0x71, 0x74, 0x61, 0x82, 0x6b, 0x6b,
  0x9c, 0x6e, 0x78, 0x78, 0x8b, 0x98, 0x84, 0x51, 0x90, 0x75, 0x92, 0x5a,
  0x96, 0x6b, 0x9d, 0x7b, 0x96, 0x8c, 0x98, 0x9e, 0x8e, 0x93, 0x7a, 0x8a,
  0x9c, 0x6e, 0x81, 0x81, 0x7d, 0x6b, 0x7c, 0x8f, 0xb0, 0x88, 0x74, 0x67,
  0x93, 0x89, 0x64, 0x88, 0xab, 0x62, 0x8c, 0x9f, 0x6d, 0x7b, 0x7a, 0x7a,
  0xc5, 0x74, 0xb0, 0x8f, 0x89, 0x5e, 0x79, 0x60, 0x93, 0x6f, 0x88, 0x95,
  0x76, 0x5d, 0x9a, 0x75, 0xa8, 0x9b, 0x79, 0x98, 0x84, 0x7b, 0x77, 0x86,
  0xc4, 0x80, 0x9d, 0x80, 0x7f, 0xb1, 0x90, 0x7c, 0x6f, 0x73, 0x9e, 0x79,
  0xa9, 0x9f, 0xb5, 0x91, 0xb1, 0x73, 0x9f, 0x8e, 0x6f, 0x6c, 0x86, 0x94,
  0xaa, 0xa3, 0x63, 0x6d, 0xa7, 0x8c, 0x69, 0x64, 0xb1, 0x73, 0x74, 0x79,
  0x73, 0x77, 0x9f, 0x66, 0x92, 0x7c, 0x81, 0x71, 0x9a, 0x68, 0x8a, 0x4e,
  0xbc, 0x63, 0x85, 0x58, 0x83, 0x78, 0x56, 0x34, 0x87, 0x8c, 0x7c, 0x65,
  0x94, 0x83, 0x90, 0x43, 0x95, 0x5a, 0xa7, 0x5e, 0x80, 0x6e, 0x53, 0x64,
  0xc5, 0x9e, 0x6e, 0x90, 0xa2, 0x4c, 0x64, 0x49, 0xc4, 0x55, 0x6d, 0x4f,
  0x73, 0x7d, 0x71, 0x6e, 0x8c, 0x66, 0x82, 0x61, 0x83, 0x89, 0x71, 0x7b,
  0xb8, 0x8f, 0x80, 0x6c, 0x8a, 0x7a, 0x52, 0x70, 0x99, 0x66, 0x85, 0x6e,
  0x87, 0x8d, 0x67, 0x91, 0x98, 0x99, 0x6d, 0x72, 0x6e, 0x77, 0x89, 0x8f,
  0x98, 0x91, 0x72, 0x88, 0x94, 0x73, 0x99, 0xa7, 0xb5, 0x89, 0x82, 0x7f,
  0x60, 0x7e, 0x65, 0x8e, 0xa4, 0x65, 0x9a, 0x7e, 0x58, 0x86, 0x74, 0x6e,
  0xa9, 0x8d, 0xa1, 0x8a, 0x62, 0x60, 0x7e, 0x69, 0xb9, 0x85, 0xa8, 0x76,
  0x8d, 0x65, 0x7a, 0x70, 0xbe, 0x6e, 0x89, 0xa3, 0x8a, 0x74, 0x73, 0x7f,
  0x83, 0x8a, 0x80, 0x79, 0xc1, 0x85, 0xc0, 0x88, 0xc1, 0x5b, 0xa0, 0x84,
  0x8f, 0x6f, 0x73, 0x8b, 0x9c, 0x92, 0xa2, 0x8c, 0x7d, 0x8b, 0x5b, 0x75,
  0x8a, 0x60, 0x66, 0x54, 0x72, 0x71, 0x8e, 0x58, 0x97, 0x6e, 0x9e, 0x46,
  0x5e, 0x62, 0x82, 0x1e, 0xa7, 0x6c, 0x56, 0x70, 0x76, 0x58, 0x87, 0x44,
  0x7b, 0x84, 0x7d, 0x7f, 0x80, 0x6a, 0x8c, 0x55, 0x83, 0x69, 0x74, 0x64,
  0xab, 0x62, 0x6f, 0x6c, 0xa2, 0xb7, 0xa0, 0x74, 0x80, 0x6e, 0x70, 0x72,
  0x99, 0x8e, 0x71, 0x59, 0x78, 0x7d, 0x6a, 0x7c, 0xb0, 0x6f, 0x91, 0x5f,
  0x9e, 0x7f, 0x8e, 0x74, 0xbc, 0x5a, 0x5d, 0x4f, 0x70, 0x91, 0x74, 0x74,
  0xa0, 0x54, 0x9e, 0x93, 0x87, 0x62, 0x69, 0x83, 0x92, 0x76, 0x89, 0x91,
  0x7e, 0x6d, 0x71, 0x87, 0x94, 0x85, 0x77, 0x67, 0x87, 0x94, 0x5e, 0x72,
  0x8b, 0x85, 0x8c, 0xa5, 0x68, 0x8d, 0x75, 0x81, 0xad, 0x94, 0xa1, 0x88,
  0x89, 0x56, 0x65, 0x71, 0x9e, 0x91, 0x7f, 0x8c, 0x86, 0x3a, 0x5d, 0x81,
  0xbd, 0xa4, 0x6a, 0x96, 0x9f, 0x53, 0x4f, 0x70, 0xb2, 0x78, 0xb4, 0x82,
  0x9d, 0x9a, 0x8f, 0x8f, 0x8b, 0x97, 0x7d, 0x6f, 0xb0, 0x7b, 0x9e, 0x84,
  0xc0, 0x8e, 0xbd, 0x67, 0x85, 0x7e, 0x83, 0x65, 0xa2, 0x9d, 0x8a, 0x7a,
  0xa4, 0x7e, 0x7b, 0x7e, 0x9c, 0x6c, 0x63, 0x5c, 0x50, 0x82, 0x78, 0x2b,
  0x99, 0x9b, 0x93, 0x56, 0x91, 0x66, 0x67, 0x30, 0xb2, 0xa4, 0x9e, 0x51,
  0x8d, 0x62, 0x5d, 0x3e, 0x78, 0x82, 0x77, 0x55, 0x8d, 0x81, 0x7d, 0x62,
  0x90, 0x7c, 0xa9, 0x50, 0xa8, 0x70, 0x6a, 0x67, 0x8d, 0xa1, 0x86, 0x66,
  0xa0, 0x8a, 0x79, 0x6a, 0x94, 0x8b, 0x76, 0x76, 0xa1, 0x5d, 0x45, 0x53,
  0x78, 0x83, 0x62, 0x69, 0x6d, 0x92, 0x8a, 0x84, 0x7e, 0x4d, 0x71, 0x6d,
  0x92, 0x71, 0x6a, 0x9a, 0x7b, 0x8a, 0x72, 0x69, 0x91, 0x7d, 0xa0, 0x83,
  0x89, 0x8c, 0x65, 0x85, 0x9b, 0x7e, 0x79, 0x9f, 0x87, 0xb1, 0x9b, 0xae,
  0x7a, 0x6f, 0x76, 0x81, 0x86, 0x78, 0xaa, 0x55, 0xa8, 0x64, 0x7b, 0x53,
  0x8f, 0x86, 0x82, 0x76, 0x94, 0x61, 0x88, 0x55, 0x98, 0x8b, 0xac, 0x84,
  0x69, 0x5f, 0x7d, 0x5b, 0xb8, 0x98, 0x6e, 0x87, 0x9a, 0x68, 0x5b, 0x92,
  0xb1, 0x90, 0x8d, 0x86, 0x64, 0x95, 0x85, 0x7a, 0xb4, 0x93, 0x69, 0x76,
  0xc3, 0x95, 0xa3, 0x7a, 0x97, 0x85, 0x95, 0x8a, 0x88, 0x79, 0x72, 0x7a,
  0xb1, 0x8e, 0x70, 0x53, 0x83, 0x80, 0x77, 0x80, 0x91, 0x90, 0x97, 0x46,
  0x5e, 0x69, 0x6c, 0x24, 0xa8, 0x6a, 0x93, 0x65, 0x70, 0x73, 0x6c, 0x1e,
  0xa6, 0x74, 0x77, 0x54, 0x73, 0x5b, 0x91, 0x14, 0x7b, 0xb0, 0x66, 0x66,
  0x77, 0x78, 0x7b, 0x18, 0x9b, 0x98, 0x9b, 0x61, 0x81, 0x6a, 0x78, 0x3c,
  0x68, 0x73, 0x92, 0x49, 0x75, 0x57, 0x69, 0x61, 0x9c, 0x7c, 0x8e, 0x63,
  0x8c, 0x7b, 0x71, 0x69, 0x8d, 0x79, 0x8a, 0x72, 0x98, 0x68, 0x68, 0x78,
  0x7e, 0x6d, 0x68, 0x68, 0x8f, 0x81, 0x95, 0x98, 0x81, 0x8f, 0x90, 0x7e,
  0x97, 0x80, 0x64, 0x73, 0x88, 0x7d, 0x7a, 0x6e, 0x81, 0xa9, 0x8a, 0x96,
  0x75, 0x75, 0x88, 0x68, 0x78, 0x6f, 0x7d, 0x93, 0x7b, 0x6f, 0x81, 0x94,
  0xb6, 0x40, 0x80, 0x74, 0x92, 0x8f, 0x7a, 0xad, 0xa3, 0x55, 0x88, 0x6e,
  0x79, 0x69, 0x7c, 0x6e, 0x80, 0x61, 0x73, 0x4b, 0x8d, 0x7f, 0x54, 0x8e,
  0x9c, 0x4c, 0x72, 0x82, 0xa6, 0x82, 0x95, 0x9e, 0x91, 0x70, 0x80, 0x79,
  0x9b, 0x79, 0x8b, 0x9a, 0xb6, 0x70, 0xb4, 0x80, 0xa7, 0x73, 0x72, 0x7e,
  0x8c, 0x7f, 0x93, 0x89, 0xb9, 0x8a, 0x7d, 0x8c, 0xb6, 0x9b, 0x9f, 0x64,
  0xa8, 0x4f, 0x6b, 0x64, 0x8c, 0x80, 0x96, 0x4a, 0x7f, 0x72, 0x91, 0x7a,
  0x87, 0x46, 0x86, 0x21, 0xac, 0x94, 0x6c, 0x5d, 0x72, 0x54, 0x6b, 0x0e,
  0x8d, 0x71, 0x74, 0x59, 0x9e, 0x68, 0xa3, 0x5a, 0x8e, 0x59, 0x6d, 0x4d,
  0x8f, 0x7b, 0x8c, 0x70, 0x7d, 0x8f, 0x51, 0x95, 0x9a, 0x69, 0x81, 0x66,
  0x90, 0x8a, 0x6a, 0x4d, 0x75, 0x71, 0x64, 0x55, 0x82, 0x67, 0x6c, 0x61,
  0x7e, 0x8d, 0x5a, 0x6b, 0x7d, 0x7b, 0x6f, 0x68, 0x9a, 0x98, 0x8b, 0x74,
  0x80, 0x6a, 0xa0, 0x57, 0x88, 0x89, 0x9e, 0x77, 0x68, 0x75, 0x89, 0x89,
  0x91, 0xad, 0x6f, 0xb5, 0x7c, 0xa6, 0x6e, 0xa4, 0xa6, 0x8e, 0x94, 0x81,
  0x74, 0x8d, 0xa0, 0xa2, 0x9d, 0x67, 0x9e, 0x8c, 0x8a, 0x84, 0xb2, 0x88,
  0x87, 0x5a, 0x60, 0x99, 0x84, 0x99, 0x61, 0x98, 0x7c, 0x71, 0x52, 0x66,
  0x9a, 0x74, 0x89, 0x5a, 0x93, 0x69, 0x5b, 0x44, 0x95, 0x80, 0x85, 0x8f,
  0x7f, 0x89, 0xa1, 0x93, 0x8b, 0x7f, 0xa2, 0xad, 0xce, 0x8d, 0xcc, 0x7b,
  0x90, 0x80, 0x94, 0x6a, 0x81, 0x7a, 0x98, 0x90, 0xae, 0xa2, 0x7a, 0x74,
  0x7a, 0x87, 0xa1, 0x55, 0x9e, 0x83, 0xa5, 0x73, 0x4e, 0x73, 0x7f, 0x20,
  0xb6, 0x7d, 0x90, 0x67, 0x80, 0x52, 0x6c, 0x2b, 0x9c, 0x6c, 0x7d, 0x60,
  0x79, 0x42, 0x85, 0x15, 0xa0, 0x68, 0x98, 0x7c, 0x9f, 0x78, 0x87, 0x2f,
  0xa5, 0x6f, 0x92, 0x4f, 0xb0, 0x84, 0x53, 0x73, 0x6c, 0x84, 0x93, 0x6b,
  0x8b, 0x73, 0x75, 0x5a, 0x7d, 0x78, 0x7e, 0x6a, 0x64, 0x60, 0x49, 0x77,
  0x7e, 0x51, 0x9b, 0x7d, 0x73, 0x80, 0x7c, 0x9a, 0x96, 0x90, 0x9e, 0x84,
  0x5b, 0x6f, 0x86, 0x8f, 0x7e, 0x7d, 0x76, 0x5f, 0xb6, 0x8d, 0xa4, 0x9e,
  0x6d, 0xb6, 0x7d, 0x83, 0x9b, 0x81, 0x6d, 0x77, 0x7d, 0x83, 0x86, 0x5d,
  0x93, 0x7b, 0x6f, 0x93, 0x84, 0x9b, 0x79, 0x8e, 0x86, 0x6f, 0x69, 0x79,
  0x8b, 0x7a, 0xb4, 0x74, 0x86, 0x70, 0x80, 0x79, 0x83, 0x96, 0x9a, 0x6c,
  0x7d, 0x7a, 0x6a, 0x6d, 0x8f, 0x70, 0x82, 0x84, 0xa4, 0x88, 0x8b, 0x49,
  0x7c, 0x8a, 0x75, 0x98, 0x81, 0x6b, 0x80, 0x74, 0x8d, 0x83, 0x96, 0x88,
  0xa2, 0xab, 0xa6, 0x82, 0x7f, 0x87, 0x85, 0x5f, 0x84, 0x80, 0x7c, 0x74,
  0xb6, 0x93, 0x88, 0x44, 0x73, 0x99, 0x85, 0x9c, 0x89, 0x68, 0x71, 0x3c,
  0x54, 0x8c, 0x76, 0x2b, 0xb3, 0xab, 0x87, 0x56, 0x4e, 0x6a, 0x87, 0x38,
  0xcd, 0x9c, 0x7c, 0x61, 0x9e, 0x49, 0x74, 0x45, 0xad, 0x71, 0x88, 0x58,
  0x75, 0x67, 0x7f, 0x3f, 0x83, 0x80, 0x66, 0x58, 0xa6, 0x4b, 0x98, 0x57,
  0x6f, 0x9a, 0x49, 0x6d, 0xa7, 0x8a, 0x73, 0x7a, 0x92, 0x9c, 0x8d, 0x6a,
  0x83, 0x8e, 0x76, 0x5f, 0x77, 0x6e, 0x7a, 0x78, 0x65, 0x98, 0x78, 0x96,
  0x93, 0x7e, 0x9f, 0x5c, 0x8d, 0x89, 0x6e, 0x78, 0x75, 0x68, 0x64, 0x6a,
  0x7a, 0x7a, 0x7c, 0x5e, 0x76, 0x9f, 0x9d, 0x77, 0xb9, 0xa6, 0x7b, 0xa3,
  0x7a, 0xaa, 0x84, 0x72, 0xa2, 0x6e, 0x97, 0x7c, 0x80, 0x73, 0x75, 0x7f,
  0x8a, 0x88, 0x8a, 0x59, 0x87, 0x75, 0x8d, 0x8b, 0x9c, 0x75, 0x66, 0x7c,
  0x73, 0xa6, 0x8e, 0x70, 0x88, 0x64, 0x81, 0x64, 0x85, 0x7a, 0x73, 0x78,
  0x9c, 0x87, 0x51, 0x7e, 0x7a, 0x77, 0x65, 0x8c, 0x73, 0x83, 0x81, 0x7f,
  0x83, 0x87, 0x7a, 0x9b, 0xb4, 0x7a, 0xa1, 0x8e, 0x81, 0x88, 0xb8, 0x87,
  0x92, 0xa0, 0xa3, 0x85, 0xbe, 0x8a, 0x67, 0x97, 0x95, 0x97, 0x88, 0x68,
  0x9e, 0x78, 0xa7, 0x78, 0x44, 0x6c, 0x6d, 0x35, 0xb5, 0x5c, 0x83, 0x3f,
  0x7c, 0x48, 0x59, 0x1c, 0xa7, 0x87, 0x76, 0x5c, 0x93, 0x38, 0xa2, 0x29,
  0xaf, 0xad, 0x66, 0x50, 0x7e, 0x6c, 0x5d, 0x42, 0xa3, 0x89, 0xa4, 0x4c,
  0x8a, 0x7c, 0x77, 0x64, 0x76, 0x88, 0x85, 0x91, 0x9d, 0x75, 0x84, 0x83,
  0x9a, 0x6c, 0x93, 0x57, 0x63, 0x5a, 0x5a, 0x74, 0x7c, 0x92, 0x7f, 0x87,
  0x8a, 0x87, 0x63, 0x76, 0x9a, 0x65, 0x66, 0x6a, 0x87, 0x6f, 0x9b, 0x75,
  0x88, 0x68, 0x87, 0x56, 0x91, 0x9c, 0x7b, 0x9b, 0x93, 0x7f, 0xa1, 0x93,
  0x8d, 0x7c, 0x70, 0x90, 0x72, 0xaf, 0x6a, 0x66, 0x9c, 0x7b, 0x8e, 0x99,
  0x8f, 0x9a, 0x8e, 0x83, 0x8e, 0x4f, 0x8c, 0x82, 0x7f, 0x88, 0x6b, 0x59,
  0x82, 0x7b, 0x56, 0x6a, 0x7b, 0xa4, 0x80, 0x99, 0x7b, 0x74, 0x88, 0x47,
  0x84, 0x89, 0x6c, 0x8c, 0x94, 0x6e, 0x89, 0x45, 0x77, 0x95, 0x6a, 0x7b,
  0x7b, 0x84, 0x8e, 0x6b, 0x6d, 0x88, 0x95, 0x89, 0xa3, 0x6c, 0xb4, 0x6b,
  0x7f, 0x89, 0x7b, 0x82, 0x9a, 0x8a, 0x7b, 0x6c, 0xe2, 0x82, 0x74, 0x59,
  0x65, 0x9f, 0x9b, 0x7f, 0xa7, 0x67, 0x84, 0x53, 0x4b, 0x88, 0x98, 0x10,
  0xaa, 0x57, 0x71, 0x53, 0x79, 0x4a, 0x64, 0x31, 0xdd, 0x93, 0x5f, 0x62,
  0x7f, 0x27, 0x97, 0x0b, 0xa9, 0x8a, 0x66, 0x67, 0x86, 0x3f, 0xa1, 0x52,
  0x83, 0x70, 0x97, 0x64, 0x85, 0x71, 0xa5, 0x53, 0x7c, 0x88, 0x70, 0x5b,
  0x95, 0x94, 0x84, 0x7c, 0x75, 0x80, 0x81, 0x8f, 0x5f, 0x73, 0x55, 0x87,
  0x8a, 0x6c, 0x8a, 0x65, 0x66, 0x91, 0x7d, 0x51, 0x80, 0x92, 0x9a, 0x86,
  0x8b, 0x87, 0xac, 0x64, 0x83, 0x7a, 0x6a, 0x50, 0x7e, 0x83, 0x7b, 0x86,
  0x73, 0x93, 0x8a, 0x5c, 0x93, 0xa6, 0xad, 0x84, 0x7d, 0xab, 0x65, 0x71,
  0x75, 0xab, 0x7a, 0xa6, 0x7d, 0x74, 0x7d, 0x7a, 0xad, 0x84, 0x94, 0x79,
  0x89, 0x8c, 0x93, 0x58, 0x78, 0x53, 0x89, 0x53, 0x79, 0x65, 0x67, 0x86,
  0x9f, 0x67, 0x92, 0x62, 0x79, 0x59, 0x7a, 0x6a, 0x67, 0x7e, 0x71, 0x69,
  0x84, 0x7f, 0x8d, 0x74, 0x87, 0x95, 0x76, 0x71, 0x79, 0x74, 0x8b, 0x8b,
  0x90, 0x58, 0xa0, 0x88, 0x7d, 0x8f, 0x76, 0x97, 0x93, 0x93, 0x85, 0xa9,
  0xe0, 0x83, 0x7f, 0x5c, 0x54, 0x7f, 0x97, 0x8c, 0xb4, 0x54, 0x73, 0x74,
  0x69, 0x65, 0x56, 0x3f, 0xca, 0x8b, 0x80, 0x39, 0x7c, 0x63, 0x74, 0x0e,
  0xd1, 0x93, 0x87, 0x40, 0x53, 0x4c, 0x7f, 0x48, 0xba, 0x8c, 0x7d, 0x76,
  0x88, 0x44, 0x75, 0x39, 0xb6, 0x57, 0x75, 0x4e, 0x71, 0x50, 0x78, 0x3f,
  0x94, 0x8a, 0x6e, 0x82, 0x69, 0x71, 0x7b, 0x55, 0x85, 0x81, 0x7d, 0x5d,
  0x64, 0x77, 0x88, 0x53, 0x85, 0x55, 0x70, 0x59, 0x56, 0x7e, 0x51, 0x87,
  0x8a, 0x65, 0x8b, 0x4b, 0x6c, 0x8b, 0x73, 0x6b, 0x83, 0x7e, 0x83, 0x8f,
  0x5b, 0x81, 0x99, 0x7e, 0x7a, 0x72, 0x69, 0x64, 0x89, 0x8d, 0x6c, 0x9a,
  0x99, 0x6f, 0x5e, 0x67, 0x8e, 0x84, 0x83, 0x98, 0x7d, 0x90, 0x96, 0x84,
  0x71, 0x78, 0x87, 0x89, 0x82, 0xa4, 0x6d, 0x70, 0x8a, 0x80, 0x72, 0x53,
  0x7f, 0x60, 0x7d, 0x9b, 0x5f, 0x6b, 0x70, 0x87, 0x70, 0x87, 0x81, 0x9e,
  0xa0, 0x58, 0x66, 0x58, 0x70, 0x98, 0x7d, 0x6b, 0xa5, 0x6b, 0x8b, 0x66,
  0x6e, 0x5b, 0x7b, 0x83, 0x80, 0xa0, 0xa2, 0x92, 0x99, 0x8d, 0xb1, 0x81,
  0x52, 0x97, 0xa4, 0x93, 0xd4, 0x81, 0x7e, 0x5d, 0x76, 0xa2, 0x76, 0x73,
  0xaf, 0x6e, 0x6b, 0x3a, 0x6e, 0x5e, 0x76, 0x13, 0xbd, 0x68, 0xa7, 0x49,
  0x44, 0x45, 0x72, 0x19, 0xca, 0x52, 0xa2, 0x6d, 0x71, 0x6b, 0x8e, 0x39,
  0xcc, 0x70, 0x73, 0x47, 0x90, 0x5a, 0x98, 0x2c, 0x9a, 0x94, 0x9f, 0x54,
  0x75, 0x5d, 0x7c, 0x46, 0x78, 0x7f, 0x61, 0x5a, 0x7a, 0x7d, 0x6d, 0x72,
  0x76, 0x5f, 0xa1, 0x68, 0x5a, 0x78, 0x76, 0x68, 0xab, 0x56, 0x57, 0x6c,
  0x7d, 0x83, 0x83, 0x64, 0x75, 0x5d, 0x81, 0x65, 0x72, 0xa8, 0x9f, 0x6b,
  0x70, 0x62, 0x55, 0x64, 0x82, 0x8c, 0x8a, 0x8f, 0x86, 0x63, 0x79, 0x72,
  0x84, 0xac, 0x74, 0x7e, 0x7a, 0x8b, 0x74, 0x73, 0x8b, 0x95, 0xa0, 0x7e,
  0x71, 0x66, 0xa8, 0x52, 0x79, 0x7b, 0x9b, 0x65, 0x7c, 0x89, 0x7f, 0x6e,
  0x7c, 0x6b, 0x6d, 0x49, 0x78, 0x76, 0x95, 0x97, 0x96, 0x6f, 0x53, 0x73,
  0x6f, 0xa2, 0x7a, 0x6c, 0x7a, 0x67, 0x9b, 0x59, 0x8b, 0x6d, 0x73, 0x83,
  0x96, 0x83, 0xab, 0x5f, 0x6c, 0x5c, 0x6e, 0x6d, 0x99, 0x99, 0x9e, 0x80,
  0x8b, 0x94, 0x77, 0xa4, 0x65, 0x94, 0x75, 0xb4, 0xcf, 0x6f, 0x8e, 0x55,
  0x63, 0x9d, 0x7a, 0x81, 0xbb, 0x66, 0x80, 0x44, 0x5b, 0x8b, 0x80, 0x27,
  0xb0, 0x8b, 0x85, 0x4e, 0x5d, 0x4d, 0x54, 0x2b, 0xc8, 0x87, 0xab, 0x56,
  0x5f, 0x3e, 0x78, 0x26, 0xa6, 0xb4, 0x88, 0x56, 0x6d, 0x4d, 0x8b, 0x50,
  0xa7, 0x82, 0x7f, 0x78, 0x9f, 0x5e, 0x99, 0x49, 0x7b, 0xa7, 0x8e, 0x6e,
  0x98, 0x73, 0x92, 0x83, 0x84, 0x5f, 0x73, 0x5e, 0x53, 0x61, 0x50, 0x6f,
  0x74, 0x5c, 0x72, 0x6d, 0x6d, 0x67, 0x8d, 0x9b, 0x76, 0x6d, 0x6d, 0x51,
  0x68, 0x8e, 0x93, 0xa8, 0x72, 0x74, 0xa1, 0x58, 0x8e, 0x87, 0x6d, 0x7f,
  0x75, 0x7c, 0x78, 0xa9, 0x81, 0x92, 0x87, 0x91, 0x79, 0x82, 0x90, 0x77,
  0xa6, 0x67, 0xb8, 0x8a, 0x87, 0x9a, 0x76, 0x85, 0x7a, 0x70, 0x90, 0x50,
  0x78, 0x70, 0x91, 0x92, 0x6c, 0x61, 0x62, 0x63, 0x85, 0x73, 0x7b, 0x82,
  0x63, 0x6b, 0x7b, 0x4f, 0x7a, 0x9a, 0x8a, 0x74, 0x93, 0x52, 0x72, 0x5b,
  0x82, 0x89, 0xa8, 0x5f, 0x85, 0x9f, 0x9f, 0x6b, 0x7a, 0x75, 0x88, 0x75,
  0x79, 0x9d, 0xba, 0x75, 0x82, 0x71, 0x75, 0x8e, 0x87, 0x8a, 0x5f, 0x74,
  0xdc, 0x91, 0x6d, 0x66, 0x64, 0x78, 0x68, 0x76, 0xc3, 0x72, 0x79, 0x6a,
  0x6e, 0x55, 0x67, 0x3e, 0xd4, 0x75, 0x77, 0x28, 0x53, 0x36, 0x62, 0x1d,
  0xe4, 0x86, 0x6b, 0x4a, 0x7c, 0x2c, 0x9a, 0x3b, 0xad, 0x90, 0x65, 0x73,
  0x91, 0x40, 0x6e, 0x1c, 0xad, 0x83, 0x95, 0x6b, 0x99, 0x57, 0x94, 0x6b,
  0x96, 0x90, 0x77, 0x60, 0x7d, 0x94, 0x5c, 0x66, 0x7a, 0x8d, 0x58, 0x5b,
  0x42, 0x69, 0x54, 0x4e, 0x77, 0x79, 0x97, 0x31, 0x41, 0x53, 0x93, 0x82,
  0x8a, 0x82, 0x57, 0x5e, 0x75, 0xa9, 0xa0, 0x89, 0x7c, 0x93, 0x5e, 0x61,
  0x70, 0x75, 0x87, 0x69, 0x78, 0x8b, 0x81, 0x73, 0x82, 0x87, 0x8b, 0x88,
  0x6b, 0x9b, 0x84, 0x89, 0x7f, 0x6c, 0x9b, 0x9d, 0x80, 0xac, 0xa3, 0x5a,
  0x8d, 0x52, 0x6f, 0x81, 0x96, 0x8e, 0xa9, 0x64, 0x73, 0x7c, 0x96, 0x57,
  0x68, 0x96, 0x7b, 0x76, 0x6d, 0x6e, 0x4f, 0x78, 0x6d, 0x8e, 0x9a, 0x81,
  0x5f, 0x59, 0xac, 0x6c, 0x86, 0x8f, 0x92, 0x76, 0x97, 0x63, 0x6b, 0x7e,
  0x68, 0x90, 0x71, 0x7a, 0x7b, 0x98, 0xae, 0x76, 0x81, 0x87, 0x8b, 0x7b,
  0x95, 0x90, 0x6f, 0x9e, 0xcd, 0x75, 0x9c, 0x3c, 0x7a, 0x9b, 0x9b, 0xa6,
  0xc7, 0x5d, 0x9e, 0x72, 0x63, 0x5a, 0x60, 0x4d, 0xd2, 0x7b, 0x83, 0x60,
  0x4e, 0x4f, 0x4a, 0x19, 0xde, 0x92, 0x95, 0x48, 0x65, 0x35, 0x60, 0x17,
  0xc2, 0x97, 0x77, 0x4d, 0x6d, 0x33, 0x79, 0x30, 0x8b, 0x85, 0x98, 0x72,
  0x72, 0x66, 0x87, 0x85, 0x8b, 0x91, 0x7a, 0x71, 0x69, 0x8f, 0x4b, 0x7d,
  0x8c, 0x76, 0x67, 0x62, 0x59, 0x82, 0x5f, 0x76, 0x7b, 0x65, 0x89, 0x62,
  0x62, 0x94, 0x7b, 0x6b, 0x81, 0x69, 0x7f, 0x5b, 0x89, 0xa1, 0x87, 0xaa,
  0x8d, 0x48, 0x86, 0x59, 0x9d, 0x73, 0x62, 0x8c, 0x78, 0x95, 0x60, 0x75,
  0x79, 0x9b, 0x98, 0x8a, 0x77, 0x71, 0x7f, 0x81, 0x8d, 0x8e, 0x67, 0x74,
  0x88, 0x7b, 0xa7, 0x76, 0x96, 0x84, 0x94, 0x8f, 0x91, 0x72, 0x96, 0x49,
  0x61, 0x66, 0x68, 0x69, 0x8a, 0x8f, 0x6d, 0x8b, 0x52, 0x8c, 0x4a, 0x57,
  0x79, 0xb6, 0x9e, 0x83, 0x6a, 0x64, 0x6c, 0x72, 0x86, 0x74, 0x77, 0x73,
  0x93, 0x8b, 0x91, 0x91, 0x77, 0x80, 0xa6, 0x56, 0x81, 0x88, 0x9a, 0x9b,
  0x77, 0x95, 0x99, 0x8b, 0x79, 0xa0, 0x78, 0x8c, 0xdc, 0x81, 0xb5, 0x78,
  0x8f, 0xa2, 0x7c, 0x96, 0xd9, 0x81, 0x9e, 0x38, 0x52, 0x67, 0x92, 0x33,
  0xce, 0x71, 0x5a, 0x72, 0x6c, 0x5e, 0x57, 0x20, 0xd9, 0x88, 0x9e, 0x4e,
  0x6d, 0x68, 0x8c, 0x2e, 0xbb, 0x72, 0x86, 0x5b, 0x5a, 0x55, 0x70, 0x5e,
  0xad, 0x8f, 0x90, 0x5c, 0x83, 0x52, 0x7b, 0x5c, 0x81, 0x9b, 0x75, 0x75,
  0x82, 0x95, 0x6d, 0x73, 0x8e, 0x77, 0x64, 0x5d, 0x65, 0x87, 0x4a, 0x64,
  0x8e, 0x5b, 0x80, 0x51, 0x4a, 0x56, 0x8b, 0x7c, 0x91, 0x8d, 0x65, 0x55,
  0x65, 0x88, 0x8e, 0x82, 0x8c, 0x6f, 0x86, 0x4e, 0x88, 0x8a, 0x84, 0x89,
  0x6c, 0x75, 0x97, 0x74, 0x98, 0x95, 0x7a, 0xb3, 0x8b, 0x72, 0x84, 0x81,
  0x92, 0x6c, 0x70, 0x94, 0x8f, 0x9a, 0x92, 0x73, 0x79, 0x66, 0x79, 0x63,
  0x82, 0x5f, 0x83, 0x8d, 0x95, 0x49, 0x6e, 0x52, 0x6e, 0x6c, 0x7a, 0x95,
  0x59, 0x53, 0x66, 0x6c, 0x74, 0x85, 0x9b, 0x70, 0x76, 0x62, 0x8f, 0x79,
  0x80, 0x8e, 0x84, 0x84, 0x7d, 0x86, 0x86, 0x93, 0x7f, 0x70, 0x96, 0x76,
  0x8d, 0x81, 0xb0, 0x8f, 0xa3, 0x89, 0x6b, 0x7f, 0x56, 0x86, 0x94, 0x71,
  0xeb, 0x58, 0x79, 0x5b, 0x7b, 0x87, 0x5a, 0x6b, 0xe7, 0x8a, 0x6d, 0x34,
  0x6b, 0x8c, 0x7d, 0x0f, 0xc4, 0x71, 0x60, 0x56, 0x4f, 0x48, 0x52, 0x04,
  0xcb, 0x51, 0x9b, 0x57, 0x7d, 0x39, 0x7d, 0x22, 0xb4, 0x82, 0x71, 0x44,
  0x8a, 0x40, 0x6f, 0x29, 0xc3, 0x89, 0x8e, 0x46, 0x8a, 0x58, 0x66, 0x66,
  0x7c, 0x81, 0x9d, 0x52, 0x7b, 0x6b, 0x58, 0x63, 0x87, 0x4c, 0x6e, 0x5d,
  0x67, 0x7f, 0x72, 0x8f, 0x71, 0x58, 0x80, 0x77, 0x64, 0x59, 0x63, 0x67,
  0x90, 0x74, 0x50, 0x4d, 0x86, 0x8f, 0xa1, 0x8b, 0x87, 0x69, 0x6f, 0x55,
  0x77, 0x81, 0x9a, 0xab, 0x78, 0x99, 0xa4, 0x60, 0x82, 0x8f, 0x68, 0x80,
  0x95, 0xa7, 0x78, 0x72, 0x74, 0xb1, 0x9b, 0xa1, 0x88, 0x8e, 0x84, 0x77,
  0x7a, 0x81, 0x93, 0x66, 0x74, 0x7d, 0x9a, 0x88, 0x5d, 0x85, 0x6a, 0x46,
  0x7d, 0x8a, 0x77, 0x69, 0x4f, 0x59, 0x5f, 0x67, 0x7b, 0xa3, 0x5d, 0x6d,
  0x74, 0x76, 0x74, 0x87, 0x77, 0x8e, 0x7b, 0x80, 0x93, 0x75, 0x93, 0x6d,
  0x65, 0x97, 0x70, 0x89, 0x65, 0x9e, 0xb7, 0x9c, 0x87, 0xa4, 0xac, 0x93,
  0x92, 0x93, 0x86, 0x70, 0xe2, 0x72, 0x8b, 0x3d, 0xb4, 0xad, 0x5e, 0x8a,
  0xcb, 0x6b, 0x5e, 0x42, 0x8a, 0x66, 0x7e, 0x11, 0xcb, 0x63, 0x93, 0x2d,
  0x79, 0x6a, 0x7b, 0x17, 0xe0, 0x90, 0x8d, 0x44, 0xaf, 0x4e, 0x89, 0x01,
  0xdf, 0x7b, 0x85, 0x47, 0x7b, 0x5a, 0x6d, 0x41, 0xa5, 0x83, 0x60, 0x5a,
  0x72, 0x8c, 0x7a, 0x45, 0xa8, 0x78, 0x76, 0x79, 0x79, 0x63, 0x5a, 0x6e,
  0x8c, 0x73, 0x8d, 0x3a, 0x50, 0x64, 0x5b, 0x45, 0x81, 0x6e, 0x70, 0x4b,
  0x65, 0x6b, 0x41, 0x8b, 0x96, 0x6c, 0x9c, 0x5f, 0x6d, 0x5d, 0x65, 0x96,
  0x8c, 0x73, 0xa5, 0x4e, 0x81, 0x83, 0x6a, 0x84, 0x7f, 0x93, 0x8b, 0x6a,
  0x84, 0x9a, 0xa5, 0x7b, 0x88, 0x95, 0x52, 0x75, 0x71, 0xaf, 0x7d, 0x7e,
  0x93, 0x95, 0x89, 0x7d, 0x73, 0x86, 0x62, 0x70, 0x8b, 0x69, 0x82, 0x7a,
  0x81, 0x63, 0x58, 0x5c, 0x6b, 0x61, 0x85, 0x81, 0x5a, 0x7c, 0x81, 0x5d,
  0x84, 0x90, 0x71, 0x89, 0x7a, 0x53, 0x47, 0x62, 0x93, 0x89, 0x8d, 0x81,
  0x56, 0x7d, 0x7f, 0x85, 0x6d, 0x87, 0xa5, 0x85, 0x85, 0x98, 0x9d, 0xb2,
  0x79, 0x8d, 0x79, 0x84, 0x60, 0x92, 0x73, 0x8e, 0xff, 0x85, 0x76, 0x4d,
  0xcf, 0xa0, 0xa9, 0xa4, 0xe9, 0x76, 0x8a, 0x3c, 0xc8, 0x8e, 0x6a, 0x68,
  0xbb, 0x59, 0x88, 0x3d, 0xa6, 0x64, 0x72, 0x2c, 0xe6, 0x67, 0x9e, 0x1d,
  0xc4, 0x61, 0xa5, 0x5c, 0xce, 0x7e, 0x98, 0x3f, 0xc3, 0x69, 0x89, 0x5c,
  0xc9, 0x75, 0x76, 0x7b, 0xaa, 0x75, 0xa7, 0x4f, 0xac, 0x6d, 0x5e, 0x4c,
  0xad, 0x5e, 0x81, 0x65, 0x88, 0x59, 0xa0, 0x76, 0x98, 0x82, 0x74, 0x4a,
  0x7d, 0x7e, 0x79, 0x47, 0xb4, 0x7b, 0x72, 0x8a, 0x8e, 0x54, 0x68, 0x72,
  0x98, 0x94, 0x77, 0x79, 0x7f, 0x62, 0x88, 0x7b, 0xa5, 0x7b, 0x7b, 0x67,
  0x8d, 0x85, 0x98, 0x70, 0x9d, 0x6b, 0xb0, 0x91, 0x82, 0x75, 0x95, 0x5d,
  0x89, 0x6f, 0xa2, 0x7c, 0x8e, 0x52, 0x7b, 0x70, 0xa2, 0x98, 0x74, 0x48,
  0x94, 0x57, 0x67, 0x76, 0x8a, 0x74, 0x51, 0x4a, 0x95, 0x83, 0x94, 0x80,
  0x6e, 0x80, 0x6c, 0x52, 0x91, 0x7a, 0x74, 0x65, 0x75, 0x98, 0x80, 0x66,
  0x8a, 0x95, 0x6d, 0x7b, 0x7c, 0xab, 0x91, 0x81, 0x90, 0x81, 0x68, 0x85,
  0x83, 0x79, 0x9d, 0xa9, 0x87, 0x8b, 0x6d, 0x9d, 0x86, 0x8a, 0x5b, 0x6f,
  0xcc, 0x62, 0x75, 0x4e, 0xd8, 0x6a, 0xad, 0xa6, 0x9a, 0x7b, 0x59, 0x48,
  0xdc, 0x6e, 0x6d, 0x75, 0x92, 0x78, 0x70, 0x59, 0xdc, 0x58, 0x6e, 0x5b,
  0x6b, 0x72, 0x71, 0x48, 0xbc, 0x7a, 0xa3, 0x5f, 0x65, 0x80, 0x7d, 0x92,
  0xcf, 0x5a, 0x8c, 0x84, 0x8e, 0x93, 0x8e, 0x78, 0xc0, 0x64, 0x9c, 0x8c,
  0xa0, 0xa0, 0x83, 0x70, 0xab, 0x67, 0x6f, 0x7f, 0x57, 0x8c, 0x7a, 0x74,
  0x90, 0x62, 0x71, 0x75, 0x69, 0x7a, 0x76, 0x69, 0x92, 0x78, 0x7d, 0x9b,
  0x7c, 0x8e, 0x74, 0x84, 0xa4, 0xa2, 0x8d, 0x67, 0x6b, 0x60, 0x86, 0x68,
  0x87, 0xa6, 0xa7, 0x7b, 0x73, 0x4f, 0x81, 0x79, 0x99, 0x9f, 0x8f, 0x87,
  0x7e, 0x6b, 0x99, 0x6b, 0x8f, 0xa2, 0x88, 0x94, 0x80, 0x81, 0x6d, 0x9c,
  0x88, 0x80, 0x99, 0x9c, 0x56, 0x72, 0x6c, 0x73, 0x8e, 0x8f, 0x5b, 0x52,
  0x61, 0x90, 0xa6, 0x94, 0x97, 0x5d, 0x8b, 0x77, 0x62, 0xb8, 0x69, 0x9f,
  0x90, 0x5e, 0x84, 0x69, 0x67, 0xaa, 0x5f, 0x7e, 0x93, 0x92, 0x9c, 0x89,
  0x5b, 0xa1, 0x6e, 0xa2, 0x7d, 0x84, 0x8f, 0xa9, 0x71, 0x9d, 0x71, 0x78,
  0x90, 0x79, 0x89, 0xa7, 0x7c, 0x68, 0x7e, 0x62, 0x73, 0x72, 0x9a, 0x85,
  0x87, 0x60, 0x6e, 0x87, 0x95, 0x99, 0x64, 0x8c, 0x93, 0x70, 0x91, 0x79,
  0x9a, 0x88, 0x6d, 0x9a, 0x7a, 0xa6, 0x79, 0x87, 0x7f, 0x93, 0x93, 0x90,
  0x8d, 0x94, 0x83, 0x94, 0x6c, 0x64, 0xa7, 0xa0, 0x84, 0x87, 0x7c, 0xa0,
  0x9b, 0x8c, 0xa0, 0x8a, 0x97, 0x89, 0x7a, 0xa3, 0x66, 0x57, 0x76, 0x6a,
  0xa2, 0x6c, 0x7e, 0x64, 0x89, 0x90, 0x93, 0x82, 0x73, 0x77, 0x93, 0xa1,
  0x85, 0x66, 0x8f, 0x8c, 0x8e, 0x8d, 0x5a, 0x6e, 0x7c, 0x6e, 0x70, 0x7f,
  0x7c, 0x7a, 0x83, 0x6e, 0x80, 0x89, 0x9c, 0x83, 0x7f, 0x8c, 0x68, 0x63,
  0x92, 0x68, 0x6b, 0x9b, 0x8f, 0x92, 0x6a, 0x57, 0x8a, 0x75, 0x7b, 0x9b,
  0x90, 0x8c, 0x66, 0x5e, 0x7c, 0x91, 0x57, 0x90, 0x7f, 0x7b, 0x7e, 0xa3,
  0x86, 0x6a, 0x8a, 0x77, 0x91, 0x9b, 0x82, 0x96, 0x9b, 0x91, 0x85, 0x6c,
  0x99, 0x8f, 0x89, 0x79, 0x73, 0x7b, 0x84, 0x68, 0x8f, 0x7a, 0x67, 0x64,
  0x8f, 0x75, 0x85, 0x8b, 0x84, 0x7c, 0x99, 0xab, 0x6e, 0x80, 0x81, 0x7b,
  0x89, 0x78, 0x87, 0x80, 0xa1, 0x73, 0x98, 0x8e, 0x75, 0xa9, 0x96, 0x8a,
  0x80, 0xa6, 0x8a, 0x64, 0x86, 0x57, 0xa2, 0x5d, 0xa7, 0x8a, 0x81, 0x8a,
  0x87, 0x8b, 0x74, 0x67, 0xa5, 0x6a, 0x79, 0x79, 0x79, 0x6b, 0x5f, 0x8d,
  0x5c, 0x57, 0xad, 0x8c, 0x84, 0x83, 0xb0, 0xa4, 0x89, 0x98, 0x70, 0x9e,
  0x7d, 0x71, 0x97, 0x8a, 0x7f, 0x98, 0x77, 0x86, 0x89, 0x8d, 0x7c, 0x7e,
  0x98, 0x8e, 0x81, 0x92, 0x92, 0x82, 0x5c, 0x9a, 0x6d, 0x8d, 0x7d, 0x9b,
  0x77, 0x87, 0x97, 0x80, 0x66, 0x61, 0x84, 0xa4, 0x83, 0x6c, 0x83, 0x75,
  0x7c, 0x7e, 0x96, 0x87, 0x78, 0x88, 0x73, 0x8d, 0xa4, 0x7a, 0x8d, 0x98,
  0x7b, 0x87, 0x5f, 0x5a, 0x9d, 0x72, 0xac, 0x93, 0x65, 0x73, 0xa3, 0x7b,
  0x9b, 0x7d, 0x8f, 0x88, 0x8a, 0x9a, 0x87, 0xb9, 0x75, 0x6b, 0x77, 0x8b,
  0x93, 0x83, 0x95, 0xb2, 0x80, 0xa0, 0x81, 0x91, 0x7d, 0x89, 0x86, 0x90,
  0x65, 0xa1, 0x79, 0x88, 0x83, 0x6f, 0x7b, 0x7b, 0x97, 0x80, 0x63, 0x7b,
  0x8e, 0x6e, 0x9f, 0x8f, 0x8b, 0x92, 0x73, 0x75, 0x70, 0x78, 0x71, 0x6e,
  0xa9, 0x81, 0x95, 0x81, 0x88, 0x8b, 0x76, 0x94, 0x71, 0x8d, 0x69, 0x5b,
  0x77, 0x7c, 0x7b, 0x7a, 0x7b, 0x7c, 0x87, 0x7d, 0x8f, 0x5e, 0x96, 0x80,
  0x50, 0x86, 0x7b, 0x64, 0x8a, 0x8d, 0x47, 0x81, 0x9a, 0x7d, 0xa7, 0x69,
  0x9f, 0x8c, 0x7e, 0x83, 0x9e, 0x5e, 0x7d, 0x6a, 0x75, 0x95, 0x5a, 0x9c,
  0x94, 0x8b, 0x6f, 0x81, 0x7b, 0x69, 0x7c, 0x63, 0x89, 0x92, 0x5f, 0x84,
  0x74, 0x84, 0x84, 0x81, 0x8b, 0x5e, 0x81, 0x8d, 0x6b, 0x7e, 0x68, 0x7a,
  0x7f, 0xb0, 0x8b, 0x88, 0x86, 0x85, 0x88, 0x6c, 0xaa, 0x60, 0x7a, 0x95,
  0x91, 0x79, 0xa5, 0x66, 0x8a, 0x80, 0x94, 0x9d, 0x9c, 0x77, 0x6d, 0x65,
  0x98, 0x79, 0x85, 0x83, 0x7b, 0x8b, 0xab, 0x7c, 0x7a, 0x7a, 0x8e, 0x64,
  0xa3, 0x85, 0x87, 0xa0, 0x97, 0x59, 0x88, 0x7a, 0x84, 0x84, 0x94, 0x91,
  0xb3, 0x9b, 0x9e, 0x6b, 0x9b, 0x99, 0x9f, 0x98, 0x99, 0x7f, 0x6c, 0x82,
  0x74, 0x8b, 0xa1, 0x9a, 0x9f, 0x71, 0x89, 0x87, 0x73, 0x7e, 0x67, 0x92,
  0x88, 0x8c, 0x69, 0x78, 0x9b, 0x6d, 0x72, 0x93, 0x82, 0xa1, 0x9e, 0x82,
  0x7b, 0x9a, 0x80, 0x7c, 0x83, 0xac, 0x80, 0x7c, 0x81, 0x6a, 0x8c, 0x7e,
  0xa8, 0x92, 0x6e, 0x73, 0x72, 0x7b, 0x7c, 0xa7, 0x7e, 0x5f, 0x73, 0x78,
  0x67, 0x96, 0x78, 0x90, 0x67, 0x8c, 0x56, 0x63, 0xa6, 0xa9, 0x81, 0x95,
  0x60, 0x90, 0x7d, 0x62, 0x6d, 0x8a, 0x7d, 0x91, 0x9c, 0x77, 0x95, 0x6c,
  0x78, 0x84, 0x79, 0x80, 0x98, 0x67, 0x64, 0x64, 0x72, 0x7e, 0x64, 0x60,
  0x90, 0x9f, 0x60, 0x75, 0x80, 0x91, 0x80, 0x66, 0x6c, 0x9e, 0x69, 0x91,
  0x86, 0x76, 0x73, 0x8e, 0xb6, 0x77, 0x8a, 0xbc, 0x7b, 0x74, 0x6f, 0x76,
  0x8d, 0x8b, 0x55, 0xb9, 0x87, 0x79, 0x75, 0x6a, 0x93, 0x92, 0x9e, 0x9c,
  0xa3, 0x8a, 0x83, 0x66, 0x83, 0xb0, 0x7d, 0xb6, 0x71, 0x83, 0x6e, 0x83,
  0x60, 0x76, 0x9b, 0x76, 0x8a, 0x8f, 0xa7, 0x87, 0x7b, 0x71, 0x8e, 0x80,
  0x8a, 0xa6, 0x8b, 0xb5, 0x93, 0x8f, 0x89, 0x89, 0x6c, 0x9b, 0x80, 0x8e,
  0x94, 0x96, 0x84, 0x61, 0x82, 0x95, 0x96, 0x9a, 0xa6, 0x7e, 0xad, 0x6e,
  0x85, 0x7c, 0x96, 0x78, 0x7d, 0x83, 0x6e, 0x69, 0x5b, 0x7d, 0x91, 0x75,
  0xb7, 0x89, 0x82, 0x77, 0x85, 0x8b, 0x8d, 0x77, 0x7f, 0xa2, 0x67, 0x84,
  0x6c, 0x83, 0x84, 0x85, 0x82, 0x7e, 0x87, 0xa8, 0x79, 0x73, 0x97, 0x76,
  0x76, 0x85, 0x77, 0x8a, 0x81, 0x9b, 0x89, 0x91, 0xa8, 0x80, 0x5a, 0x5d,
  0x7c, 0x95, 0xa3, 0xa4, 0xb9, 0x38, 0x8d, 0x53, 0x94, 0xbd, 0x91, 0x9d,
  0x9e, 0x4e, 0x9e, 0x6e, 0x6d, 0x99, 0x6c, 0x81, 0x88, 0x8c, 0x6d, 0x7f,
  0x70, 0x95, 0x87, 0x7d, 0x6d, 0x8d, 0x62, 0x81, 0x64, 0x83, 0x81, 0x70,
  0x8e, 0xa0, 0x8f, 0x94, 0x6d, 0x7a, 0xa2, 0x77, 0x6f, 0x78, 0x74, 0xae,
  0x92, 0x54, 0x73, 0x6c, 0x87, 0x96, 0x6c, 0xc3, 0x81, 0x55, 0x8e, 0x64,
  0x86, 0xa1, 0x9e, 0xbe, 0x7b, 0x89, 0x9f, 0x7e, 0x92, 0x80, 0x7f, 0xaa,
  0x6c, 0xa4, 0x72, 0x8f, 0x75, 0x51, 0x96, 0x7b, 0x78, 0x6d, 0xa3, 0x84,
  0x81, 0x6f, 0x89, 0x6f, 0x7e, 0x8d, 0xa7, 0x9b, 0x89, 0x76, 0xd0, 0x78,
  0x88, 0xb5, 0xa6, 0xa6, 0x8a, 0x76, 0x97, 0x8b, 0x5b, 0x83, 0x99, 0x8d,
  0xa6, 0x7f, 0xa0, 0x63, 0x85, 0x9a, 0x9d, 0x94, 0x8f, 0x81, 0x80, 0x7d,
  0x61, 0x80, 0x81, 0x8b, 0xa0, 0x8f, 0x93, 0x85, 0x70, 0x79, 0x78, 0x97,
  0x7e, 0x82, 0x92, 0x7c, 0x61, 0x80, 0x7e, 0x80, 0x8c, 0x88, 0x8e, 0x78,
  0x72, 0x8b, 0x71, 0x71, 0x63, 0x55, 0x8f, 0x5c, 0x6d, 0xac, 0x96, 0xa4,
  0x82, 0x8a, 0x86, 0x62, 0x6e, 0xc7, 0x75, 0xae, 0x9f, 0x4d, 0xd7, 0x64,
  0x6d, 0xb5, 0x89, 0x96, 0xa6, 0x53, 0xb7, 0x5d, 0x72, 0x9a, 0x81, 0x74,
  0xa5, 0x76, 0x79, 0x71, 0x67, 0x7d, 0x73, 0x7a, 0x70, 0x84, 0x6e, 0x82,
  0x7d, 0x75, 0x55, 0x80, 0x81, 0xa2, 0x7b, 0xa3, 0x6a, 0x89, 0x51, 0x55,
  0x6a, 0x96, 0x69, 0xce, 0x75, 0x74, 0x5e, 0x7d, 0x80, 0xa7, 0x7b, 0xd0,
  0xaf, 0x6a, 0x69, 0x84, 0x70, 0xb3, 0x7a, 0xbb, 0x77, 0x62, 0xa2, 0x93,
  0x95, 0x60, 0x77, 0xab, 0x7d, 0xa5, 0x64, 0x9e, 0x60, 0x95, 0x83, 0x98,
  0x75, 0x75, 0xa3, 0x94, 0x79, 0x78, 0xd0, 0x79, 0x88, 0x8e, 0x87, 0xa6,
  0x96, 0x77, 0xbf, 0x85, 0x76, 0xbc, 0x8d, 0x99, 0xa5, 0x78, 0xca, 0x9c,
  0x69, 0x94, 0x90, 0x94, 0x9d, 0x78, 0xb6, 0x80, 0x60, 0x94, 0x70, 0xa7,
  0x85, 0x82, 0xa6, 0x8d, 0x6e, 0x9c, 0x63, 0xa0, 0x8f, 0x78, 0xa0, 0x87,
  0x7c, 0x69, 0x82, 0x87, 0x78, 0x99, 0x72, 0x8f, 0x88, 0x7d, 0x76, 0x93,
  0x8a, 0x7f, 0x82, 0x9b, 0x5c, 0x99, 0x66, 0x7c, 0x6a, 0x66, 0xa8, 0x6c,
  0x81, 0xaa, 0xa7, 0xb0, 0x74, 0x6f, 0xbd, 0x73, 0x62, 0xb6, 0x61, 0x99,
  0xb6, 0x55, 0xed, 0x76, 0x72, 0xae, 0xa2, 0x86, 0x91, 0x78, 0x96, 0x6a,
  0x92, 0x87, 0x90, 0x79, 0x96, 0x5e, 0x83, 0x7c, 0x7e, 0x7f, 0x7e, 0x69,
  0x69, 0xb4, 0x68, 0x74, 0x81, 0x84, 0x7c, 0x74, 0x50, 0xbb, 0x7d, 0xc3,
  0x74, 0x7d, 0x7e, 0x68, 0x83, 0x9f, 0x7b, 0xb7, 0x6a, 0x70, 0x83, 0x6c,
  0x83, 0xad, 0x70, 0xcd, 0x84, 0x7a, 0x63, 0x77, 0x5d, 0x84, 0x86, 0xb4,
  0x6b, 0x78, 0x94, 0x7b, 0x88, 0x84, 0x9f, 0xb0, 0x86, 0x9b, 0x94, 0x8e,
  0x5e, 0x9f, 0xa3, 0x6c, 0x4e, 0x93, 0x69, 0x9e, 0x86, 0x55, 0xa1, 0x81,
  0x6b, 0x98, 0x96, 0x85, 0x92, 0x8a, 0xc8, 0x74, 0x70, 0xab, 0x9a, 0xa9,
  0x84, 0x89, 0xc5, 0x93, 0x66, 0x8f, 0xad, 0xb7, 0x87, 0x81, 0xc0, 0x75,
  0x7c, 0x87, 0xa4, 0xae, 0xa5, 0x84, 0xa8, 0x79, 0x5e, 0x95, 0x92, 0xa3,
  0x74, 0x74, 0x82, 0x82, 0x96, 0x7c, 0xa5, 0x7f, 0x7d, 0x92, 0x7c, 0x8a,
  0x74, 0x5b, 0x8a, 0x86, 0xb2, 0x80, 0x87, 0x63, 0x5b, 0x7f, 0x7d, 0xa3,
  0x8d, 0x68, 0x8a, 0x85, 0x64, 0xd7, 0x7e, 0xbe, 0x79, 0x8b, 0xc7, 0x5c,
  0x76, 0xcd, 0x78, 0x89, 0xa0, 0x84, 0xce, 0x7a, 0x9b, 0xc2, 0x80, 0x98,
  0x8c, 0x45, 0xc8, 0x55, 0x75, 0xac, 0x7e, 0x92, 0x7d, 0x93, 0x7b, 0x7d,
  0x56, 0x87, 0xb0, 0x7a, 0x6a, 0x7b, 0x81, 0x81, 0x76, 0xa5, 0x69, 0x86,
  0x8f, 0xae, 0x9c, 0xb2, 0x76, 0x7e, 0x7b, 0x65, 0x78, 0x9f, 0x92, 0xbd,
  0x70, 0x70, 0x8a, 0x62, 0x65, 0x80, 0x7f, 0xbd, 0x90, 0x64, 0x80, 0x71,
  0x67, 0x9d, 0x82, 0xc1, 0x93, 0x6c, 0x9e, 0x7e, 0x92, 0x77, 0xa7, 0x8d,
  0x59, 0x83, 0x6d, 0x7f, 0x7c, 0x69, 0x74, 0x7d, 0x67, 0x90, 0x6e, 0x9d,
  0x6c, 0x92, 0x96, 0x61, 0x7a, 0xa4, 0x9d, 0x8e, 0xa0, 0x5e, 0xd7, 0x76,
  0x83, 0xc5, 0x86, 0x9f, 0x9b, 0x77, 0xbb, 0x83, 0x80, 0x8c, 0xb0, 0x94,
  0x75, 0x74, 0xbe, 0x7f, 0x8a, 0x9c, 0x90, 0xc2, 0x95, 0x79, 0xb3, 0x6b,
  0x81, 0x9f, 0xb4, 0xa1, 0x82, 0x91, 0x9f, 0x92, 0x68, 0x7f, 0xae, 0x6b,
  0x5b, 0x60, 0x5e, 0x89, 0x96, 0x8c, 0xa2, 0x67, 0xb2, 0x92, 0x9f, 0x88,
  0x69, 0x81, 0x80, 0x9f, 0x8f, 0x57, 0x97, 0xa7, 0x86, 0xc5, 0xb2, 0x8f,
  0x83, 0x8f, 0xa0, 0x59, 0x6b, 0xd6, 0x97, 0x8f, 0xa2, 0x67, 0xca, 0x6f,
  0x81, 0xc0, 0x8d, 0x95, 0xb2, 0x5c, 0xb0, 0x6b, 0x7e, 0xa6, 0x75, 0x90,
  0x92, 0x74, 0x7c, 0x70, 0x6b, 0xad, 0x94, 0x97, 0x70, 0x79, 0x7b, 0xa6,
  0x89, 0x7c, 0x7f, 0x7c, 0x85, 0xc0, 0x84, 0xab, 0x7f, 0x82, 0x6a, 0x6c,
  0x7e, 0x85, 0x7b, 0xc8, 0x67, 0x79, 0x5a, 0x72, 0x88, 0x92, 0x75, 0xda,
  0x63, 0x6a, 0x8a, 0x6d, 0x5d, 0x97, 0x84, 0xc5, 0x88, 0x96, 0x82, 0x8b,
  0x9e, 0x83, 0xb6, 0xa7, 0x7d, 0x9f, 0x7c, 0x83, 0x71, 0x74, 0x91, 0x68,
  0x71, 0x90, 0x8d, 0x8d, 0x6c, 0x6c, 0x92, 0x4f, 0x76, 0xa1, 0x86, 0x89,
  0x8e, 0x75, 0xca, 0x7d, 0x87, 0xad, 0x85, 0x8c, 0x82, 0x72, 0xb0, 0x83,
  0x7e, 0x9c, 0x88, 0xa3, 0x9f, 0x85, 0xb0, 0x7f, 0x8f, 0x9c, 0x6a, 0xb1,
  0x98, 0x96, 0xb5, 0x79, 0x7c, 0x9a, 0x84, 0xa3, 0x88, 0x7c, 0x82, 0x79,
  0x84, 0x6e, 0xad, 0x5f, 0x80, 0x77, 0x71, 0x78, 0x79, 0x78, 0x72, 0x83,
  0x7e, 0x8a, 0x73, 0x76, 0x7c, 0x82, 0x94, 0x80, 0x79, 0x61, 0xa0, 0x6b,
  0x84, 0xdd, 0x80, 0xab, 0x88, 0xaf, 0xe6, 0x4b, 0x78, 0xce, 0x91, 0x84,
  0x9b, 0x7f, 0xc4, 0x77, 0x9d, 0xdb, 0x8d, 0x8e, 0x77, 0x74, 0xb2, 0x63,
  0x66, 0x99, 0x9f, 0x75, 0x68, 0x78, 0x7d, 0x79, 0x90, 0x99, 0x84, 0x8d,
  0x5f, 0xa0, 0x7d, 0x78, 0x7b, 0xa1, 0x78, 0x80, 0x79, 0xb8, 0x93, 0xc8,
  0x83, 0x95, 0x72, 0x5e, 0x76, 0x9c, 0x94, 0xb5, 0x82, 0x6e, 0x63, 0x60,
  0x67, 0x96, 0x86, 0xbd, 0x68, 0x75, 0x65, 0x6c, 0x88, 0x97, 0xad, 0xc0,
  0x8d, 0x90, 0x8e, 0x7e, 0x87, 0x7c, 0x99, 0x8d, 0x79, 0x8c, 0x60, 0x92,
  0x5e, 0x64, 0x88, 0x65, 0x72, 0x97, 0x88, 0x86, 0x79, 0x67, 0xa5, 0x69,
  0x6e, 0xab, 0x81, 0xa0, 0x9b, 0x6b, 0xbf, 0x82, 0x8e, 0x9c, 0x8a, 0x99,
  0xc3, 0x74, 0xc6, 0x80, 0x84, 0xb4, 0x9d, 0x9d, 0xa2, 0x75, 0xb5, 0x85,
  0x9d, 0x9f, 0x8f, 0xa8, 0x89, 0x63, 0xbd, 0x87, 0x99, 0xa7, 0x8b, 0xbd,
  0x90, 0x95, 0x7e, 0x6e, 0x76, 0x5f, 0x9d, 0x83, 0x65, 0x9f, 0x7d, 0x82,
  0x95, 0x69, 0x7f, 0x79, 0x5b, 0x96, 0x6f, 0xaa, 0x74, 0x86, 0x92, 0x9d,
  0xa3, 0x4f, 0x90, 0x95, 0x99, 0xd1, 0x66, 0xb0, 0x89, 0xb7, 0xae, 0x66,
  0x6a, 0xc5, 0xad, 0x8d, 0x84, 0x8e, 0xe5, 0x5f, 0x8b, 0xb7, 0xa7, 0xad,
  0x8e, 0x61, 0xb2, 0x65, 0x6d, 0x82, 0x75, 0x72, 0x85, 0x6a, 0x83, 0x6d,
  0x73, 0x98, 0x91, 0x7d, 0x6e, 0xa5, 0x82, 0x77, 0x87, 0x8d, 0x77, 0x83,
  0xa4, 0xbc, 0xa3, 0xcb, 0x90, 0x9b, 0x88, 0x8d, 0x7c, 0xad, 0xb1, 0xa7,
  0x7e, 0x64, 0x54, 0x63, 0x5b, 0x93, 0x96, 0xd2, 0x6c, 0x68, 0x6f, 0x78,
  0x6f, 0xaa, 0xaf, 0xcf, 0x97, 0x57, 0x79, 0x6b, 0x79, 0x90, 0xa8, 0x9d,
  0x72, 0x99, 0x88, 0x94, 0x6a, 0x61, 0x8a, 0x6a, 0x7d, 0xa3, 0xa5, 0x9c,
  0x81, 0x79, 0xac, 0x79, 0x85, 0x92, 0x9a, 0x86, 0x8a, 0x86, 0xce, 0x73,
  0x92, 0xa2, 0x99, 0xa9, 0x89, 0x76, 0xa1, 0x8a, 0x8b, 0x90, 0xa8, 0x8d,
  0x7d, 0x83, 0xba, 0x85, 0xa2, 0x90, 0x7f, 0xb5, 0x81, 0x6a, 0xb8, 0x7d,
  0x94, 0x89, 0x7e, 0xb3, 0xa4, 0xa3, 0x89, 0x8a, 0x9f, 0x87, 0x7d, 0x7d,
  0x83, 0x8d, 0x8e, 0x7d, 0x8f, 0x66, 0x9d, 0x5f, 0xa3, 0x80, 0x9a, 0x8c,
  0x71, 0x7d, 0x75, 0xb1, 0x8d, 0x2e, 0xb8, 0x87, 0x87, 0xd3, 0x9d, 0xbf,
  0x84, 0x96, 0xb1, 0x67, 0x8a, 0xc3, 0x91, 0x89, 0xa4, 0xa7, 0xe7, 0x6e,
  0x93, 0xad, 0x7c, 0x9a, 0x8a, 0x6a, 0xe6, 0x88, 0x80, 0x99, 0xa3, 0x87,
  0x7f, 0x90, 0x7e, 0x7a, 0x8f, 0xa6, 0x89, 0x76, 0x6a, 0x97, 0x7c, 0x89,
  0x72, 0x8a, 0x84, 0x83, 0x89, 0xc0, 0x93, 0xad, 0x85, 0xa3, 0x79, 0x7d,
  0x71, 0xc6, 0x8c, 0xbf, 0x7a, 0x73, 0x7c, 0x66, 0x78, 0x9d, 0x7c, 0xd8,
  0x94, 0x69, 0x4d, 0x75, 0x79, 0x6f, 0x7f, 0xd2, 0x8b, 0x64, 0x59, 0x7a,
  0x7d, 0x86, 0x84, 0x84, 0x6a, 0x86, 0x78, 0xac, 0x68, 0x6c, 0x72, 0x6c,
  0x73, 0xaa, 0xa1, 0x9b, 0x90, 0x62, 0xb4, 0x5d, 0x87, 0xa8, 0x83, 0x9b,
  0x88, 0x81, 0xa6, 0x7b, 0x8d, 0x9c, 0xa0, 0x93, 0x96, 0x71, 0xd0, 0x83,
  0x89, 0x9d, 0x98, 0xa6, 0x9b, 0x84, 0xbb, 0x85, 0xae, 0x9b, 0x8a, 0xc4,
  0x86, 0x5d, 0x92, 0x76, 0x94, 0xb7, 0x95, 0xae, 0x92, 0x91, 0x9f, 0x77,
  0xac, 0x8e, 0xa3, 0x70, 0x71, 0x94, 0x72, 0x7c, 0x8c, 0x6e, 0x9c, 0x59,
  0x87, 0x92, 0x96, 0x64, 0x69, 0x52, 0x6a, 0x94, 0x92, 0x56, 0xbb, 0x76,
  0x80, 0xc0, 0x75, 0xa7, 0x9e, 0xb0, 0xc1, 0x63, 0x84, 0xc7, 0xac, 0x9a,
  0xb6, 0x91, 0xe0, 0x87, 0xa9, 0xc2, 0x8b, 0xa7, 0xaa, 0x8b, 0xb1, 0x7d,
  0x8a, 0x9e, 0x81, 0x88, 0x7d, 0x87, 0x8d, 0x77, 0x65, 0x9a, 0x73, 0x7d,
  0x6f, 0xa0, 0x9c, 0x92, 0x74, 0x78, 0x75, 0x7a, 0x94, 0xc0, 0x96, 0xaf,
  0x84, 0x9a, 0x75, 0x7b, 0x9b, 0xb3, 0x96, 0xcd, 0x69, 0x81, 0x7b, 0x6b,
  0x7e, 0x8e, 0x96, 0xc1, 0x86, 0x7c, 0x63, 0x85, 0x9b, 0x83, 0x8e, 0xe7,
  0x7c, 0x6c, 0x52, 0x65, 0x8a, 0x6d, 0x91, 0xb0, 0x7a, 0x87, 0x75, 0x73,
  0x7a, 0x73, 0x7a, 0x5f, 0x7d, 0x9d, 0x6c, 0x85, 0x80, 0x70, 0xa6, 0x72,
  0x88, 0xb3, 0x66, 0x8c, 0x81, 0x76, 0xcd, 0x76, 0x8f, 0xad, 0xab, 0x86,
  0x8c, 0x7e, 0xc2, 0x8e, 0x7a, 0xab, 0x9c, 0x95, 0xa7, 0x78, 0xc2, 0x8c,
  0x97, 0xba, 0x98, 0xa0, 0x94, 0x69, 0xa4, 0x80, 0x92, 0x8e, 0x82, 0x92,
  0x7c, 0x71, 0xa7, 0x8a, 0xa3, 0x8b, 0x96, 0x6d, 0x8b, 0x83, 0x6e, 0x81,
  0x84, 0x6e, 0xa2, 0x68, 0x66, 0xb3, 0x92, 0x81, 0x6c, 0x81, 0x6e, 0xb0,
  0x9d, 0x41, 0xc0, 0x6f, 0x82, 0xc1, 0x7c, 0xa7, 0x8f, 0x95, 0xb2, 0x83,
  0x6c, 0xbe, 0xa4, 0xa1, 0xb2, 0x97, 0xdb, 0x7c, 0x77, 0xc8, 0x9c, 0x9d,
  0x9b, 0x6d, 0xb9, 0x8c, 0x72, 0xad, 0xa5, 0x8d, 0x74, 0xa2, 0x78, 0x78,
  0x7f, 0x92, 0x77, 0x90, 0x6d, 0x9f, 0x8e, 0x93, 0x69, 0x8e, 0x94, 0x69,
  0x7b, 0xaf, 0xa3, 0xb9, 0x8c, 0x93, 0x58, 0x7c, 0x74, 0xcb, 0xa3, 0xd2,
  0x76, 0x8d, 0x61, 0x71, 0x67, 0x9f, 0x84, 0xd3, 0x8d, 0x6d, 0x6f, 0x70,
  0x9c, 0x7e, 0x91, 0xc8, 0x92, 0x6d, 0x72, 0x7a, 0x72, 0x75, 0x90, 0x97,
  0x85, 0x9f, 0x91, 0x8e, 0x7f, 0x6b, 0x80, 0x89, 0x75, 0x8c, 0x8f, 0x8f,
  0x69, 0x5f, 0xb5, 0x61, 0x8f, 0x9b, 0x84, 0x74, 0x7e, 0x74, 0xb2, 0x76,
  0x8e, 0xab, 0xaa, 0x9b, 0x87, 0x69, 0xbc, 0x85, 0x89, 0xb6, 0x7f, 0x9a,
  0xa9, 0x69, 0xc0, 0x93, 0x9d, 0xae, 0x77, 0xa8, 0x79, 0x80, 0xa9, 0x7a,
  0x8d, 0xbc, 0x90, 0xa7, 0x9b, 0x78, 0x96, 0x7b, 0x90, 0x83, 0x98, 0x84,
  0x86, 0x74, 0x87, 0x6b, 0x80, 0x66, 0x9b, 0x74, 0x99, 0x97, 0x81, 0x95,
  0x86, 0x83, 0xb1, 0xb6, 0xad, 0x2a, 0xbf, 0x77, 0x7d, 0xd7, 0x73, 0xb4,
  0x99, 0xa4, 0xc0, 0x63, 0x6b, 0xc9, 0xb0, 0x94, 0xbf, 0xa4, 0xd0, 0x83,
  0xa7, 0xdd, 0x8b, 0x9e, 0x93, 0x71, 0xa8, 0x77, 0x72, 0x90, 0x97, 0x88,
  0x80, 0x82, 0x9f, 0x82, 0x5d, 0x93, 0x76, 0x93, 0x63, 0xa4, 0x7d, 0x9b,
  0x7d, 0x8b, 0x6c, 0x80, 0x8b, 0xc6, 0xb3, 0xb0, 0x6a, 0xa9, 0x71, 0x84,
  0x8c, 0xb1, 0x9b, 0xbd, 0x82, 0x6c, 0x79, 0x6b, 0x86, 0x9c, 0x6a, 0xb2,
  0x76, 0x6a, 0x62, 0x62, 0x86, 0x90, 0x83, 0xe0, 0x82, 0x70, 0x73, 0x70,
  0x95, 0x88, 0x92, 0x9c, 0x6f, 0x8b, 0x7a, 0x93, 0x6e, 0x81, 0x85, 0x7b,
  0x78, 0x8a, 0xa4, 0x84, 0x7c, 0x64, 0xa6, 0x5b, 0x84, 0x8e, 0xba, 0x90,
  0x88, 0x70, 0xc6, 0xa0, 0x94, 0x95, 0x9b, 0xa1, 0x94, 0x6a, 0xbb, 0x85,
  0x8c, 0x88, 0x96, 0xa6, 0x83, 0x7d, 0xc0, 0x91, 0x90, 0x92, 0x81, 0x98,
  0x87, 0x74, 0x8a, 0x76, 0x99, 0xb5, 0xa0, 0xb7, 0x86, 0x8a, 0x97, 0x86,
  0x98, 0x9a, 0x9d, 0x8b, 0x84, 0x97, 0x73, 0x84, 0x8c, 0x7a, 0x9d, 0x87,
  0x7d, 0x93, 0x86, 0x8c, 0x80, 0x8e, 0x61, 0x95, 0xa4, 0x42, 0xc5, 0x73,
  0x89, 0xc0, 0xa2, 0xb3, 0xc8, 0x86, 0xac, 0x5f, 0x71, 0xd0, 0x88, 0x83,
  0xad, 0xb9, 0xd8, 0x71, 0x92, 0xb3, 0x83, 0x9f, 0x9e, 0x93, 0xb9, 0x85,
  0x79, 0x94, 0x7d, 0x7d, 0x85, 0xa0, 0x8d, 0x8b, 0x7b, 0x89, 0x81, 0x74,
  0x6f, 0x99, 0x96, 0x92, 0x76, 0x8e, 0x7c, 0x75, 0x80, 0xae, 0x86, 0xb9,
  0x75, 0x86, 0x6d, 0x81, 0x9d, 0xc4, 0x8c, 0x9e, 0x6b, 0x6d, 0x6b, 0x7c,
  0x80, 0x82, 0x65, 0xc4, 0x7c, 0x83, 0x68, 0x6d, 0x95, 0x8d, 0x87, 0xba,
  0x8a, 0x59, 0x62, 0x61, 0x5f, 0xa5, 0x9b, 0x88, 0x73, 0x9b, 0x8e, 0xa1,
  0x7d, 0x80, 0x6b, 0x62, 0x95, 0x82, 0x90, 0x9a, 0x79, 0x62, 0x9e, 0x5f,
  0x83, 0x89, 0x7e, 0x88, 0x82, 0x7f, 0xc8, 0x7d, 0x7e, 0xa6, 0xb5, 0xaa,
  0x71, 0x92, 0xca, 0x68, 0x99, 0xa1, 0x6c, 0x98, 0x8a, 0x67, 0xa9, 0x7f,
  0x94, 0xa7, 0x98, 0x8f, 0x93, 0x73, 0x9c, 0x71, 0x8d, 0xb1, 0x8a, 0xb2,
  0xa4, 0x8a, 0xa6, 0x89, 0x99, 0x5b, 0x85, 0x8b, 0x7b, 0x68, 0x7c, 0x79,
  0x98, 0x73, 0x9b, 0x6d, 0x9c, 0x98, 0x7c, 0x60, 0x80, 0x6f, 0x61, 0xa6,
  0xa6, 0x51, 0xd5, 0x72, 0x6d, 0xac, 0x88, 0x8e, 0xb7, 0x96, 0xa9, 0x5d,
  0x52, 0xb7, 0x8c, 0x7d, 0x89, 0xaf, 0xc6, 0x81, 0x87, 0xbb, 0xaa, 0x92,
  0x84, 0x78, 0xbd, 0x79, 0x94, 0x9b, 0x96, 0x8a, 0x8f, 0x7f, 0xa1, 0x67,
  0x74, 0x8b, 0x8b, 0x7e, 0x65, 0x9f, 0x98, 0x8d, 0x6f, 0x86, 0xa4, 0x79,
  0xa8, 0xd2, 0x9d, 0xa7, 0x6c, 0x8b, 0x6c, 0x70, 0x75, 0xb5, 0x90, 0xb1,
  0x8e, 0x74, 0x83, 0x76, 0x8f, 0x90, 0x94, 0xb1, 0x65, 0x69, 0x5a, 0x71,
  0x8b, 0x9b, 0x7b, 0xb7, 0x77, 0x6f, 0x58, 0x67, 0x8d, 0x95, 0xa7, 0xa5,
  0x7d, 0x90, 0x7a, 0x7c, 0x88, 0x7c, 0x77, 0x7e, 0x7d, 0x75, 0x7e, 0xa7,
  0x6c, 0x60, 0xb5, 0x72, 0x6e, 0x89, 0x8b, 0x7d, 0x85, 0x80, 0xae, 0x88,
  0x81, 0xa7, 0x90, 0x84, 0x85, 0x7d, 0xc7, 0x88, 0x87, 0x87, 0x83, 0x90,
  0x97, 0x7f, 0xa4, 0x82, 0x85, 0xb4, 0x76, 0x9b, 0x8b, 0x76, 0x9f, 0x93,
  0x9b, 0xa5, 0x91, 0x92, 0x75, 0x86, 0x92, 0x7e, 0x9d, 0x70, 0x8b, 0x78,
  0x8f, 0x84, 0x69, 0x7c, 0x96, 0x7a, 0x88, 0x7f, 0x9e, 0x97, 0x9e, 0x80,
  0x70, 0x6f, 0x79, 0xa4, 0xad, 0x61, 0x9d, 0x93, 0x6c, 0xab, 0x99, 0x9c,
  0xaa, 0x88, 0xbe, 0x5c, 0x56, 0xa7, 0x93, 0x8e, 0xa8, 0xba, 0xbc, 0x87,
  0x6e, 0xb5, 0x81, 0x99, 0xab, 0x7b, 0xc1, 0x79, 0x65, 0x98, 0x7b, 0x99,
  0x92, 0x9c, 0x92, 0x80, 0x5f, 0x8b, 0x94, 0x90, 0x6d, 0xaa, 0x8c, 0x9c,
  0x69, 0x86, 0x50, 0x83, 0x99, 0xbd, 0x99, 0xc2, 0x6b, 0x9e, 0x67, 0x7a,
  0x9f, 0xb8, 0x88, 0xcc, 0x52, 0x81, 0x69, 0x7a, 0x8e, 0x96, 0x82, 0xb5,
  0x66, 0x63, 0x84, 0x68, 0x9a, 0xaf, 0x9b, 0xdd, 0x80, 0x87, 0x75, 0x64,
  0x89, 0x82, 0x7e, 0xa1, 0x7e, 0x6e, 0x64, 0x96, 0x6f, 0x79, 0x91, 0x6c,
  0x86, 0x79, 0x95, 0xa7, 0x72, 0x59, 0x9d, 0x78, 0x8e, 0x8e, 0x88, 0x8b,
  0x97, 0x82, 0xc6, 0x99, 0x8c, 0x8a, 0x73, 0x99, 0x93, 0x84, 0x97, 0x8e,
  0x91, 0x99, 0x78, 0x87, 0x82, 0x98, 0xb2, 0xa5, 0x87, 0xa0, 0x90, 0x9a,
  0x94, 0x74, 0xaf, 0x83, 0x95, 0xa7, 0xa0, 0xba, 0x78, 0x7f, 0x89, 0x8a,
  0x9e, 0x7b, 0x94, 0x82, 0x7e, 0x64, 0x8a, 0x70, 0x91, 0x61, 0x8f, 0x7d,
  0xa7, 0x83, 0x9e, 0x92, 0x77, 0x8e, 0x90, 0xb6, 0xc6, 0x5d, 0xbd, 0x97,
  0x6e, 0x9f, 0x7a, 0x95, 0xc5, 0x81, 0xa5, 0x69, 0x62, 0xa9, 0x83, 0x87,
  0xa2, 0xcf, 0xc8, 0x7c, 0x84, 0x9b, 0x96, 0x97, 0x9b, 0xa0, 0xaf, 0x8b,
  0x60, 0x9e, 0x86, 0x98, 0xa4, 0x8f, 0x87, 0x94, 0x63, 0x8a, 0x96, 0x8a,
  0x89, 0x9b, 0x9a, 0x84, 0x8f, 0x5f, 0x7e, 0x81, 0x84, 0xd2, 0x7b, 0xbe,
  0x72, 0xab, 0x78, 0x7c, 0x8f, 0xc9, 0x78, 0xb0, 0x6e, 0x70, 0x7c, 0x6b,
  0x74, 0x99, 0x8d, 0xd2, 0x7f, 0x78, 0x65, 0x75, 0x78, 0x9a, 0x8e, 0xb4,
  0x93, 0x70, 0x68, 0x63, 0xa2, 0x9d, 0x77, 0xa0, 0x87, 0x7d, 0x71, 0x8b,
  0x78, 0x8f, 0x85, 0x6b, 0x71, 0x80, 0x89, 0xa5, 0x7a, 0x71, 0xaa, 0x7d,
  0x8f, 0x89, 0x71, 0x89, 0x8b, 0x77, 0xa1, 0x8f, 0x8d, 0x88, 0x9f, 0xa9,
  0x83, 0x90, 0xa0, 0xc8, 0x77, 0x95, 0x80, 0x8f, 0x97, 0x86, 0x95, 0x7e,
  0x84, 0xa3, 0x86, 0x9f, 0x82, 0x86, 0xa0, 0x92, 0xa1, 0x9f, 0x79, 0xa4,
  0x74, 0xa8, 0x91, 0x7f, 0x94, 0x79, 0x96, 0x86, 0x6f, 0x82, 0x85, 0x7c,
  0x88, 0x6f, 0x71, 0x60, 0x97, 0x93, 0x8c, 0x81, 0x74, 0x74, 0x6c, 0x9b,
  0xb7, 0x69, 0xa4, 0x91, 0x75, 0xa2, 0x9b, 0x88, 0xca, 0x91, 0x9c, 0x6e,
  0x7a, 0xb4, 0x89, 0x83, 0xa1, 0xb5, 0xba, 0x91, 0x92, 0x8f, 0xad, 0x89,
  0xa8, 0x92, 0xab, 0x89, 0x80, 0x94, 0x8a, 0x98, 0x8b, 0x76, 0xa0, 0x8e,
  0x42, 0x7f, 0x99, 0x9d, 0x89, 0x88, 0x7f, 0x84, 0x6d, 0x82, 0x73, 0x75,
  0x9b, 0xc1, 0x96, 0xb7, 0x80, 0xa6, 0x88, 0x84, 0x81, 0xb7, 0x84, 0xb2,
  0x74, 0x80, 0x66, 0x65, 0x70, 0x9a, 0x8c, 0xbc, 0x79, 0x82, 0x8b, 0x76,
  0x84, 0x8e, 0x62, 0xb7, 0x95, 0x6d, 0x5e, 0x60, 0xa7, 0xa1, 0x8a, 0xbb,
  0x8b, 0x87, 0x85, 0x91, 0x89, 0x8a, 0x97, 0x95, 0x80, 0x7e, 0x6b, 0x8a,
  0x7b, 0x68, 0x96, 0x7f, 0x8b, 0x9a, 0x9e, 0x84, 0x9e, 0x7a, 0x95, 0xac,
  0xa3, 0x90, 0x8a, 0xa5, 0x96, 0x70, 0x9f, 0x94, 0x8f, 0xa3, 0x70, 0x84,
  0x81, 0x98, 0x8b, 0x84, 0x91, 0xae, 0xb0, 0xac, 0x78, 0x9e, 0xa9, 0x82,
  0x95, 0x9c, 0xaf, 0x89, 0x88, 0x7d, 0x69, 0x8d, 0x95, 0x6f, 0x9d, 0x73,
  0x70, 0x9c, 0x62, 0x8c, 0x84, 0x68, 0x93, 0x61, 0xa3, 0x9d, 0xb0, 0x8d,
  0x75, 0x8e, 0x79, 0xbe, 0xc7, 0x88, 0xb2, 0xa1, 0x7a, 0x9f, 0x88, 0xa3,
  0xae, 0xa2, 0xae, 0x74, 0x56, 0xb8, 0x84, 0x9a, 0xb1, 0xa6, 0xd0, 0x80,
  0x65, 0xa2, 0x90, 0x90, 0xa3, 0x93, 0xbd, 0x7f, 0x46, 0x9e, 0x90, 0x9b,
  0x87, 0x81, 0x7b, 0x6f, 0x67, 0x8a, 0x6d, 0x9c, 0x91, 0x80, 0x77, 0x89,
  0x77, 0x8a, 0x8c, 0x76, 0x93, 0xa2, 0x83, 0xbb, 0x71, 0x9e, 0x9f, 0x91,
  0x98, 0xc0, 0x7e, 0xb9, 0x74, 0x67, 0x74, 0x73, 0x7b, 0x8a, 0x93, 0xba,
  0x7c, 0x8b, 0x83, 0x7a, 0x98, 0xa9, 0x8f, 0xb6, 0x9b, 0x6c, 0x94, 0x6e,
  0x79, 0xb7, 0x83, 0xaa, 0x72, 0x62, 0x85, 0x8b, 0x82, 0x6f, 0x7c, 0x80,
  0x7c, 0x4d, 0x80, 0x8a, 0x75, 0x6f, 0x8a, 0x6b, 0x9c, 0x8a, 0x9d, 0x89,
  0x76, 0xa3, 0x89, 0x8e, 0x8a, 0x8a, 0x78, 0xa1, 0x9c, 0x8e, 0xb0, 0xb5,
  0x88, 0x8f, 0x84, 0xa1, 0x8e, 0x85, 0x9f, 0x86, 0x8b, 0x70, 0x8d, 0x96,
  0x83, 0x79, 0x8d, 0x83, 0x99, 0xa0, 0xab, 0xbb, 0x79, 0x6c, 0x96, 0x9e,
  0xa8, 0x70, 0xa1, 0x89, 0x7e, 0x68, 0x74, 0x76, 0xa1, 0x66, 0x86, 0x6f,
  0x77, 0x7b, 0x95, 0x8d, 0x7f, 0x99, 0x69, 0x9a, 0xbe, 0x75, 0xb1, 0x90,
  0x79, 0x9a, 0x9e, 0xb9, 0xb9, 0x8c, 0xb9, 0x84, 0x4b, 0x88, 0xbd, 0x8f,
  0xb7, 0xb9, 0xc2, 0x73, 0x4a, 0x91, 0x92, 0x9f, 0xa4, 0x80, 0xc4, 0x97,
  0x58, 0x86, 0x70, 0x9c, 0x90, 0x71, 0xa3, 0x9b, 0x65, 0x8d, 0x61, 0xa0,
  0x8b, 0x92, 0x7e, 0x90, 0x7a, 0x7d, 0x9a, 0x79, 0x9a, 0xb6, 0x90, 0xb4,
  0x5f, 0x80, 0x88, 0x93, 0x87, 0xa9, 0x95, 0xbf, 0x5d, 0x7f, 0x80, 0x67,
  0x83, 0x87, 0x8b, 0xad, 0x72, 0x7d, 0x91, 0x71, 0x91, 0xb9, 0x81, 0xc3,
  0x92, 0x63, 0x78, 0x6d, 0xb3, 0x9d, 0x91, 0xa2, 0x74, 0x84, 0x9b, 0x98,
  0x83, 0x98, 0x77, 0x5d, 0x88, 0x8f, 0x8b, 0x81, 0x73, 0x84, 0x90, 0x7c,
  0x8a, 0x79, 0x6e, 0x8a, 0x75, 0x9c, 0x88, 0xa0, 0x85, 0x8b, 0x9a, 0x8f,
  0x7f, 0x93, 0x9c, 0x97, 0x83, 0x6f, 0x7d, 0x7c, 0x8f, 0x99, 0xa3, 0x81,
  0x8e, 0xbb, 0x8f, 0xa1, 0x6e, 0x67, 0x94, 0x86, 0x97, 0x97, 0x83, 0x91,
  0x64, 0x95, 0xab, 0x72, 0x91, 0x93, 0x88, 0x7d, 0x5f, 0x64, 0x91, 0x7e,
  0x92, 0x7c, 0x95, 0x6a, 0x78, 0x8d, 0xba, 0x85, 0x71, 0x9a, 0x81, 0x83,
  0x9e, 0x85, 0xb3, 0x9f, 0x76, 0xab, 0xa9, 0xab, 0xb0, 0x91, 0xc3, 0x77,
  0x4a, 0xa6, 0xc0, 0xa0, 0xab, 0x9d, 0xdc, 0x7f, 0x6a, 0xa3, 0x87, 0xa0,
  0x9e, 0x99, 0xbc, 0x80, 0x5c, 0x93, 0x9e, 0xa9, 0x62, 0x64, 0x98, 0x8c,
  0x4a, 0x84, 0x93, 0x99, 0x7c, 0x9f, 0x86, 0x89, 0x71, 0x6a, 0x83, 0xa7,
  0x6e, 0xc9, 0x9f, 0xce, 0x5e, 0x8a, 0xa8, 0xa5, 0x6f, 0xc1, 0xa1, 0xc9,
  0x5b, 0x6f, 0x9c, 0x92, 0x65, 0x80, 0x84, 0xa4, 0x74, 0x87, 0x72, 0x75,
  0x8c, 0x9c, 0xa8, 0xa0, 0x94, 0x6f, 0x7d, 0x76, 0x83, 0x90, 0x8e, 0xa5,
  0x7c, 0x6e, 0x8a, 0x94, 0x82, 0x8c, 0x6b, 0x6b, 0x75, 0x6d, 0x6b, 0x7d,
  0x76, 0x80, 0xa2, 0x69, 0x8b, 0x92, 0x6b, 0x90, 0x76, 0x7c, 0x78, 0x7b,
  0x85, 0x6e, 0x8f, 0x9a, 0x7e, 0x88, 0xab, 0x94, 0x70, 0x9a, 0x79, 0x97,
  0x76, 0x66, 0xa1, 0x7b, 0x8b, 0xa2, 0x9d, 0x8b, 0x79, 0x78, 0xa2, 0x8b,
  0xa7, 0x87, 0xb2, 0x89, 0x65, 0x6a, 0x98, 0x89, 0x7e, 0x89, 0xb3, 0x87,
  0x83, 0x93, 0x89, 0x7e, 0x76, 0x8e, 0x9f, 0x7f, 0x98, 0x91, 0x91, 0x99,
  0x62, 0x79, 0x85, 0xac, 0x59, 0x85, 0x81, 0x70, 0x76, 0x87, 0xb0, 0x9b,
  0x8b, 0x82, 0xae, 0x8f, 0x57, 0xa2, 0xa7, 0x91, 0x76, 0xb1, 0xaa, 0xab,
  0x64, 0x91, 0x94, 0x88, 0x81, 0x84, 0xaa, 0x99, 0x62, 0x74, 0x79, 0x85,
  0x7a, 0x5d, 0x63, 0x6d, 0x55, 0x94, 0xae, 0x9a, 0x5d, 0x72, 0x6d, 0x9f,
  0x78, 0x88, 0x77, 0x89, 0x79, 0xb6, 0x92, 0xaa, 0x60, 0x94, 0x92, 0x9d,
  0x7f, 0xbe, 0x7a, 0xca, 0x72, 0x94, 0x6b, 0x9a, 0x65, 0xa0, 0x87, 0xb0,
  0x6f, 0x72, 0x80, 0x93, 0x6b, 0xaa, 0x8f, 0xb9, 0x7e, 0x76, 0xa5, 0x9b,
  0x8b, 0x93, 0x95, 0xa1, 0x89, 0x8d, 0x7e, 0x85, 0x74, 0xa1, 0x71, 0x7c,
  0x7e, 0x84, 0x95, 0x8a, 0x79, 0x7e, 0x8f, 0x7d, 0x90, 0x8f, 0x7a, 0x86,
  0x78, 0x7c, 0xa7, 0x8d, 0x86, 0xa2, 0xb2, 0x87, 0x7d, 0x74, 0x7c, 0xa4,
  0x8d, 0xac, 0x95, 0x81, 0x74, 0x81, 0x9a, 0x83, 0x9c, 0xac, 0x6f, 0x72,
  0x75, 0x8b, 0x6a, 0x7d, 0x9f, 0x81, 0xa6, 0x99, 0x90, 0x79, 0x83, 0x77,
  0xa0, 0x91, 0x8e, 0x7c, 0x77, 0x97, 0x84, 0x70, 0x84, 0x5f, 0x6b, 0x7d,
  0xaa, 0x88, 0x93, 0xa5, 0x59, 0x96, 0x57, 0x92, 0x79, 0x6c, 0x8f, 0x87,
  0x5e, 0xb2, 0x8b, 0xaa, 0x8d, 0x7c, 0x8d, 0x9c, 0x7b, 0xad, 0x98, 0x80,
  0x81, 0x85, 0xac, 0x74, 0x69, 0x97, 0x71, 0x8c, 0x51, 0x5d, 0xb5, 0x67,
  0x99, 0x68, 0x97, 0x75, 0x7a, 0x7c, 0x79, 0x7f, 0x77, 0x79, 0x88, 0x96,
  0x7c, 0x8f, 0x7b, 0x7f, 0x7d, 0x8c, 0x97, 0x71, 0x5e, 0xa8, 0x81, 0x8e,
  0x63, 0x90, 0xa1, 0x7e, 0x75, 0x9b, 0x9f, 0xb0, 0x5b, 0x91, 0x81, 0x91,
  0x73, 0xaa, 0xa0, 0xb8, 0x85, 0x81, 0x83, 0x94, 0x6f, 0x90, 0x97, 0x93,
  0xb1, 0x88, 0x8c, 0x93, 0x99, 0x82, 0xa6, 0x8b, 0x7a, 0x8e, 0x83, 0xa0,
  0x5a, 0x86, 0x6c, 0x9c, 0x95, 0x9a, 0x9d, 0x6f, 0x7f, 0x97, 0x85, 0x80,
  0x93, 0xa2, 0x9a, 0xac, 0x7e, 0x68, 0x88, 0x81, 0x6f, 0xa0, 0x82, 0x82,
  0x93, 0x8e, 0x9b, 0x78, 0x82, 0x96, 0x9d, 0xac, 0x83, 0x68, 0x8d, 0x6e,
  0x8a, 0x8a, 0x85, 0x95, 0x74, 0x63, 0x80, 0x7a, 0x75, 0x91, 0x8c, 0x77,
  0x61, 0x75, 0x8a, 0x5f, 0x8f, 0x81, 0xa2, 0x6a, 0x57, 0x6a, 0x74, 0x5a,
  0x90, 0x84, 0x92, 0x5a, 0xa1, 0x74, 0x75, 0x71, 0x7a, 0x6d, 0x72, 0x57,
  0x80, 0x91, 0x5a, 0x6f, 0x8e, 0x69, 0x79, 0x77, 0x6d, 0x87, 0x7c, 0x8b,
  0xac, 0x43, 0x68, 0x8f, 0x9f, 0x75, 0x7a, 0xa4, 0x7b, 0xa7, 0x87, 0x79,
  0x86, 0x6f, 0x53, 0x99, 0x8c, 0x64, 0x58, 0x57, 0x9c, 0x8d, 0x8b, 0xad,
  0x80, 0x9c, 0x87, 0x7f, 0x74, 0x6c, 0xa7, 0x94, 0x96, 0x86, 0x78, 0x78,
  0x8e, 0x61, 0x95, 0x6d, 0x8c, 0x61, 0x95, 0x9b, 0x98, 0x90, 0x60, 0x73,
  0x83, 0x88, 0x9b, 0x6f, 0x59, 0x9c, 0x96, 0x8d, 0x83, 0x8d, 0x6b, 0x7e,
  0x80, 0x90, 0x90, 0x86, 0x8a, 0x9b, 0x9a, 0x88, 0x66, 0x69, 0x8e, 0x7f,
  0x95, 0xaa, 0xa8, 0x66, 0x8a, 0x89, 0x86, 0x88, 0xa7, 0x5f, 0x6d, 0x82,
  0x6d, 0x9c, 0x7b, 0x97, 0x9e, 0x8f, 0x8e, 0x7b, 0x7c, 0x6c, 0x6d, 0x94,
  0x8a, 0xb4, 0xb2, 0x7a, 0xa5, 0x7d, 0x9c, 0x7c, 0x8c, 0x94, 0x72, 0xa7,
  0xa5, 0x7d, 0x8b, 0x77, 0x91, 0x78, 0x92, 0x7f, 0x7a, 0x88, 0x78, 0x6c,
  0x7d, 0x6b, 0x6f, 0x78, 0x9c, 0x98, 0x93, 0x87, 0x74, 0x7c, 0x6d, 0x78,
  0x99, 0x97, 0x88, 0x7d, 0x8e, 0x79, 0x98, 0x86, 0x6d, 0x70, 0x5d, 0x57,
  0x7e, 0x72, 0x78, 0x96, 0x6d, 0x77, 0x63, 0x82, 0x8f, 0x74, 0x7e, 0x9f,
  0x6c, 0x8d, 0x76, 0x87, 0x86, 0x8f, 0x88, 0x96, 0x92, 0x7b, 0x92, 0x8a,
  0x86, 0x73, 0x9b, 0x91, 0x75, 0x6a, 0x73, 0x99, 0x72, 0x8d, 0x8c, 0x6c,
  0x6e, 0x71, 0x67, 0xa1, 0x6c, 0x78, 0x92, 0xaf, 0x92, 0xa9, 0x7b, 0x89,
  0x78, 0x8d, 0x63, 0x98, 0xa8, 0x79, 0x87, 0x81, 0x8c, 0x8e, 0x7b, 0x65,
  0x85, 0x70, 0x8e, 0x7f, 0x8b, 0x84, 0x88, 0xa3, 0x55, 0x7d, 0xa1, 0x86,
  0x77, 0x6d, 0x82, 0x84, 0x94, 0x81, 0x5b, 0x74, 0x92, 0x91, 0x90, 0x87,
  0x69, 0x74, 0x71, 0x94, 0x93, 0x95, 0x9e, 0x6f, 0x94, 0x7a, 0x8a, 0x7f,
  0xa4, 0x83, 0x70, 0x94, 0x9a, 0x8b, 0x8e, 0x8d, 0x99, 0x9e, 0x5e, 0x98,
  0x96, 0x89, 0x99, 0x87, 0x72, 0x89, 0x57, 0x8c, 0xa8, 0x8e, 0x7b, 0x90,
  0x97, 0x82, 0xa1, 0x6e, 0x84, 0xaf, 0x7a, 0x8c, 0x7d, 0x74, 0x75, 0x6c,
  0x7f, 0x98, 0x91, 0x76, 0x72, 0x64, 0x68, 0x76, 0xaf, 0x96, 0x68, 0x75,
  0x8b, 0x73, 0x9b, 0x72, 0x85, 0x7f, 0x76, 0x7f, 0x8b, 0x8b, 0x7b, 0x94,
  0x77, 0x8f, 0x65, 0x86, 0x76, 0x96, 0x8f, 0x9b, 0x89, 0x97, 0x87, 0x97,
  0x94, 0x5a, 0x8c, 0xb4, 0x96, 0x85, 0xa2, 0x78, 0x94, 0x71, 0x8d, 0x92,
  0x8b, 0xb1, 0x82, 0xa7, 0x8c, 0x91, 0x8a, 0x96, 0x82, 0x8f, 0x6c, 0x9c,
  0x7a, 0x87, 0x9c, 0x88, 0x80, 0x69, 0x6f, 0xa3, 0x7e, 0x74, 0x75, 0x93,
  0xa3, 0xab, 0x51, 0x81, 0x66, 0x5e, 0x67, 0x74, 0x6f, 0x70, 0x81, 0x72,
  0x8f, 0x70, 0x8b, 0x90, 0x8d, 0x68, 0xa6, 0x62, 0x95, 0x9f, 0x89, 0x91,
  0xa4, 0x69, 0x71, 0x68, 0x9e, 0xab, 0x81, 0x89, 0xb6, 0x73, 0x7c, 0x71,
  0xa1, 0xa0, 0x79, 0x81, 0x7e, 0x8d, 0x9b, 0x63, 0x7a, 0x91, 0xa6, 0x75,
  0x77, 0x7b, 0x8d, 0x66, 0xb4, 0xa8, 0x7e, 0x97, 0x62, 0x5a, 0x6d, 0x8a,
  0x92, 0x85, 0x6f, 0x71, 0xad, 0x8b, 0x55, 0x98, 0x8b, 0x93, 0x7a, 0x76,
  0x8b, 0x87, 0x8f, 0xb4, 0x90, 0x8e, 0x5b, 0x57, 0x90, 0x7f, 0x7d, 0xa9,
  0x89, 0x70, 0x8a, 0x5f, 0xa7, 0x9b, 0x6d, 0x98, 0x8f, 0x62, 0x84, 0x65,
  0x6e, 0x9a, 0x70, 0x82, 0xa1, 0x85, 0x8f, 0x80, 0x61, 0x8c, 0x83, 0x7a,
  0x94, 0x65, 0x63, 0x7e, 0x93, 0x97, 0x97, 0x8d, 0x6f, 0x9c, 0x88, 0xc1,
  0xaa, 0x8e, 0x9b, 0x7e, 0x78, 0x85, 0xa9, 0x9e, 0xaa, 0xa6, 0x65, 0x81,
  0x8a, 0x83, 0xa4, 0x8b, 0x5e, 0xac, 0x5d, 0xae, 0xa7, 0x68, 0x7a, 0x9a,
  0x69, 0xb3, 0x79, 0xc3, 0x79, 0x79, 0x70, 0xa7, 0x5c, 0xb5, 0x88, 0x98,
  0x82, 0x68, 0xb0, 0x84, 0x95, 0xac, 0x38, 0x7f, 0x9c, 0x7a, 0x92, 0x88,
  0x5e, 0x94, 0x8a, 0x75, 0x7a, 0x5e, 0x7a, 0x9b, 0xb0, 0x6c, 0x9e, 0x78,
  0x85, 0x91, 0x90, 0x89, 0x86, 0x72, 0xc6, 0x6a, 0x8f, 0xb1, 0xb0, 0x9a,
  0xa8, 0x6b, 0x99, 0x6a, 0x98, 0xb4, 0x80, 0x96, 0x98, 0x94, 0x81, 0x8d,
  0x7c, 0xa7, 0xb7, 0x9a, 0x94, 0x75, 0x77, 0x66, 0x67, 0xa4, 0x7b, 0x9a,
  0x5e, 0x97, 0x89, 0x8d, 0x6c, 0xa1, 0x8e, 0x6b, 0x86, 0x9e, 0x7e, 0xa5,
  0x8b, 0x86, 0xa1, 0x69, 0x5a, 0x99, 0x5a, 0x8c, 0x73, 0x76, 0x86, 0x6b,
  0xa6, 0x93, 0x91, 0x92, 0x8c, 0x6f, 0x77, 0x3c, 0x7d, 0x70, 0x57, 0xac,
  0xa7, 0x74, 0x56, 0x4a, 0x95, 0x7a, 0x6e, 0x7f, 0x7b, 0x8f, 0xaa, 0x79,
  0x6b, 0x8f, 0x63, 0x86, 0x5e, 0x80, 0x5c, 0x7c, 0x83, 0x80, 0x89, 0x60,
  0x61, 0x8f, 0xa3, 0xab, 0xa9, 0xa2, 0xcb, 0x8c, 0xa0, 0x70, 0xa9, 0xb1,
  0xb2, 0x89, 0x56, 0x91, 0x7f, 0x6b, 0x82, 0x92, 0x60, 0xb7, 0x49, 0xa2,
  0x61, 0x7e, 0x9f, 0x89, 0x5d, 0xd8, 0x5e, 0xb7, 0x6c, 0x77, 0x75, 0x7c,
  0x89, 0x7c, 0x67, 0xac, 0x6a, 0x90, 0x8a, 0x90, 0x45, 0x74, 0x4f, 0x75,
  0x82, 0x5a, 0x85, 0x8b, 0x79, 0x7d, 0x55, 0x74, 0x68, 0x5b, 0x60, 0xa3,
  0x84, 0x7b, 0x84, 0x4e, 0x93, 0x7c, 0x70, 0x9b, 0x94, 0x6a, 0xab, 0x4c,
  0x76, 0xb8, 0x89, 0xba, 0xbd, 0x69, 0xb3, 0x63, 0x94, 0xaa, 0x97, 0xaa,
  0xb2, 0x9a, 0xa4, 0x62, 0x81, 0xba, 0xad, 0x9d, 0x90, 0x97, 0x90, 0x5c,
  0x9f, 0xb1, 0x80, 0x7e, 0x81, 0x70, 0x76, 0x66, 0x8e, 0xa8, 0x90, 0x7e,
  0x7e, 0xa9, 0x79, 0x7f, 0x8f, 0x89, 0x98, 0x72, 0x6a, 0x7a, 0x5e, 0xa5,
  0x91, 0x80, 0x8b, 0x43, 0x7c, 0x81, 0x5b, 0x81, 0x9b, 0x63, 0x7f, 0x37,
  0x74, 0x78, 0x60, 0xc0, 0x6b, 0x9c, 0x80, 0x7b, 0x5b, 0x9a, 0x6f, 0x96,
  0x7e, 0x99, 0x8b, 0x99, 0x78, 0x80, 0x8d, 0x7d, 0x50, 0x8a, 0x8c, 0x7e,
  0x76, 0x85, 0x87, 0xb0, 0x63, 0x9b, 0xa8, 0xbf, 0xaf, 0x7e, 0xa1, 0x7f,
  0x8b, 0x79, 0x82, 0xa7, 0x8f, 0x97, 0x3d, 0xa6, 0x8c, 0x6c, 0x7c, 0x72,
  0x53, 0xa8, 0x4a, 0xb6, 0x7b, 0x69, 0x46, 0x7e, 0x68, 0xb8, 0x67, 0xae,
  0x82, 0x61, 0x4f, 0x7c, 0x6b, 0x97, 0x55, 0x99, 0x7b, 0x60, 0x8e, 0x97,
  0x5b, 0x87, 0x56, 0x86, 0x60, 0x43, 0x82, 0x8b, 0x69, 0x86, 0x64, 0x6e,
  0x74, 0x5c, 0x5f, 0x77, 0x77, 0x7a, 0x7b, 0x61, 0x79, 0xa5, 0x78, 0xb2,
  0xae, 0x85, 0x9b, 0x40, 0x70, 0xa6, 0x80, 0xaf, 0x8d, 0xb1, 0x9e, 0x50,
  0x92, 0xab, 0xa6, 0xae, 0x87, 0xa3, 0x78, 0x70, 0x69, 0xab, 0xa9, 0x9b,
  0x7f, 0x8c, 0x9d, 0x6a, 0x86, 0xac, 0xa7, 0x93, 0x7d, 0xac, 0x8c, 0x6a,
  0x97, 0x98, 0xa3, 0x88, 0x83, 0x87, 0x81, 0x9c, 0x7a, 0xb3, 0x71, 0x68,
  0x6a, 0xa4, 0x4b, 0xa8, 0x5d, 0x60, 0x89, 0x46, 0x64, 0xae, 0x53, 0x90,
  0x58, 0x7f, 0x4e, 0x43, 0x82, 0x84, 0x76, 0xc0, 0x6a, 0x88, 0x87, 0x5f,
  0x76, 0x97, 0x8c, 0x9e, 0x83, 0x9a, 0x9f, 0x8d, 0x6e, 0x7c, 0x6e, 0x8e,
  0x56, 0x89, 0x7f, 0x91, 0x7e, 0x75, 0xb3, 0x75, 0x58, 0x9f, 0x69, 0xb8,
  0xb2, 0x91, 0x85, 0x8a, 0x83, 0x7f, 0x8a, 0xa8, 0x5f, 0x7b, 0x5c, 0xb8,
  0x67, 0x62, 0x81, 0x6e, 0x4b, 0xb8, 0x32, 0xc2, 0x66, 0x25, 0x66, 0x88,
  0x57, 0xe7, 0x2d, 0xac, 0x90, 0x54, 0x49, 0x86, 0x5f, 0x8a, 0x47, 0xae,
  0x7a, 0x66, 0x6b, 0x88, 0x4d, 0x78, 0x52, 0x71, 0xa9, 0x4d, 0x91, 0x80,
  0x3b, 0x70, 0x48, 0x83, 0x7a, 0x55, 0x62, 0x75, 0x86, 0x7d, 0x6a, 0x57,
  0x8e, 0x8e, 0xa1, 0xb4, 0xaf, 0x8d, 0xb5, 0x40, 0x5e, 0xb7, 0x8d, 0xbd,
  0x98, 0x84, 0x84, 0x50, 0x86, 0xb9, 0xa9, 0x98, 0x86, 0x93, 0x81, 0x76,
  0x78, 0xa0, 0xa9, 0x8c, 0x9f, 0x91, 0xa9, 0x3e, 0x82, 0xc0, 0x91, 0x98,
  0x6e, 0x8f, 0x8f, 0x6f, 0x8b, 0xa0, 0x8d, 0x80, 0x7e, 0xa4, 0x87, 0x96,
  0x7c, 0x80, 0x7e, 0x55, 0x5f, 0x9e, 0x6e, 0xac, 0x77, 0x5b, 0x64, 0x48,
  0x6a, 0xb1, 0x44, 0x8d, 0x6e, 0x83, 0x79, 0x5e, 0x68, 0x82, 0x7e, 0xb0,
  0x60, 0x8b, 0x6a, 0x53, 0x72, 0x84, 0x70, 0x8e, 0x86, 0xa6, 0x92, 0x97,
  0x76, 0x5e, 0x74, 0x8f, 0x62, 0x74, 0x7e, 0x87, 0x81, 0x77, 0x81, 0x69,
  0x55, 0x88, 0x94, 0xb0, 0x81, 0x88, 0x88, 0x90, 0x6c, 0xa3, 0xb4, 0xa7,
  0x4e, 0xbb, 0x55, 0xa0, 0x8d, 0x46, 0x83, 0x5f, 0x23, 0xd9, 0x30, 0xc6,
  0x7a, 0x43, 0x66, 0x7e, 0x31, 0xb9, 0x71, 0xaa, 0x70, 0x7c, 0x67, 0xa7,
  0x53, 0xce, 0x63, 0xa9, 0x6e, 0x46, 0x87, 0x88, 0x54, 0x71, 0x47, 0x79,
  0x81, 0x67, 0x51, 0x7d, 0x5c, 0x7a, 0x59, 0x5d, 0x7e, 0x41, 0x6d, 0x94,
  0x78, 0x8d, 0x87, 0x46, 0x94, 0x94, 0x7e, 0xac, 0x9f, 0x93, 0x92, 0x3b,
  0x7d, 0xc1, 0x9c, 0xbf, 0x99, 0x7f, 0x86, 0x42, 0x95, 0xa5, 0xbe, 0xa1,
  0x90, 0x9d, 0x79, 0x50, 0x67, 0x9e, 0xa9, 0x7b, 0x7c, 0x98, 0x6b, 0x5e,
  0x93, 0xa6, 0xa6, 0x86, 0x76, 0xb3, 0x90, 0x64, 0x81, 0xb2, 0xa9, 0x9b,
  0x96, 0xb3, 0x56, 0x97, 0x72, 0x91, 0x88, 0x71, 0x75, 0xbb, 0x57, 0xa3,
  0x68, 0x7d, 0xa0, 0x57, 0x5f, 0xa4, 0x5f, 0x8a, 0x5d, 0x6e, 0x92, 0x91,
  0x72, 0xcb, 0x7b, 0x96, 0x65, 0x90, 0x7e, 0x80, 0x7d, 0x8e, 0x91, 0xa0,
  0x6a, 0xa3, 0xa0, 0x83, 0x53, 0x96, 0x4f, 0x91, 0x78, 0xab, 0x74, 0x78,
  0x82, 0x88, 0x81, 0x9a, 0x5f, 0xa1, 0x76, 0xc2, 0x9c, 0x8c, 0x7e, 0x80,
  0x8f, 0x8a, 0x6c, 0x8f, 0x5e, 0x6f, 0x3c, 0xaa, 0x90, 0x49, 0x86, 0x55,
  0x23, 0xa2, 0x33, 0xba, 0x71, 0x42, 0x7e, 0x88, 0x6d, 0xbb, 0x47, 0xbc,
  0x81, 0x7c, 0x4e, 0xad, 0x93, 0x9b, 0x50, 0x96, 0x86, 0x55, 0x6e, 0x9b,
  0x55, 0x78, 0x49, 0x9a, 0x96, 0x1f, 0x84, 0x6e, 0x41, 0x7d, 0x3e, 0x4e,
  0x90, 0x40, 0x5d, 0x7b, 0x85, 0x7e, 0x5e, 0x4b, 0x7c, 0xa4, 0x57, 0xab,
  0xad, 0x8b, 0x89, 0x58, 0x5b, 0xbe, 0x90, 0xa0, 0x8e, 0x9c, 0x69, 0x48,
  0x8f, 0xc4, 0x8c, 0xb3, 0x91, 0xa9, 0x7d, 0x6c, 0x8f, 0x97, 0x92, 0x88,
  0x7f, 0xb9, 0x9a, 0x46, 0x90, 0x9c, 0x94, 0x9e, 0x69, 0x97, 0x85, 0x52,
  0x86, 0xc6, 0x9f, 0x82, 0x6c, 0xb0, 0x65, 0x99, 0x6d, 0x80, 0xad, 0x5b,
  0x5d, 0xb1, 0x53, 0xa2, 0x68, 0x8b, 0x8b, 0x72, 0x64, 0xc0, 0x84, 0x8d,
  0x63, 0x80, 0x77, 0x67, 0x75, 0xb2, 0x77, 0x99, 0x61, 0x87, 0x85, 0x67,
  0x96, 0xb3, 0x63, 0x8c, 0x5a, 0x90, 0x96, 0x7a, 0x64, 0x95, 0x66, 0x87,
  0x6b, 0x89, 0x68, 0x90, 0x83, 0x7f, 0x8d, 0x86, 0x71, 0x8c, 0x7c, 0x99,
  0x7e, 0x87, 0x99, 0x77, 0x81, 0x99, 0x8d, 0x97, 0x59, 0x98, 0x57, 0x93,
  0xa1, 0x27, 0x7c, 0x56, 0x35, 0x9a, 0x23, 0xb5, 0x88, 0x4a, 0x49, 0x7a,
  0x40, 0xd3, 0x38, 0xa9, 0x79, 0x6f, 0x66, 0x8d, 0x6d, 0x98, 0x30, 0xab,
  0xa4, 0x4b, 0x91, 0x9b, 0x60, 0x9a, 0x40, 0x77, 0x75, 0x3a, 0x69, 0x80,
  0x50, 0x64, 0x20, 0x6b, 0x9d, 0x4e, 0x62, 0x6a, 0x7d, 0x53, 0x71, 0x53,
  0x93, 0x97, 0x72, 0x9f, 0xab, 0x91, 0x88, 0x3b, 0x62, 0xcc, 0xa0, 0xb0,
  0x9e, 0xa3, 0x7a, 0x2d, 0x96, 0xd9, 0xbe, 0xb4, 0x7d, 0x9b, 0x79, 0x55,
  0x99, 0xa0, 0x7a, 0x8c, 0x79, 0xa8, 0x8c, 0x45, 0x8f, 0xb3, 0x8c, 0x91,
  0x84, 0xa1, 0x7d, 0x7d, 0x6a, 0x97, 0x8f, 0x94, 0x7c, 0xa3, 0x64, 0x99,
  0x82, 0x7c, 0x86, 0x5f, 0x70, 0xb2, 0x8a, 0xa3, 0x5a, 0x9a, 0x6f, 0x6a,
  0x8c, 0x8f, 0x7e, 0x90, 0x5f, 0x87, 0xa5, 0x6b, 0x7e, 0xb8, 0x7d, 0x9b,
  0x75, 0x7b, 0x6f, 0x77, 0x78, 0x7b, 0x7c, 0x82, 0x42, 0x82, 0x8a, 0x97,
  0x66, 0x6b, 0x70, 0x89, 0x80, 0x80, 0x66, 0x94, 0x76, 0x89, 0x71, 0x92,
  0x71, 0x94, 0xa6, 0xbc, 0x89, 0x85, 0x80, 0x7e, 0x98, 0x7a, 0x7f, 0xa4,
  0x62, 0x84, 0x43, 0xaf, 0x95, 0x2e, 0x95, 0x6f, 0x26, 0xc2, 0x34, 0xac,
  0x89, 0x31, 0x46, 0xa4, 0x5b, 0xbd, 0x43, 0xb0, 0x7f, 0x49, 0x7c, 0x9c,
  0x59, 0xae, 0x50, 0xa0, 0x8a, 0x54, 0xa2, 0x8a, 0x5a, 0x96, 0x45, 0x7c,
  0x8a, 0x35, 0xa1, 0x83, 0x43, 0x73, 0x33, 0x76, 0x9d, 0x4f, 0x85, 0x8e,
  0x7e, 0x68, 0x7f, 0x45, 0x92, 0x85, 0x8d, 0x91, 0xa5, 0xc0, 0x8f, 0x4a,
  0x76, 0xaf, 0x96, 0xb5, 0x81, 0xa9, 0xa0, 0x40, 0x93, 0x95, 0xb5, 0x9a,
  0x81, 0xbd, 0x8a, 0x5f, 0x96, 0xc0, 0x7b, 0x9e, 0x77, 0xa5, 0xa2, 0x46,
  0x9c, 0xc2, 0x89, 0x9c, 0x8a, 0xab, 0x9a, 0x77, 0x88, 0x90, 0xad, 0x85,
  0x75, 0xbe, 0x6f, 0x9b, 0x78, 0x73, 0x65, 0x64, 0x63, 0xa7, 0x58, 0xa7,
  0x77, 0x77, 0x5c, 0x56, 0x5c, 0xc1, 0x75, 0x82, 0x71, 0x84, 0x58, 0x97,
  0x82, 0xb7, 0x9d, 0x97, 0x63, 0x71, 0xa8, 0x6a, 0x81, 0x95, 0x81, 0x97,
  0x59, 0xab, 0x53, 0x99, 0x66, 0xa3, 0x7e, 0x84, 0x71, 0x89, 0x95, 0x77,
  0x94, 0x77, 0x8e, 0x92, 0x67, 0x83, 0x57, 0xc6, 0x85, 0x6e, 0x85, 0x8d,
  0x93, 0x83, 0xa6, 0xb5, 0x65, 0x77, 0x59, 0xb2, 0xba, 0x2c, 0x8b, 0x6e,
  0x32, 0xc8, 0x11, 0xb8, 0x72, 0x40, 0x52, 0x9a, 0x50, 0xa8, 0x2b, 0xca,
  0x8d, 0x5f, 0x85, 0x9d, 0x7c, 0xd0, 0x52, 0xb4, 0xaa, 0x4e, 0xb3, 0x90,
  0x66, 0x87, 0x36, 0x85, 0x81, 0x50, 0x84, 0x8f, 0x26, 0x88, 0x3f, 0x4e,
  0x81, 0x59, 0x94, 0x85, 0x94, 0x59, 0x61, 0x51, 0x95, 0x83, 0x8e, 0x9a,
  0xa5, 0x93, 0x70, 0x4f, 0x98, 0xc3, 0x99, 0xaa, 0x87, 0x78, 0x6c, 0x56,
  0x90, 0xa9, 0xaf, 0x9d, 0x84, 0xc2, 0x76, 0x44, 0x88, 0xc6, 0x96, 0x97,
  0x78, 0xb6, 0x6e, 0x46, 0x93, 0xb6, 0x8e, 0x90, 0x90, 0x9d, 0x75, 0x5f,
  0x91, 0xa3, 0x91, 0x90, 0x76, 0xc0, 0x58, 0x94, 0x82, 0x6e, 0x6c, 0x71,
  0x72, 0xa5, 0x87, 0xa8, 0x7d, 0x75, 0x73, 0x72, 0x6b, 0xc2, 0x71, 0x80,
  0x88, 0x63, 0x85, 0x77, 0x71, 0xa5, 0x87, 0x8d, 0x6c, 0xa0, 0x8f, 0x77,
  0x6d, 0xa4, 0x84, 0x88, 0x69, 0x9b, 0x6d, 0x82, 0x50, 0x9e, 0x60, 0x83,
  0x73, 0x8c, 0x78, 0x70, 0xaf, 0x86, 0x8a, 0xa3, 0x65, 0x72, 0x81, 0xac,
  0x76, 0x9f, 0x66, 0x81, 0x86, 0x86, 0x83, 0xa3, 0x83, 0x8d, 0x3d, 0xa9,
  0xb2, 0x39, 0x8f, 0x79, 0x2e, 0xce, 0x06, 0xcf, 0xa9, 0x4a, 0x69, 0x8f,
  0x7b, 0xde, 0x3c, 0xc8, 0x9d, 0x5a, 0x59, 0xad, 0x7e, 0xae, 0x48, 0xb5,
  0x89, 0x58, 0x7b, 0x9f, 0x6e, 0xa9, 0x48, 0x80, 0x72, 0x51, 0x87, 0x79,
  0x42, 0x6b, 0x35, 0x62, 0x8c, 0x5f, 0x80, 0x83, 0x9f, 0x83, 0x69, 0x63,
  0x8e, 0x77, 0x64, 0x86, 0xb8, 0xa9, 0x98, 0x40, 0x87, 0xc0, 0xa1, 0xaf,
  0x9c, 0x86, 0x82, 0x5e, 0x81, 0xbe, 0xb6, 0x98, 0x99, 0xa8, 0x89, 0x45,
  0x96, 0xb1, 0x7b, 0x90, 0x88, 0xb9, 0x8d, 0x48, 0x8d, 0xab, 0x7e, 0x8a,
  0x72, 0xab, 0x93, 0x68, 0x84, 0xba, 0x7f, 0x7d, 0x6c, 0xb9, 0x63, 0x72,
  0x8f, 0x84, 0x82, 0x58, 0x5d, 0xb9, 0x7c, 0xa4, 0x6f, 0x7f, 0x8c, 0x73,
  0x80, 0xbb, 0x8f, 0x94, 0x74, 0x68, 0x69, 0x6d, 0x5d, 0xa7, 0x86, 0x93,
  0x6e, 0x7c, 0x82, 0x5c, 0x6c, 0x8c, 0x94, 0x98, 0x6f, 0x9b, 0x97, 0x81,
  0x76, 0x6c, 0x5c, 0x90, 0x73, 0x8e, 0x75, 0x7f, 0xa8, 0xa1, 0x6c, 0x84,
  0x6a, 0x9e, 0x58, 0xd1, 0x98, 0x91, 0x7e, 0x81, 0x98, 0x78, 0x89, 0xa0,
  0x63, 0x6f, 0x46, 0xcf, 0xa5, 0x45, 0x8b, 0x81, 0x4a, 0xb8, 0x0b, 0xcb,
  0x8b, 0x56, 0x84, 0x7c, 0x67, 0xb6, 0x31, 0xd0, 0x94, 0x8f, 0x60, 0xa2,
  0x7c, 0xcd, 0x4a, 0x9e, 0xab, 0x76, 0x8f, 0xa1, 0x68, 0x92, 0x3f, 0x89,
  0x8a, 0x60, 0x86, 0x61, 0x43, 0x5d, 0x46, 0x70, 0xa6, 0x55, 0x5e, 0x79,
  0x7f, 0x65, 0x89, 0x79, 0x9b, 0x86, 0x61, 0x8e, 0xad, 0x92, 0x8c, 0x5b,
  0x93, 0xba, 0xa0, 0xa1, 0xa6, 0x8c, 0x91, 0x4a, 0x98, 0xba, 0x94, 0x99,
  0x7e, 0x94, 0x81, 0x42, 0xa9, 0xd0, 0x7b, 0x8f, 0xa6, 0x93, 0x74, 0x59,
  0x84, 0x9a, 0x93, 0x84, 0x83, 0x98, 0x76, 0x4e, 0x9e, 0x94, 0x83, 0x6a,
  0x79, 0xa9, 0x6b, 0x7f, 0x95, 0x97, 0xa6, 0x65, 0x7e, 0x98, 0x74, 0xa4,
  0x7b, 0x80, 0x5c, 0x6d, 0x81, 0xa5, 0x8b, 0xa0, 0x7f, 0x78, 0x8a, 0x87,
  0x58, 0xb3, 0x8a, 0x87, 0x71, 0x8d, 0x6e, 0x8d, 0x50, 0x62, 0x72, 0x90,
  0x57, 0xa0, 0x91, 0x8d, 0x6e, 0x9e, 0x80, 0x75, 0x6a, 0x86, 0xa0, 0x90,
  0x6b, 0x80, 0x65, 0xa9, 0x8e, 0xaf, 0x99, 0xc7, 0x89, 0x80, 0x72, 0x6a,
  0x8e, 0x7f, 0x79, 0xa5, 0x6e, 0x97, 0x55, 0xba, 0x97, 0x37, 0x8b, 0x76,
  0x45, 0xb2, 0x02, 0xd3, 0xb8, 0x52, 0x58, 0x8f, 0x58, 0xc8, 0x3c, 0xc5,
  0x8a, 0x66, 0x78, 0x83, 0x8c, 0xa4, 0x56, 0xa7, 0x8a, 0x68, 0xa4, 0x9e,
  0x59, 0x9e, 0x41, 0x88, 0x95, 0x63, 0x78, 0x72, 0x47, 0x62, 0x52, 0x6c,
  0x7d, 0x5d, 0x87, 0x87, 0x91, 0x8a, 0x80, 0x5d, 0xab, 0x73, 0x86, 0x86,
  0xa9, 0x9f, 0x7d, 0x51, 0x73, 0xba, 0x9a, 0x9d, 0x97, 0x95, 0x8d, 0x75,
  0x91, 0xc4, 0xa1, 0xa0, 0xb4, 0xa7, 0x94, 0x4f, 0x84, 0xb7, 0x8c, 0x80,
  0x93, 0x9b, 0x68, 0x3c, 0x80, 0x93, 0x9a, 0x8a, 0x94, 0xa6, 0x78, 0x53,
  0x7f, 0x94, 0xaf, 0x84, 0x88, 0xb0, 0x71, 0xa6, 0x9e, 0x77, 0x90, 0x7a,
  0x82, 0xa2, 0x6e, 0x9f, 0x84, 0x6f, 0x87, 0x8d, 0x80, 0xc5, 0x81, 0xa4,
  0x71, 0x76, 0x83, 0x77, 0x61, 0xc5, 0x77, 0x95, 0x65, 0x7c, 0x81, 0x83,
  0x7d, 0x7d, 0x76, 0x8e, 0x5d, 0x96, 0x7d, 0x8d, 0x6d, 0x85, 0x6a, 0x8a,
  0x69, 0x93, 0x6f, 0x9c, 0x6f, 0x7b, 0x85, 0x9b, 0x86, 0x81, 0x8e, 0xa8,
  0x98, 0x8d, 0x83, 0x9f, 0x9c, 0x7a, 0x7f, 0xb1, 0x95, 0x85, 0x4c, 0xc7,
  0xad, 0x4f, 0x93, 0x87, 0x2f, 0xc9, 0x17, 0xc8, 0x9a, 0x49, 0x7d, 0x9e,
  0x4f, 0xe7, 0x4e, 0xda, 0x7a, 0x73, 0x74, 0x8a, 0x73, 0xca, 0x52, 0xbe,
  0xa5, 0x82, 0xa8, 0x7f, 0x5e, 0x8b, 0x3a, 0x88, 0xa6, 0x54, 0xb6, 0x71,
  0x47, 0x64, 0x38, 0x65, 0x91, 0x48, 0x5d, 0x73, 0x9e, 0x56, 0x7d, 0x3d,
  0x8d, 0x88, 0x6b, 0x94, 0xb1, 0x90, 0x80, 0x63, 0x78, 0xc6, 0x8d, 0x98,
  0xab, 0xaa, 0x81, 0x52, 0x8e, 0x93, 0x9d, 0x97, 0x6c, 0xc7, 0x95, 0x36,
  0x88, 0xbc, 0x9d, 0xa8, 0x97, 0x92, 0x52, 0x34, 0x95, 0x8d, 0xa0, 0x77,
  0xa5, 0x98, 0x6b, 0x5c, 0x81, 0xa2, 0x95, 0x8a, 0x91, 0xad, 0x78, 0x8f,
  0x90, 0x88, 0x95, 0x77, 0x6f, 0xbd, 0x74, 0x7d, 0x8b, 0x8a, 0x86, 0x88,
  0x99, 0xb2, 0x7a, 0x8d, 0x71, 0x70, 0x86, 0x7f, 0x6a, 0xb3, 0x81, 0x93,
  0x60, 0x6e, 0x78, 0x83, 0x64, 0x8c, 0x89, 0x9a, 0x67, 0x76, 0xa0, 0xa5,
  0x75, 0x72, 0x73, 0x91, 0x89, 0x91, 0x7a, 0x94, 0x84, 0x86, 0x7d, 0x66,
  0x6c, 0xa6, 0x87, 0xb9, 0x7f, 0x89, 0xa5, 0x75, 0x99, 0x80, 0x89, 0xa7,
  0x61, 0x94, 0x32, 0xbc, 0x97, 0x53, 0xb2, 0x7c, 0x2b, 0xc8, 0x25, 0xd8,
  0x98, 0x4d, 0x8a, 0x97, 0x50, 0xcc, 0x6c, 0xd2, 0xab, 0x70, 0x62, 0x90,
  0x83, 0xaf, 0x6a, 0xac, 0x99, 0x65, 0x87, 0x94, 0x6c, 0xa2, 0x54, 0x75,
  0xa4, 0x5b, 0x98, 0x62, 0x53, 0x80, 0x4f, 0x5a, 0x7c, 0x46, 0x54, 0x5d,
  0x77, 0x7c, 0x86, 0x4b, 0xab, 0x8a, 0x41, 0x82, 0xc4, 0x6c, 0xb4, 0x4d,
  0x70, 0xa7, 0x94, 0xa6, 0xbd, 0xa5, 0x90, 0x4d, 0x7e, 0xc4, 0xad, 0xb1,
  0x8e, 0x93, 0x8d, 0x64, 0x8c, 0xa7, 0x9a, 0x8f, 0xa1, 0x8d, 0x7e, 0x54,
  0x84, 0x9f, 0xa7, 0xa3, 0x97, 0x91, 0x63, 0x61, 0x6f, 0x91, 0xb2, 0x8f,
  0x93, 0xaa, 0x6a, 0x7b, 0x87, 0x8b, 0xa9, 0x5f, 0x8f, 0xa7, 0x8d, 0x9b,
  0x91, 0x81, 0x98, 0x72, 0x83, 0xb6, 0x61, 0x7d, 0x5f, 0x89, 0x82, 0x7a,
  0x71, 0x98, 0x5e, 0xa3, 0x70, 0x6e, 0x7c, 0x6d, 0x6c, 0x98, 0x7e, 0x90,
  0x5d, 0x9d, 0x93, 0x98, 0x97, 0x8a, 0x69, 0x85, 0x7b, 0x8c, 0x6e, 0xa4,
  0x6f, 0x7c, 0x80, 0x83, 0x58, 0xa5, 0x91, 0xc6, 0x75, 0x9f, 0x8a, 0x70,
  0xa2, 0x78, 0x78, 0xa2, 0x69, 0x97, 0x60, 0xbd, 0x90, 0x2c, 0x6b, 0x8c,
  0x29, 0xaa, 0x39, 0xdb, 0x76, 0x88, 0x4a, 0x9b, 0x49, 0xc6, 0x49, 0xca,
  0x78, 0x88, 0x7c, 0xa5, 0x7c, 0xe6, 0x5d, 0xc5, 0x98, 0x7c, 0x85, 0x96,
  0x58, 0x88, 0x20, 0x9b, 0x9a, 0x40, 0x9a, 0x58, 0x5c, 0x7a, 0x57, 0x61,
  0x8d, 0x64, 0x64, 0x65, 0x92, 0x5f, 0x7a, 0x64, 0x8f, 0x8a, 0x6f, 0x89,
  0xbb, 0x7c, 0x9b, 0x65, 0x66, 0xa5, 0x9b, 0x9f, 0xbe, 0x8e, 0x93, 0x74,
  0x81, 0xbe, 0xa7, 0xb5, 0x93, 0x93, 0x73, 0x50, 0x7f, 0xb4, 0x88, 0xa2,
  0x7d, 0x99, 0x75, 0x54, 0x89, 0xa5, 0xa3, 0xa4, 0xa2, 0x89, 0x70, 0x58,
  0x8a, 0x8d, 0x92, 0x82, 0x89, 0xa5, 0x94, 0x8e, 0x84, 0x87, 0x92, 0x59,
  0x7b, 0x9b, 0x6e, 0x9d, 0x8a, 0x81, 0x75, 0x8f, 0x85, 0xb4, 0x86, 0x94,
  0x69, 0x86, 0xa4, 0x6c, 0x7e, 0x9f, 0x88, 0x96, 0x65, 0x7e, 0x64, 0x80,
  0x7e, 0x69, 0x6f, 0x8f, 0x68, 0xab, 0x5e, 0x96, 0x71, 0x72, 0x8c, 0x8b,
  0x77, 0x80, 0x8b, 0x95, 0x8c, 0x73, 0x76, 0x83, 0x61, 0x8e, 0x87, 0xb6,
  0x8b, 0x79, 0x74, 0x86, 0xaa, 0x90, 0xa7, 0xa2, 0x7c, 0x8e, 0x6f, 0xd1,
  0x91, 0x31, 0x7b, 0x85, 0x4a, 0xd4, 0x20, 0xcf, 0x82, 0x53, 0x6f, 0x8f,
  0x46, 0xd8, 0x39, 0xd1, 0x88, 0x7d, 0x6f, 0xa6, 0x8c, 0xbf, 0x59, 0xc3,
  0x99, 0x7a, 0x88, 0x8e, 0x81, 0x97, 0x3b, 0x7d, 0xb7, 0x39, 0x81, 0x64,
  0x40, 0x77, 0x2f, 0x75, 0x90, 0x6d, 0x6f, 0x5e, 0x88, 0x60, 0x6b, 0x4c,
  0x87, 0x80, 0x75, 0x7a, 0xa3, 0x51, 0x94, 0x59, 0x86, 0xb4, 0x80, 0xa1,
  0x99, 0x84, 0x8c, 0x42, 0x79, 0xaf, 0xaf, 0xb6, 0xa3, 0xa5, 0x6b, 0x53,
  0x81, 0xcc, 0xae, 0xb9, 0x94, 0xa1, 0x78, 0x40, 0x7d, 0xb0, 0x81, 0x9f,
  0x93, 0x9e, 0x76, 0x6c, 0x8c, 0x98, 0xa3, 0x86, 0x80, 0x90, 0x6d, 0x90,
  0x8b, 0x82, 0x8f, 0x70, 0x86, 0xa7, 0x72, 0xb0, 0x78, 0x7f, 0x77, 0x69,
  0xa0, 0xa2, 0x74, 0x90, 0x60, 0x65, 0x72, 0x73, 0x87, 0xae, 0x6c, 0x96,
  0x6b, 0x68, 0x80, 0x84, 0x78, 0x7c, 0x68, 0x99, 0x5a, 0xa0, 0x85, 0x9d,
  0x6b, 0x85, 0x7a, 0x87, 0x7a, 0x90, 0x5e, 0x8e, 0x70, 0x74, 0x82, 0x85,
  0x4a, 0x98, 0x61, 0xae, 0x9f, 0x77, 0x7b, 0x63, 0x9d, 0x87, 0x9c, 0x86,
  0x8a, 0x94, 0x48, 0xe0, 0x90, 0x4f, 0x8b, 0x68, 0x3d, 0xc4, 0x09, 0xe8,
  0x77, 0x63, 0x7f, 0x92, 0x65, 0xbb, 0x45, 0xcb, 0x89, 0x6f, 0xa3, 0x99,
  0x6c, 0xcf, 0x6b, 0xd1, 0x7f, 0x66, 0xa8, 0x97, 0x77, 0x8c, 0x39, 0x92,
  0xa4, 0x59, 0x98, 0x57, 0x4d, 0x77, 0x55, 0x75, 0x98, 0x5d, 0x78, 0x76,
  0x6b, 0x35, 0x7b, 0x67, 0x99, 0x83, 0x5b, 0x94, 0xa8, 0x6b, 0x90, 0x6b,
  0x6f, 0xae, 0x6b, 0xbb, 0x8f, 0x81, 0x6e, 0x47, 0x78, 0xb1, 0xaa, 0xcb,
  0x99, 0x9a, 0xaa, 0x5b, 0x7c, 0xcc, 0xaa, 0xc8, 0xa5, 0xac, 0x7e, 0x56,
  0x80, 0xa7, 0x93, 0xb6, 0x96, 0x9e, 0x80, 0x59, 0x96, 0x8f, 0x6f, 0x62,
  0xa1, 0x8c, 0x76, 0x8a, 0x91, 0x90, 0x61, 0x6d, 0x79, 0xa7, 0x77, 0xa1,
  0x90, 0x98, 0x80, 0x79, 0x8e, 0xa7, 0x65, 0x93, 0x66, 0x9c, 0x83, 0x85,
  0x84, 0xb5, 0x57, 0xaa, 0x6d, 0x7e, 0x93, 0x78, 0x7f, 0x8b, 0x63, 0xa2,
  0x6e, 0x8b, 0x92, 0x89, 0x7f, 0xa0, 0x67, 0xa6, 0x72, 0x87, 0x73, 0x8c,
  0xa7, 0x7a, 0x6f, 0x97, 0x58, 0x7b, 0x94, 0xa5, 0x90, 0x62, 0x88, 0xaa,
  0x94, 0x79, 0x7f, 0xa8, 0x99, 0xaa, 0x6b, 0xca, 0x7c, 0x49, 0x8b, 0x9e,
  0x43, 0xc5, 0x17, 0xd4, 0x6c, 0x58, 0x7d, 0x6a, 0x65, 0xb5, 0x5f, 0xc7,
  0x7d, 0x8b, 0x6c, 0x99, 0x87, 0xd6, 0x77, 0xc1, 0x8f, 0x8b, 0x7e, 0xa8,
  0x64, 0x95, 0x41, 0x99, 0xa1, 0x51, 0xa1, 0x63, 0x38, 0x3d, 0x43, 0x7e,
  0x9f, 0x61, 0x6e, 0x55, 0x7d, 0x6b, 0x6a, 0x5b, 0xac, 0x5e, 0x57, 0x9e,
  0xab, 0x69, 0x94, 0x60, 0x7c, 0xae, 0x83, 0xad, 0x99, 0x58, 0x87, 0x3c,
  0x74, 0xb7, 0xa3, 0xaf, 0x8e, 0xa9, 0x6d, 0x58, 0x65, 0xb3, 0xb0, 0xcd,
  0xae, 0x7f, 0x89, 0x62, 0x7d, 0xac, 0xa9, 0xb3, 0x97, 0x8d, 0x67, 0x5f,
  0x9c, 0x9d, 0x85, 0x79, 0x7f, 0xb7, 0x5e, 0x7a, 0x7a, 0x78, 0x6d, 0x65,
  0x99, 0xb3, 0x5d, 0x97, 0x78, 0x8b, 0x95, 0x75, 0x96, 0x9c, 0x78, 0xa5,
  0x5e, 0x60, 0x62, 0x67, 0xa3, 0x9d, 0x61, 0x92, 0x60, 0x92, 0x76, 0x82,
  0x80, 0x79, 0x7d, 0xa5, 0x76, 0x88, 0x52, 0xa8, 0x8b, 0x7f, 0x73, 0x93,
  0x83, 0x75, 0x8b, 0x96, 0x71, 0x65, 0x86, 0x80, 0x55, 0xa2, 0x68, 0xae,
  0x97, 0x4b, 0x73, 0x75, 0xa1, 0x8e, 0x6c, 0xaf, 0x71, 0x8f, 0x5f, 0xdf,
  0x7d, 0x46, 0x8b, 0x8c, 0x50, 0xc1, 0x3c, 0xd9, 0x5e, 0x52, 0x78, 0x79,
  0x71, 0xbf, 0x46, 0xd8, 0x7c, 0x5f, 0x77, 0xaf, 0x76, 0xdb, 0x9b, 0xbb,
  0xa9, 0x7c, 0x74, 0x98, 0x6a, 0x93, 0x52, 0xb1, 0x9c, 0x62, 0xa2, 0x66,
  0x5b, 0x55, 0x64, 0x62, 0x89, 0x4b, 0x59, 0x4b, 0x64, 0x66, 0x7b, 0x65,
  0x79, 0x77, 0x66, 0x7a, 0xc7, 0x70, 0x8c, 0x50, 0x73, 0xad, 0x69, 0xb1,
  0x86, 0x94, 0x85, 0x60, 0x65, 0xc7, 0x8e, 0xd5, 0x91, 0x94, 0x67, 0x41,
  0x73, 0xd5, 0x9c, 0xb3, 0x8d, 0xaf, 0x77, 0x2d, 0x9d, 0xd3, 0x9f, 0xa9,
  0x94, 0xa4, 0x9b, 0x7a, 0x8d, 0x8e, 0x7f, 0x77, 0x7d, 0xab, 0x93, 0x7e,
  0x6b, 0x89, 0x86, 0x55, 0x8a, 0xab, 0x7f, 0xb0, 0x71, 0x6b, 0x78, 0x6b,
  0xb0, 0xb8, 0x77, 0xac, 0x66, 0x76, 0x64, 0x81, 0x8b, 0x98, 0x5f, 0x9b,
  0x5c, 0x57, 0x5f, 0x51, 0x8a, 0x8c, 0x8d, 0x8e, 0x5a, 0x89, 0x8e, 0x97,
  0x6e, 0x8e, 0x95, 0xa8, 0x7b, 0x8e, 0x93, 0x99, 0x79, 0x6b, 0x9c, 0x74,
  0x44, 0xae, 0x63, 0xc2, 0x76, 0x64, 0xa2, 0x5e, 0x8f, 0x9a, 0x8e, 0x8d,
  0x7b, 0x8f, 0x70, 0xd2, 0x82, 0x6b, 0x9c, 0x7c, 0x4d, 0xc1, 0x3a, 0xe3,
  0x5a, 0x5e, 0x77, 0x6b, 0x6a, 0xca, 0x5c, 0xc4, 0x8e, 0x74, 0x8f, 0xa1,
  0x5c, 0xbf, 0x7b, 0xc4, 0x79, 0xa1, 0x6a, 0x90, 0x52, 0xbd, 0x49, 0xb5,
  0xa7, 0x4b, 0x66, 0x63, 0x4f, 0x5d, 0x5b, 0x5f, 0x8f, 0x3e, 0x6a, 0x56,
  0x7f, 0x5c, 0x79, 0x4a, 0x82, 0x85, 0x76, 0x7d, 0xab, 0x76, 0x80, 0x6e,
  0x79, 0xc1, 0x55, 0x9a, 0x86, 0x87, 0x8d, 0x3f, 0x64, 0xb2, 0xa9, 0xcc,
  0x69, 0x94, 0x78, 0x5e, 0x59, 0xa5, 0x9d, 0xae, 0x9c, 0xa4, 0x8c, 0x80,
  0x97, 0xbd, 0x7c, 0xa1, 0x8a, 0xa5, 0xaa, 0x9f, 0x84, 0x8c, 0x79, 0x6d,
  0x7a, 0x9a, 0x6e, 0x9b, 0x83, 0x75, 0x72, 0x6c, 0x96, 0xa6, 0x83, 0x87,
  0x69, 0x76, 0x57, 0x80, 0x93, 0x8a, 0x9b, 0xb8, 0x6e, 0x7c, 0x7d, 0x69,
  0x91, 0x8e, 0x6e, 0xa4, 0x7b, 0x6e, 0x7e, 0x73, 0x94, 0x80, 0x80, 0xb5,
  0x59, 0x85, 0x8c, 0xa6, 0x8b, 0x67, 0x93, 0x96, 0x6c, 0x88, 0x69, 0xa2,
  0x72, 0x66, 0x6f, 0x87, 0x50, 0xad, 0x71, 0xaa, 0x4d, 0x60, 0xa0, 0x81,
  0x86, 0x8e, 0x85, 0x8c, 0x81, 0x82, 0x7b, 0xa6, 0x87, 0x7a, 0xa7, 0x6d,
  0x3c, 0xa6, 0x55, 0xeb, 0x62, 0x5e, 0x80, 0x52, 0x5b, 0xac, 0x72, 0xc4,
  0x8c, 0x93, 0x68, 0x6d, 0x86, 0x9d, 0x82, 0xc5, 0x83, 0x91, 0xa3, 0x91,
  0x5f, 0x91, 0x5a, 0x94, 0x9b, 0x6b, 0x8d, 0x6f, 0x7a, 0x65, 0x58, 0x58,
  0x95, 0x46, 0x76, 0x71, 0x7e, 0x66, 0x74, 0x6e, 0x85, 0x7b, 0x4c, 0x77,
  0xba, 0xae, 0x8c, 0x60, 0x66, 0xc0, 0x64, 0x8b, 0x6d, 0x94, 0x6e, 0x8a,
  0x54, 0xb1, 0x81, 0xa3, 0x6f, 0x86, 0x65, 0x80, 0x70, 0x8f, 0x86, 0x93,
  0x77, 0xa9, 0x7e, 0x7f, 0x72, 0xaa, 0x74, 0xa7, 0x93, 0x8c, 0x9a, 0x87,
  0x8e, 0x8a, 0x70, 0x7a, 0x85, 0xae, 0x96, 0x9d, 0x84, 0x85, 0x7e, 0x7c,
  0x91, 0xa0, 0x83, 0x8f, 0x8d, 0x6d, 0x94, 0x73, 0x97, 0x9d, 0xc1, 0xb6,
  0x70, 0x7d, 0x8d, 0x78, 0x87, 0xa5, 0x8b, 0x93, 0x69, 0x59, 0x8f, 0xa4,
  0x86, 0x9c, 0x87, 0xb5, 0x6e, 0x8d, 0x92, 0xa5, 0x7d, 0x64, 0x8e, 0x97,
  0x74, 0x87, 0x6e, 0xaf, 0x86, 0x5a, 0x70, 0x67, 0x62, 0x88, 0x74, 0x86,
  0x63, 0x5b, 0x7e, 0xa4, 0xaa, 0x91, 0x83, 0x7d, 0x99, 0x6a, 0x5c, 0x83,
  0xa1, 0x66, 0x7b, 0x6c, 0x73, 0xa1, 0x71, 0xba, 0x71, 0x5b, 0x6f, 0x51,
  0x5b, 0xba, 0x82, 0x8b, 0x7d, 0x62, 0x9a, 0x60, 0x7c, 0xb9, 0x7e, 0x93,
  0x97, 0x70, 0x7a, 0x5e, 0x6d, 0x90, 0x54, 0x9a, 0x9c, 0x95, 0x8a, 0x6c,
  0x5e, 0x6c, 0x55, 0x40, 0x97, 0x63, 0x78, 0x4a, 0x63, 0x54, 0x6b, 0x4f,
  0xb0, 0x7c, 0x5e, 0x75, 0xad, 0x69, 0xa4, 0x96, 0x6f, 0xb8, 0xa4, 0xa1,
  0x89, 0x83, 0x7a, 0x58, 0x60, 0x7e, 0x75, 0x68, 0x6e, 0x97, 0x71, 0x4f,
  0x7c, 0xa0, 0x72, 0x76, 0x71, 0xb8, 0x82, 0x9a, 0xa0, 0xa8, 0x81, 0x6e,
  0x98, 0x8a, 0x7a, 0xa1, 0x68, 0x72, 0xab, 0x88, 0x83, 0x9c, 0x90, 0xa8,
  0x9b, 0x7c, 0x60, 0x71, 0x90, 0x96, 0x8e, 0xaa, 0x62, 0x6d, 0x92, 0x92,
  0x87, 0xa4, 0xa7, 0x9b, 0x86, 0x7e, 0x90, 0xa8, 0x88, 0xab, 0xa4, 0xb0,
  0x7f, 0xa3, 0x7e, 0x92, 0x89, 0x87, 0x9c, 0xad, 0x7d, 0x96, 0x77, 0x9d,
  0x72, 0xb6, 0x83, 0x7f, 0x88, 0xbb, 0x97, 0xa4, 0x7b, 0x85, 0x9d, 0x7b,
  0x77, 0x92, 0x62, 0x8f, 0xa5, 0x69, 0xa6, 0x80, 0x91, 0x5d, 0xa8, 0x8a,
  0x7e, 0x80, 0x7a, 0x94, 0x98, 0x93, 0x97, 0x6f, 0x7e, 0x88, 0x83, 0xa2,
  0x7c, 0x8c, 0x78, 0x58, 0xa2, 0x72, 0xaa, 0x9a, 0x78, 0x80, 0x75, 0x86,
  0x94, 0x8d, 0x99, 0xab, 0x73, 0x81, 0x9c, 0x79, 0x8e, 0x65, 0x8a, 0x90,
  0x9d, 0xac, 0x7d, 0x93, 0x9e, 0x9e, 0x85, 0x6d, 0x8f, 0x9a, 0x63, 0x94,
  0x6d, 0x88, 0xa0, 0x79, 0x7d, 0x87, 0x85, 0x7f, 0x90, 0x87, 0x85, 0x89,
  0x9a, 0x98, 0x63, 0x93, 0x63, 0x72, 0x9f, 0x84, 0x81, 0x9a, 0x8f, 0x7b,
  0x82, 0x96, 0x62, 0x8a, 0x7b, 0x87, 0x72, 0x71, 0xb1, 0x69, 0x93, 0x93,
  0x9a, 0xb0, 0xaa, 0x75, 0x8b, 0x7d, 0x9e, 0x93, 0x86, 0x7b, 0x91, 0x52,
  0x93, 0x81, 0x52, 0x8c, 0x76, 0x81, 0x8d, 0x6a, 0xa6, 0x7c, 0x99, 0x77,
  0x7b, 0x9b, 0x88, 0x9b, 0x92, 0x6b, 0x59, 0x67, 0x7e, 0x8b, 0x8d, 0x86,
  0x6d, 0x53, 0x98, 0x72, 0x7b, 0x70, 0x9e, 0x7d, 0x8a, 0x7e, 0x70, 0x88,
  0x66, 0x7a, 0xae, 0xa4, 0x7e, 0x6d, 0x7b, 0x7c, 0x6f, 0x78, 0x59, 0x7d,
  0x6a, 0x76, 0x80, 0x84, 0x81, 0x5e, 0xab, 0x83, 0x76, 0x85, 0x75, 0x80,
  0x85, 0x6c, 0x87, 0x85, 0x80, 0x78, 0x88, 0x9a, 0x80, 0x96, 0x87, 0x8a,
  0x8c, 0x7d, 0x8e, 0x90, 0x85, 0x7e, 0x93, 0x7c, 0xa8, 0x90, 0xaf, 0xa7,
  0x69, 0x8a, 0x79, 0x6b, 0x90, 0x9d, 0xb3, 0xa9, 0x76, 0x7c, 0x75, 0x96,
  0x7a, 0x88, 0x74, 0x7d, 0x8b, 0x9a, 0xaf, 0x6d, 0x68, 0xa0, 0x8d, 0x8d,
  0x77, 0x98, 0x72, 0x94, 0x80, 0x6a, 0x8d, 0x99, 0x63, 0x8f, 0x80, 0x75,
  0x64, 0xa1, 0x83, 0x95, 0x78, 0x78, 0x63, 0x88, 0x72, 0x57, 0xb0, 0x84,
  0x7f, 0x99, 0x7b, 0x98, 0x99, 0x93, 0x88, 0xa1, 0x8e, 0x91, 0x6e, 0x7f,
  0x80, 0x7a, 0x8f, 0x97, 0x87, 0x81, 0x9e, 0x81, 0x95, 0x8a, 0x9c, 0x8e,
  0x78, 0x98, 0x90, 0x70, 0x7a, 0x90, 0x8e, 0x81, 0x69, 0x8a, 0x98, 0x6c,
  0x9c, 0x9e, 0x92, 0x81, 0x90, 0x83, 0x72, 0x6c, 0x94, 0x8f, 0x9b, 0x7b,
  0x5e, 0x70, 0x9b, 0x98, 0x86, 0x71, 0x77, 0x68, 0x6c, 0x6f, 0x9b, 0x85,
  0x8a, 0x7e, 0x9e, 0x72, 0x81, 0x78, 0x5d, 0x6d, 0xaf, 0x90, 0x82, 0x7d,
  0x6d, 0x8a, 0x7d, 0x93, 0x71, 0x90, 0x95, 0xa0, 0x7a, 0xa5, 0x64, 0x7e,
  0x72, 0x89, 0x89, 0x8f, 0x96, 0x7d, 0x83, 0x8f, 0x89, 0xa2, 0x8c, 0x85,
  0x65, 0x96, 0x5e, 0x6b, 0x86, 0x72, 0x88, 0xb0, 0x9a, 0xa3, 0x6e, 0x7b,
  0x7d, 0x7b, 0x9b, 0xae, 0x89, 0x8c, 0x9b, 0x76, 0x97, 0x6e, 0x75, 0xb0,
  0x85, 0x97, 0x8d, 0x7b, 0x6f, 0x89, 0xb2, 0x92, 0x80, 0xa9, 0x93, 0x87,
  0x9d, 0x70, 0xb7, 0x84, 0x78, 0xa7, 0x78, 0x88, 0x7f, 0x79, 0x78, 0x6c,
  0x66, 0xbc, 0xa5, 0x9b, 0xb0, 0x5d, 0x7c, 0x85, 0x59, 0xb9, 0x9d, 0x71,
  0x9f, 0x94, 0x84, 0x88, 0x7d, 0xa0, 0x68, 0x88, 0x93, 0x9b, 0x85, 0x87,
  0x9f, 0x9a, 0x8a, 0x65, 0x85, 0x6e, 0x60, 0x91, 0x70, 0x81, 0x77, 0x62,
  0x72, 0xa1, 0x73, 0x9e, 0x94, 0x84, 0x69, 0x5b, 0x83, 0x7b, 0x8a, 0x82,
  0x8e, 0x92, 0x74, 0x6c, 0x97, 0x6f, 0x80, 0x8a, 0x82, 0x9c, 0x85, 0x72,
  0xab, 0x7f, 0x6a, 0x88, 0x7f, 0x93, 0xaa, 0x6a, 0x82, 0x87, 0xa2, 0x7a,
  0x89, 0x93, 0x81, 0x82, 0x7e, 0x78, 0x9c, 0x7a, 0x60, 0x97, 0x5c, 0x70,
  0x73, 0x85, 0x85, 0x7a, 0x77, 0x64, 0x74, 0x74, 0x76, 0x96, 0x97, 0x73,
  0x93, 0xa9, 0x97, 0x73, 0x66, 0x92, 0x82, 0x88, 0x6d, 0xa2, 0x9b, 0x81,
  0xb4, 0x99, 0x78, 0x9c, 0x90, 0x8d, 0x8f, 0x76, 0x6e, 0x5a, 0xae, 0xb5,
  0x89, 0x95, 0x76, 0x77, 0x73, 0x76, 0x82, 0xd4, 0x97, 0x84, 0x8a, 0x74,
  0x90, 0x70, 0xc4, 0x9b, 0x86, 0x9c, 0x7a, 0x8c, 0xb6, 0x56, 0x9f, 0x9e,
  0x74, 0xae, 0x94, 0x7e, 0xc2, 0x8e, 0xde, 0x8d, 0x78, 0xb2, 0x7f, 0xa8,
  0xb6, 0x8e, 0x79, 0x96, 0x88, 0x96, 0x9b, 0x77, 0x8f, 0x7b, 0x96, 0x90,
  0x8c, 0xb1, 0x58, 0x73, 0x72, 0x89, 0x76, 0x84, 0x8c, 0x95, 0x6d, 0x58,
  0x9f, 0xa2, 0x5c, 0xac, 0x67, 0x77, 0x81, 0x67, 0x89, 0x68, 0x7a, 0xa1,
  0x7a, 0x6e, 0x73, 0x5c, 0x86, 0x8a, 0x70, 0xb2, 0x7c, 0x72, 0x77, 0x64,
  0x7a, 0x66, 0x71, 0x9a, 0x80, 0x76, 0x74, 0x5e, 0x74, 0x7f, 0x62, 0x75,
  0x86, 0x7f, 0x71, 0x76, 0x91, 0x92, 0x5d, 0x78, 0x7f, 0x94, 0x72, 0x51,
  0x7a, 0x6c, 0x87, 0x76, 0x94, 0x88, 0xa3, 0x5d, 0x8c, 0x64, 0x87, 0x7c,
  0xa3, 0x8e, 0x69, 0x6f, 0x7e, 0x7f, 0x6a, 0x81, 0x76, 0x80, 0x6d, 0x7f,
  0x9d, 0x7b, 0x7a, 0xa6, 0x86, 0x75, 0x96, 0x78, 0x8e, 0xbe, 0x4e, 0xa2,
  0x86, 0x70, 0x66, 0x8c, 0xbf, 0x8e, 0x95, 0xb5, 0x71, 0x68, 0x63, 0x9d,
  0x91, 0x68, 0x91, 0xa6, 0x79, 0x8e, 0x93, 0x8a, 0x71, 0x8c, 0x7e, 0xc9,
  0x7d, 0x7c, 0x70, 0x7b, 0xcd, 0x77, 0xbc, 0xb8, 0x56, 0xa3, 0x79, 0x91,
  0xc5, 0x58, 0xe3, 0x9a, 0x67, 0xa6, 0xc5, 0x86, 0xd5, 0x7d, 0xc9, 0x91,
  0x66, 0xc1, 0xbe, 0x9b, 0x90, 0x91, 0x8c, 0x7b, 0x56, 0x90, 0x94, 0x73,
  0x7d, 0xa7, 0x91, 0x98, 0x8f, 0x7c, 0x5e, 0x66, 0x81, 0x57, 0x7d, 0x8f,
  0x9e, 0x83, 0x7e, 0x6d, 0x66, 0x6f, 0x80, 0x8c, 0x4d, 0x64, 0x6e, 0x73,
  0x97, 0x80, 0x57, 0xa3, 0x61, 0x4c, 0x69, 0x4f, 0x85, 0x94, 0x83, 0xa9,
  0x6b, 0x4b, 0x92, 0x5a, 0x6e, 0xb3, 0x68, 0x91, 0x7a, 0x5d, 0x79, 0x72,
  0x7d, 0x7f, 0x61, 0x8a, 0x8f, 0x54, 0x72, 0x74, 0xa1, 0x8c, 0x74, 0x64,
  0x7c, 0x7e, 0x93, 0x70, 0x7b, 0x77, 0x7e, 0x8b, 0x87, 0x9f, 0x64, 0x72,
  0xa6, 0x6b, 0x92, 0x76, 0x81, 0x80, 0x93, 0x90, 0x8a, 0x7c, 0x8d, 0x77,
  0x6e, 0x83, 0x89, 0x70, 0x6c, 0x83, 0x8e, 0x70, 0x83, 0xb0, 0x61, 0x7e,
  0x8b, 0xab, 0x79, 0x97, 0x74, 0x60, 0x68, 0x6e, 0xc4, 0x88, 0x96, 0xbc,
  0x7c, 0x83, 0x75, 0x97, 0xae, 0x73, 0x95, 0xc6, 0x7a, 0x84, 0x8f, 0x89,
  0xd0, 0x74, 0x96, 0xbe, 0x74, 0x78, 0x80, 0x90, 0xa0, 0x77, 0xc9, 0xa1,
  0x6d, 0x9b, 0x9c, 0x9e, 0xcd, 0x62, 0xe4, 0xaa, 0x69, 0x97, 0xa8, 0x95,
  0xc4, 0x9e, 0xd3, 0x95, 0x55, 0xc8, 0xaa, 0x90, 0x86, 0x96, 0x92, 0xa3,
  0x55, 0xa3, 0x95, 0x89, 0x91, 0x9c, 0x73, 0x96, 0x57, 0x79, 0x62, 0x59,
  0x7e, 0x53, 0x78, 0x7c, 0x80, 0x5b, 0x6e, 0x79, 0x6b, 0x46, 0x6f, 0x99,
  0x71, 0x70, 0x60, 0x6c, 0x6c, 0x8b, 0x7f, 0xb9, 0x83, 0x35, 0x78, 0x6e,
  0x6d, 0x92, 0x60, 0xad, 0x80, 0x36, 0x8b, 0x75, 0x75, 0x7a, 0x50, 0xa3,
  0x79, 0x6d, 0x99, 0x72, 0x8c, 0x92, 0x77, 0x8a, 0x85, 0x63, 0x7d, 0x71,
  0x87, 0x8d, 0x7f, 0x7b, 0x5e, 0x6c, 0x50, 0x59, 0xa2, 0x68, 0x6b, 0x90,
  0x7c, 0x71, 0x78, 0x6d, 0xa3, 0xa2, 0xa4, 0x7c, 0xa1, 0x79, 0x69, 0x7e,
  0x7d, 0x83, 0x75, 0x8c, 0x7b, 0x77, 0x9e, 0x8e, 0x92, 0x7f, 0x94, 0x7c,
  0x6a, 0x98, 0x63, 0x5f, 0x92, 0xca, 0x8d, 0x7b, 0x72, 0x4d, 0xaa, 0x5d,
  0xa0, 0x7e, 0xb1, 0xc8, 0x5f, 0x81, 0x67, 0x95, 0xc0, 0x6a, 0x95, 0xd2,
  0x5b, 0x78, 0x99, 0x8e, 0xa2, 0x98, 0x90, 0xc6, 0x94, 0x5d, 0x67, 0x84,
  0x9d, 0x85, 0xd0, 0xb8, 0x5e, 0x7b, 0x93, 0x8f, 0xe6, 0x78, 0xda, 0x97,
  0x77, 0xa2, 0xaa, 0x91, 0xcc, 0x8b, 0xe1, 0xb0, 0x5f, 0xc1, 0xbf, 0xa9,
  0x84, 0x87, 0x81, 0x87, 0x73, 0x97, 0xb2, 0x8b, 0x8b, 0x7a, 0x72, 0x97,
  0x82, 0x6b, 0x85, 0x75, 0x67, 0x5e, 0x75, 0x80, 0x93, 0x7d, 0x90, 0x68,
  0x67, 0x4f, 0x5f, 0xa4, 0x7c, 0x57, 0x69, 0x7d, 0x8c, 0x91, 0x8b, 0xa0,
  0x60, 0x59, 0x63, 0x69, 0x82, 0x79, 0x7e, 0xc5, 0x74, 0x55, 0x7e, 0x62,
  0x6f, 0x97, 0x54, 0x92, 0x7d, 0x53, 0x80, 0x85, 0x7e, 0xac, 0x81, 0x83,
  0x8d, 0x5b, 0x6b, 0x89, 0x79, 0x94, 0x94, 0x68, 0x73, 0x68, 0x96, 0x86,
  0x8d, 0xa3, 0x87, 0x71, 0x5b, 0x6b, 0x71, 0x88, 0x9b, 0x7e, 0x82, 0x85,
  0x8e, 0x81, 0x72, 0x8b, 0x83, 0x9c, 0x74, 0x85, 0x6f, 0x5f, 0x9c, 0x84,
  0x81, 0x85, 0xa2, 0x8e, 0x67, 0x79, 0x74, 0x43, 0x81, 0xd5, 0x56, 0x96,
  0x5f, 0x52, 0x5d, 0x6c, 0xb0, 0x80, 0xac, 0xaf, 0x67, 0x8e, 0x8f, 0x8b,
  0xdf, 0x7d, 0xa5, 0xcd, 0x52, 0x86, 0x87, 0x8f, 0x95, 0x7a, 0xa1, 0xbc,
  0x86, 0x79, 0x9a, 0xa8, 0xaa, 0x86, 0xd7, 0xbd, 0x56, 0x8d, 0x89, 0xa3,
  0xd4, 0x70, 0xf1, 0x97, 0x77, 0xc3, 0x96, 0xac, 0xe4, 0x97, 0xe1, 0x9e,
  0x56, 0xc6, 0xcb, 0xa4, 0x93, 0x87, 0xae, 0x8b, 0x99, 0x99, 0xbf, 0x8e,
  0x73, 0x7a, 0xa0, 0x86, 0x80, 0x6b, 0x81, 0x6d, 0x67, 0x74, 0x6b, 0x86,
  0x9a, 0x63, 0x6c, 0x5c, 0x7e, 0x6a, 0x53, 0x83, 0x5f, 0x4a, 0x6f, 0x63,
  0x84, 0x74, 0x7c, 0xb9, 0x6d, 0x54, 0x6b, 0x77, 0x7b, 0x82, 0x73, 0xb3,
  0x96, 0x67, 0x7d, 0x85, 0x6d, 0x77, 0x72, 0x97, 0x8d, 0x65, 0x86, 0x87,
  0x9a, 0xab, 0x66, 0x83, 0x9e, 0x50, 0x88, 0x7b, 0x73, 0x92, 0x6d, 0x6b,
  0x72, 0x7f, 0x61, 0x8a, 0x85, 0xb4, 0x66, 0x6c, 0x75, 0x81, 0x94, 0x59,
  0x84, 0x73, 0x87, 0x89, 0x8a, 0x80, 0x80, 0x6c, 0x6a, 0x73, 0x52, 0x8b,
  0x96, 0x8c, 0x7f, 0x69, 0xa3, 0x97, 0x85, 0x73, 0x7a, 0x9c, 0x85, 0x63,
  0x81, 0xcc, 0x6a, 0xac, 0x73, 0x58, 0x85, 0x43, 0xca, 0x75, 0x94, 0xac,
  0x49, 0x98, 0x63, 0xa4, 0xd3, 0x50, 0x98, 0xc2, 0x45, 0x84, 0xb3, 0x9f,
  0xcb, 0x94, 0x8b, 0xbe, 0x7c, 0x86, 0x7b, 0xa4, 0xc5, 0x8f, 0xd9, 0x9d,
  0x56, 0x9e, 0x7f, 0xa9, 0xd2, 0x6f, 0xd1, 0xc4, 0x84, 0x88, 0xa2, 0x97,
  0xcc, 0x88, 0xac, 0x94, 0x69, 0xba, 0xc7, 0xad, 0xa1, 0x7a, 0x8b, 0x8c,
  0x8b, 0xad, 0xa6, 0x91, 0x82, 0x5d, 0x76, 0x9d, 0x79, 0x70, 0x9d, 0x69,
  0x78, 0x6b, 0x80, 0x7a, 0x7b, 0x8f, 0x7f, 0x92, 0x9d, 0x5b, 0x9e, 0x99,
  0x80, 0x66, 0x6d, 0x68, 0x7f, 0x80, 0x80, 0xa5, 0x6e, 0x51, 0x6a, 0x60,
  0x6f, 0x6d, 0x58, 0x99, 0x8d, 0x63, 0x86, 0x75, 0x80, 0x8e, 0x73, 0x9f,
  0x81, 0x69, 0x82, 0x75, 0x79, 0xa1, 0x68, 0x7b, 0x97, 0x5e, 0x77, 0x88,
  0xa1, 0x99, 0x70, 0x74, 0x87, 0x79, 0x8e, 0x5b, 0x7e, 0xa1, 0x80, 0x71,
  0x7f, 0x71, 0x98, 0x6a, 0xae, 0x7b, 0x65, 0x75, 0x92, 0x6e, 0x58, 0x63,
  0x81, 0x7e, 0x5f, 0x7f, 0x6e, 0x72, 0x66, 0x81, 0x64, 0x91, 0x5d, 0x86,
  0x82, 0x73, 0x6c, 0x33, 0x54, 0xcf, 0x83, 0x7b, 0x65, 0x56, 0x89, 0x5c,
  0xb0, 0x60, 0xbf, 0xa0, 0x5c, 0x96, 0x78, 0x8f, 0xed, 0x51, 0xa1, 0xb0,
  0x4d, 0x97, 0x9b, 0x88, 0xac, 0x96, 0x77, 0x9b, 0x7c, 0x82, 0x98, 0x8c,
  0x94, 0x82, 0xbf, 0xb5, 0x64, 0x90, 0x8b, 0xa6, 0xb7, 0x9b, 0xc6, 0x9e,
  0x72, 0xb8, 0x9d, 0xa3, 0xca, 0x8c, 0xbb, 0xa7, 0x79, 0xc2, 0xbf, 0xa8,
  0xb0, 0x81, 0xac, 0x8c, 0xa7, 0xa3, 0xc2, 0x92, 0x78, 0x73, 0x80, 0x7a,
  0x79, 0x6f, 0x8a, 0x6f, 0x7e, 0x56, 0x84, 0x71, 0x96, 0x98, 0x79, 0x7e,
  0x7e, 0x71, 0x7e, 0x89, 0x80, 0x62, 0x4a, 0x79, 0x5d, 0x6e, 0x7a, 0xa7,
  0x77, 0x4a, 0x6b, 0x67, 0x98, 0x6b, 0x67, 0xc7, 0x75, 0x45, 0x67, 0xa1,
  0x84, 0x8c, 0x72, 0xae, 0x8e, 0x57, 0x84, 0x87, 0x9a, 0x98, 0x88, 0x75,
  0x8e, 0x6a, 0x6f, 0x88, 0x91, 0x62, 0x64, 0x7b, 0x87, 0x9f, 0x85, 0x74,
  0x71, 0x79, 0x8c, 0x7c, 0x9c, 0x5e, 0xa8, 0x6c, 0x9f, 0x88, 0x68, 0x74,
  0x7d, 0x5c, 0x7a, 0x86, 0x79, 0x9e, 0x76, 0x78, 0x83, 0x69, 0x5f, 0x86,
  0x9e, 0x99, 0xad, 0x88, 0x80, 0x83, 0x7f, 0x73, 0x53, 0xbf, 0x5d, 0x91,
  0x7b, 0x50, 0x7c, 0x6f, 0xcc, 0x5e, 0x87, 0xb4, 0x47, 0x9a, 0x60, 0xa1,
  0xc1, 0x60, 0xac, 0x93, 0x51, 0x7b, 0xa0, 0xaf, 0xba, 0x7f, 0x81, 0x9f,
  0x7d, 0x6c, 0x9d, 0x91, 0xa9, 0x71, 0xbf, 0xad, 0x53, 0x96, 0x7d, 0x8f,
  0xb6, 0x7f, 0xbb, 0xa0, 0x91, 0xb9, 0xab, 0xae, 0xd9, 0xa9, 0xc8, 0x9c,
  0x86, 0xc4, 0xc9, 0xc2, 0xa0, 0x8a, 0xb6, 0x70, 0x90, 0x9a, 0xa6, 0x99,
  0x78, 0x75, 0x9f, 0x88, 0x8c, 0x58, 0x7a, 0x7b, 0x66, 0x70, 0x91, 0x80,
  0x9e, 0x56, 0x98, 0x74, 0x62, 0x80, 0x97, 0x90, 0x79, 0x6d, 0x74, 0x82,
  0x7b, 0x5a, 0x86, 0xb8, 0x8e, 0x4a, 0x54, 0x7c, 0x74, 0x74, 0x74, 0xd3,
  0x8f, 0x4a, 0x58, 0x85, 0x66, 0x90, 0x4a, 0xa0, 0x83, 0x64, 0x93, 0xa6,
  0x74, 0x85, 0x59, 0x83, 0x8f, 0x5c, 0xa1, 0x7a, 0x78, 0x93, 0x6b, 0x88,
  0x82, 0x6b, 0x72, 0x80, 0x85, 0x7d, 0x7e, 0x7a, 0x8d, 0x6e, 0x98, 0x57,
  0x98, 0xa9, 0x71, 0x8d, 0x8f, 0x87, 0x69, 0x81, 0x7c, 0x82, 0x7e, 0x79,
  0x7d, 0x60, 0x7b, 0x58, 0x9f, 0x8c, 0xad, 0xa1, 0x68, 0x76, 0x7c, 0x4c,
  0x5d, 0x9e, 0x8a, 0xbe, 0x6c, 0x60, 0x70, 0x77, 0xbf, 0x53, 0xa3, 0xb1,
  0x5d, 0x93, 0x5f, 0x94, 0xe3, 0x65, 0xb6, 0xa3, 0x46, 0x70, 0x85, 0x8e,
  0xb8, 0x78, 0xaa, 0xb4, 0x74, 0x88, 0x97, 0x98, 0xa8, 0x95, 0xad, 0xbb,
  0x80, 0xa1, 0x9e, 0x8b, 0xc7, 0x83, 0xc2, 0xb3, 0x78, 0xbd, 0x9b, 0xb6,
  0xbb, 0x8e, 0xbc, 0x7b, 0x7d, 0xc5, 0xba, 0xbb, 0xa5, 0xaa, 0x94, 0x87,
  0x8e, 0x9c, 0xbf, 0x9e, 0x74, 0x66, 0x7f, 0x91, 0xae, 0x72, 0xb1, 0x6f,
  0x57, 0x3e, 0x5d, 0x82, 0x99, 0x61, 0x5b, 0x7c, 0x58, 0x6b, 0x8d, 0x89,
  0x85, 0x5d, 0x6e, 0x90, 0x72, 0x73, 0x86, 0xb7, 0x84, 0x4f, 0x5a, 0x75,
  0x84, 0x6d, 0x6a, 0xaf, 0x86, 0x4f, 0x84, 0x98, 0x74, 0x8e, 0x55, 0xa4,
  0x89, 0x5b, 0x82, 0xa8, 0x7f, 0x87, 0x6c, 0x7d, 0x8c, 0x61, 0x67, 0xa0,
  0x7c, 0x8e, 0x7e, 0x93, 0x9a, 0x75, 0x7d, 0x82, 0x7b, 0x90, 0x7b, 0x85,
  0x82, 0x83, 0x76, 0x64, 0x8a, 0x6f, 0x95, 0x74, 0xab, 0x84, 0x56, 0x66,
  0x69, 0x7b, 0x6d, 0x7b, 0x7b, 0x6e, 0x64, 0x60, 0x92, 0x97, 0x82, 0x7e,
  0x73, 0x68, 0x7b, 0x50, 0x78, 0xbf, 0x56, 0xad, 0x64, 0x42, 0x76, 0x5d,
  0xc6, 0x65, 0xa0, 0xac, 0x3d, 0x8c, 0x60, 0xab, 0xe5, 0x64, 0xac, 0xa2,
  0x4e, 0x77, 0x86, 0x92, 0xc3, 0x8e, 0x8a, 0xa0, 0x7f, 0x8f, 0x88, 0x9a,
  0xb9, 0x81, 0xbe, 0xb8, 0x62, 0x9e, 0x6f, 0x9c, 0xd0, 0x8d, 0xe8, 0xac,
  0x75, 0xa5, 0xa2, 0xad, 0xc0, 0x9c, 0xb8, 0x86, 0x85, 0xb5, 0xb6, 0xb9,
  0xc0, 0x8e, 0xa3, 0x9a, 0x89, 0xa6, 0xc2, 0x9f, 0x80, 0x65, 0x88, 0x89,
  0xa3, 0x7c, 0x85, 0x7e, 0x7d, 0x38, 0x83, 0x74, 0x8b, 0x6a, 0x59, 0x79,
  0x6f, 0x4d, 0x8f, 0xa6, 0x80, 0x55, 0x78, 0x51, 0x81, 0x5e, 0x7a, 0x98,
  0x81, 0x4d, 0x5d, 0x6c, 0x78, 0x82, 0x54, 0xb8, 0x84, 0x3b, 0x46, 0x81,
  0x70, 0x7c, 0x6e, 0x8f, 0x8e, 0x51, 0x7f, 0x82, 0x77, 0x80, 0x59, 0x86,
  0x79, 0x73, 0x8b, 0x6c, 0x7a, 0x88, 0x84, 0xa3, 0x8e, 0x7c, 0x80, 0x6d,
  0x9b, 0x90, 0x90, 0x8b, 0x8d, 0x65, 0x8e, 0x50, 0x9d, 0x6c, 0x88, 0x86,
  0xa9, 0x82, 0x6b, 0x65, 0x87, 0x93, 0x66, 0x7b, 0x86, 0x78, 0x70, 0x6b,
  0x95, 0xb4, 0x8e, 0x96, 0x70, 0x78, 0x5c, 0x4b, 0x67, 0xc0, 0x6d, 0x7c,
  0x61, 0x47, 0x98, 0x55, 0x8b, 0x48, 0x99, 0xc9, 0x34, 0x98, 0x7b, 0xb9,
  0xdf, 0x66, 0xb0, 0xa5, 0x26, 0x84, 0x98, 0x81, 0xaf, 0x86, 0xa8, 0xb7,
  0x74, 0xa3, 0x9f, 0x97, 0xae, 0x96, 0xa8, 0xb0, 0x87, 0x9c, 0x7c, 0xb7,
  0xb0, 0x77, 0xd0, 0xae, 0x70, 0xbe, 0x9d, 0x9d, 0xab, 0x78, 0xc5, 0x8c,
  0x96, 0xc3, 0x9b, 0xbf, 0x9d, 0x91, 0xb9, 0x9b, 0x85, 0xb3, 0xb0, 0xba,
  0x6b, 0x68, 0x87, 0x97, 0x96, 0x6f, 0xae, 0x8a, 0x82, 0x47, 0x7e, 0x65,
  0x9f, 0x77, 0x6a, 0x72, 0x61, 0x40, 0x84, 0x8c, 0xa9, 0x64, 0x57, 0x70,
  0x81, 0x46, 0x91, 0xd5, 0x7e, 0x3b, 0x66, 0x62, 0x5d, 0x69, 0x5c, 0xac,
  0x8a, 0x4d, 0x89, 0x6f, 0x69, 0x65, 0x6c, 0x95, 0x87, 0x66, 0x85, 0x92,
  0x7c, 0x60, 0x84, 0x74, 0x81, 0x6d, 0x8c, 0x7d, 0x7d, 0x7b, 0x90, 0x97,
  0x97, 0x7d, 0x7c, 0x70, 0x77, 0x9c, 0x88, 0x79, 0x96, 0x72, 0x92, 0x71,
  0xaa, 0x72, 0x77, 0x79, 0x9a, 0x83, 0x5c, 0x78, 0x86, 0x71, 0x86, 0x5c,
  0x7d, 0x6e, 0x73, 0x73, 0x58, 0x98, 0x6a, 0x62, 0x86, 0xa4, 0x89, 0x6d,
  0x7f, 0xb3, 0x47, 0x86, 0x50, 0x59, 0x87, 0x6d, 0xa1, 0x6a, 0xaa, 0xa6,
  0x4b, 0x9d, 0x6f, 0xaa, 0xf0, 0x5b, 0xac, 0xb3, 0x42, 0x93, 0x8e, 0x8c,
  0xae, 0x6b, 0x87, 0xae, 0x68, 0x88, 0x79, 0x7f, 0x9d, 0x5b, 0xc4, 0xa7,
  0x56, 0xa6, 0x87, 0x9d, 0xba, 0x89, 0xc6, 0xa9, 0x80, 0xba, 0xa5, 0xb8,
  0xc5, 0x6f, 0xe1, 0x82, 0x6a, 0xd3, 0xa2, 0xcb, 0x9f, 0x7b, 0xae, 0x9e,
  0x83, 0x9e, 0xa3, 0xb2, 0x83, 0x6b, 0x7b, 0x93, 0x84, 0x78, 0xac, 0x7e,
  0x5d, 0x5d, 0x70, 0x89, 0x9b, 0x70, 0x68, 0x83, 0x7e, 0x54, 0x93, 0x91,
  0x81, 0x54, 0x61, 0x76, 0x88, 0x6a, 0x98, 0xb6, 0x86, 0x3d, 0x58, 0x58,
  0x6e, 0x69, 0x74, 0xa3, 0x75, 0x44, 0x82, 0x87, 0x7a, 0x69, 0x81, 0xbe,
  0x87, 0x5f, 0x93, 0xac, 0x86, 0x60, 0x7a, 0x82, 0x88, 0x4e, 0x71, 0xab,
  0x78, 0x82, 0x76, 0x96, 0x91, 0x5c, 0x77, 0x6c, 0x82, 0x9b, 0x68, 0x88,
  0x97, 0x8b, 0x98, 0x79, 0xa7, 0x56, 0x84, 0x85, 0xa3, 0x8a, 0x76, 0x77,
  0x82, 0x7c, 0x71, 0x79, 0x7f, 0x83, 0x63, 0x82, 0x89, 0x96, 0x81, 0x87,
  0x82, 0x7b, 0x9e, 0x4f, 0x6a, 0xad, 0x67, 0x91, 0x5e, 0x40, 0x87, 0x63,
  0xa3, 0x4f, 0x9a, 0xb0, 0x57, 0x9c, 0x67, 0xae, 0xd1, 0x6e, 0xa8, 0xa3,
  0x3e, 0x71, 0x8a, 0x94, 0x9e, 0x7a, 0x8d, 0xb3, 0x70, 0x77, 0x97, 0x7a,
  0x91, 0x8f, 0x9a, 0xa8, 0x7a, 0x99, 0x58, 0x90, 0xc2, 0x7e, 0xdf, 0x9f,
  0x89, 0x9e, 0xae, 0xad, 0xbb, 0x66, 0xb7, 0x83, 0x81, 0xc0, 0x84, 0xc2,
  0xa6, 0x89, 0xaa, 0x70, 0x89, 0x9b, 0xbb, 0xbc, 0x7d, 0x56, 0x82, 0x9f,
  0x91, 0x98, 0xa9, 0x7f, 0x7f, 0x63, 0x67, 0x63, 0x8f, 0x35, 0x6d, 0x68,
  0x50, 0x5c, 0x9e, 0x76, 0x89, 0x52, 0x8e, 0x62, 0x8b, 0x5f, 0x6d, 0xa4,
  0x9e, 0x38, 0x52, 0x77, 0x84, 0x65, 0x45, 0xba, 0x73, 0x44, 0x55, 0x9a,
  0x82, 0x73, 0x78, 0x9a, 0x87, 0x79, 0x88, 0xa2, 0x62, 0x7a, 0x82, 0x59,
  0x8f, 0x65, 0x75, 0x77, 0x85, 0x6c, 0x78, 0x8a, 0x86, 0x72, 0x7f, 0x62,
  0x89, 0x97, 0x7d, 0x78, 0x8c, 0x8f, 0x6c, 0x6a, 0xba, 0x9b, 0x8a, 0x7e,
  0xa0, 0x4d, 0x84, 0x7b, 0x8a, 0x80, 0x78, 0x7a, 0x95, 0x77, 0x6d, 0x6c,
  0x92, 0x99, 0x8b, 0x66, 0x6f, 0x7f, 0x6e, 0x5f, 0x5f, 0xb9, 0x6f, 0xb4,
  0x4f, 0x41, 0x4f, 0x4e, 0x8a, 0x79, 0x8c, 0xb0, 0x33, 0x9b, 0x59, 0xae,
  0xc0, 0x70, 0xaf, 0xb6, 0x42, 0xa1, 0xad, 0x9a, 0x93, 0x5d, 0x9b, 0x9d,
  0x7a, 0x79, 0x9f, 0x86, 0x97, 0x5a, 0xa8, 0x86, 0x7f, 0x98, 0x71, 0xa7,
  0xb4, 0x67, 0xe2, 0x95, 0x76, 0xb1, 0x9a, 0xab, 0xc5, 0x8a, 0xcb, 0x88,
  0x65, 0xc5, 0x8d, 0xb1, 0x91, 0x72, 0x99, 0x7a, 0x91, 0xac, 0xbb, 0xb1,
  0x86, 0x6f, 0xb0, 0x90, 0x83, 0x7c, 0xa4, 0x9b, 0x6e, 0x5d, 0x65, 0x79,
  0x92, 0x5f, 0x71, 0x7a, 0x6f, 0x4c, 0xa0, 0x96, 0x99, 0x5d, 0x8c, 0x62,
  0x85, 0x66, 0x80, 0xba, 0x82, 0x4e, 0x41, 0x90, 0x71, 0x56, 0x67, 0xb9,
  0x67, 0x49, 0x76, 0x8a, 0x7f, 0x68, 0x81, 0x9a, 0x7e, 0x7e, 0x82, 0x87,
  0x6f, 0x72, 0x7f, 0x6f, 0x87, 0x7c, 0x6a, 0x91, 0x8c, 0x79, 0x80, 0x7d,
  0x86, 0x5a, 0x8d, 0x5f, 0x8a, 0x87, 0x6f, 0x90, 0x96, 0x82, 0x83, 0x6c,
  0x84, 0x73, 0x84, 0x7b, 0xb4, 0x75, 0x99, 0x75, 0x9f, 0x93, 0x73, 0x73,
  0x95, 0x82, 0x81, 0x88, 0x70, 0x91, 0x73, 0x71, 0x5e, 0x6b, 0x84, 0x64,
  0x5a, 0xc8, 0x5b, 0x8b, 0x4b, 0x59, 0x96, 0x69, 0x6f, 0x5f, 0x9c, 0xa6,
  0x48, 0x8a, 0x61, 0xbe, 0xd3, 0x58, 0xa7, 0xb5, 0x4f, 0xb0, 0x8f, 0x9b,
  0xac, 0x5f, 0x99, 0xa8, 0x6c, 0x88, 0x91, 0x89, 0x8b, 0x8d, 0x85, 0x98,
  0x6f, 0xa3, 0x6e, 0x92, 0x9b, 0x7b, 0xcb, 0xac, 0x6d, 0xa2, 0x70, 0xb8,
  0xcf, 0x96, 0xd4, 0x9c, 0x70, 0xcc, 0x94, 0xbd, 0xa2, 0x75, 0xa2, 0x94,
  0x5e, 0xa9, 0xb5, 0xb5, 0x91, 0x78, 0x92, 0x8b, 0x8e, 0x68, 0xb4, 0x81,
  0x8f, 0x81, 0x6f, 0x9b, 0x8a, 0x83, 0x81, 0x7b, 0x6f, 0x58, 0x78, 0x9c,
  0x8e, 0x5b, 0x7d, 0x87, 0x62, 0x61, 0x6b, 0xb0, 0x84, 0x4c, 0x69, 0x85,
  0x7c, 0x43, 0x4f, 0xab, 0x7f, 0x60, 0x6a, 0x9d, 0x8b, 0x6f, 0x99, 0x9f,
  0x7d, 0x55, 0x79, 0xa7, 0x7d, 0x65, 0x5b, 0x74, 0x94, 0x6d, 0x7f, 0x90,
  0x7b, 0x71, 0x7a, 0x91, 0x89, 0x77, 0x77, 0x60, 0x8b, 0x7e, 0x8d, 0x9d,
  0x9a, 0x87, 0x7f, 0x73, 0xad, 0xa1, 0x7b, 0x84, 0xb3, 0x7e, 0x9a, 0x83,
  0x7d, 0x6c, 0x90, 0x6b, 0x88, 0x7a, 0x72, 0x7b, 0x5c, 0x7d, 0x83, 0xb1,
  0x85, 0x69, 0x90, 0x6c, 0x6a, 0xa7, 0x58, 0x8b, 0x55, 0x48, 0x75, 0x63,
  0x96, 0x75, 0x93, 0xc0, 0x66, 0x88, 0x87, 0xab, 0xcc, 0x65, 0xaa, 0xa2,
  0x57, 0x83, 0x9d, 0xad, 0x97, 0x66, 0x7d, 0xad, 0x67, 0x89, 0x65, 0x8c,
  0x93, 0x7c, 0x73, 0x93, 0x70, 0x9e, 0x72, 0xa0, 0xab, 0x71, 0xdd, 0x8a,
  0x94, 0x81, 0x8c, 0xb7, 0xb9, 0xac, 0xc3, 0x98, 0x74, 0xd4, 0xa1, 0xb3,
  0x96, 0x8b, 0xa0, 0x83, 0x74, 0x94, 0xc9, 0x99, 0x7e, 0x5f, 0x9a, 0x94,
  0x8c, 0x78, 0x9c, 0x82, 0x70, 0x76, 0x8a, 0x8e, 0xa0, 0x65, 0x71, 0x87,
  0x7c, 0x63, 0x69, 0x8a, 0x96, 0x5a, 0x8b, 0x76, 0x88, 0x71, 0x8e, 0xb8,
  0x8a, 0x34, 0x6b, 0x85, 0x85, 0x4d, 0x51, 0xc3, 0x7a, 0x65, 0x64, 0xa6,
  0x8b, 0x65, 0x86, 0x9f, 0x88, 0x83, 0x9a, 0xa7, 0x7d, 0x82, 0x79, 0x97,
  0x76, 0x6e, 0x77, 0x7e, 0x85, 0x6a, 0x88, 0x7e, 0x83, 0x85, 0x96, 0x77,
  0x7d, 0x6f, 0x8e, 0x9d, 0x94, 0x6d, 0x96, 0x79, 0x98, 0x58, 0x7b, 0x80,
  0x9c, 0x86, 0x7c, 0x81, 0x7e, 0xa7, 0x81, 0x6f, 0x8e, 0x7b, 0x64, 0x72,
  0x54, 0x92, 0x78, 0x58, 0x73, 0x5b, 0x79, 0x4c, 0x5d, 0xa2, 0x3b, 0x98,
  0x48, 0x51, 0x7b, 0x5c, 0x8c, 0x8f, 0x93, 0xae, 0x7d, 0x9f, 0x6e, 0xb2,
  0xc0, 0x40, 0x98, 0xb7, 0x72, 0x90, 0xbc, 0xa5, 0xa9, 0x67, 0x72, 0xa7,
  0x74, 0x77, 0xa8, 0xa0, 0x70, 0x6b, 0x88, 0x95, 0x6b, 0x6c, 0x7a, 0xb5,
  0xb9, 0x72, 0xc5, 0x87, 0x75, 0xa4, 0x72, 0xab, 0xd5, 0x9f, 0xd7, 0x86,
