/* Copyright 2018 The TensorFlow Authors. All Rights Reserved.

Licensed under the Apache License, Version 2.0 (the "License");
you may not use this file except in compliance with the License.
You may obtain a copy of the License at

    http://www.apache.org/licenses/LICENSE-2.0

Unless required by applicable law or agreed to in writing, software
distributed under the License is distributed on an "AS IS" BASIS,
WITHOUT WARRANTIES OR CONDITIONS OF ANY KIND, either express or implied.
See the License for the specific language governing permissions and
limitations under the License.
==============================================================================*/

// Automatically created from a TensorFlow Lite flatbuffer using the command:
// xxd -i tiny_conv.tflite > tiny_conv_simple_features_model_data.cc
// See the README for a full description of the creation process.

#include "tensorflow/lite/experimental/micro/examples/micro_speech/micro_features/tiny_conv_micro_features_model_data.h"

// We need to keep the data array aligned on some architectures.
#ifdef __has_attribute
#define HAVE_ATTRIBUTE(x) __has_attribute(x)
#else
#define HAVE_ATTRIBUTE(x) 0
#endif
#if HAVE_ATTRIBUTE(aligned) || (defined(__GNUC__) && !defined(__clang__))
#define DATA_ALIGN_ATTRIBUTE __attribute__((aligned(4)))
#else
#define DATA_ALIGN_ATTRIBUTE
#endif

const unsigned char
    g_tiny_conv_micro_features_model_data[] DATA_ALIGN_ATTRIBUTE = {
  0x1c, 0x00, 0x00, 0x00, 0x54, 0x46, 0x4c, 0x33, 0x00, 0x00, 0x00, 0x00,
  0x00, 0x00, 0x0e, 0x00, 0x18, 0x00, 0x04, 0x00, 0x08, 0x00, 0x0c, 0x00,
  0x10, 0x00, 0x14, 0x00, 0x0e, 0x00, 0x00, 0x00, 0x03, 0x00, 0x00, 0x00,
  0xc4, 0x46, 0x00, 0x00, 0x0c, 0x00, 0x00, 0x00, 0x10, 0x00, 0x00, 0x00,
  0x20, 0x00, 0x00, 0x00, 0x01, 0x00, 0x00, 0x00, 0xb4, 0x41, 0x00, 0x00,
  0x0f, 0x00, 0x00, 0x00, 0x54, 0x4f, 0x43, 0x4f, 0x20, 0x43, 0x6f, 0x6e,
  0x76, 0x65, 0x72, 0x74, 0x65, 0x64, 0x2e, 0x00, 0x09, 0x00, 0x00, 0x00,
  0x94, 0x41, 0x00, 0x00, 0x04, 0x03, 0x00, 0x00, 0x74, 0x00, 0x00, 0x00,
  0x6c, 0x00, 0x00, 0x00, 0x64, 0x00, 0x00, 0x00, 0x34, 0x00, 0x00, 0x00,
  0x2c, 0x00, 0x00, 0x00, 0x0c, 0x00, 0x00, 0x00, 0x04, 0x00, 0x00, 0x00,
  0xfc, 0xb9, 0xff, 0xff, 0x5a, 0xba, 0xff, 0xff, 0x04, 0x00, 0x00, 0x00,
  0x10, 0x00, 0x00, 0x00, 0x38, 0x03, 0x00, 0x00, 0x28, 0xfd, 0xff, 0xff,
  0xb7, 0xfd, 0xff, 0xff, 0xe3, 0x01, 0x00, 0x00, 0x1c, 0xba, 0xff, 0xff,
  0x7a, 0xba, 0xff, 0xff, 0x04, 0x00, 0x00, 0x00, 0x20, 0x00, 0x00, 0x00,
  0x7b, 0xfe, 0xff, 0xff, 0x80, 0xfe, 0xff, 0xff, 0xf0, 0xff, 0xff, 0xff,
  0x43, 0xff, 0xff, 0xff, 0x44, 0xfd, 0xff, 0xff, 0x08, 0x00, 0x00, 0x00,
  0xfe, 0xff, 0xff, 0xff, 0x95, 0x00, 0x00, 0x00, 0x4c, 0xba, 0xff, 0xff,
  0x50, 0xba, 0xff, 0xff, 0xae, 0xba, 0xff, 0xff, 0x04, 0x00, 0x00, 0x00,
  0x80, 0x02, 0x00, 0x00, 0x3d, 0x99, 0x7e, 0x62, 0x4a, 0x23, 0xa0, 0x61,
  0x59, 0xa8, 0x70, 0x52, 0x8a, 0x37, 0x80, 0x82, 0xb4, 0xcb, 0x75, 0x9c,
  0x70, 0x21, 0xb9, 0x69, 0x91, 0x8e, 0x71, 0x45, 0x6d, 0x56, 0x72, 0x6f,
  0xe2, 0x86, 0x6a, 0x9a, 0x9a, 0x67, 0xbf, 0x58, 0x8a, 0x75, 0x78, 0x46,
  0x7a, 0x68, 0xaa, 0x99, 0xe8, 0x4a, 0x7b, 0x91, 0x91, 0x93, 0xa7, 0x8d,
  0xa5, 0x49, 0x65, 0x5c, 0x7c, 0x39, 0x70, 0xca, 0x2e, 0xae, 0x84, 0x9f,
  0x4a, 0x8d, 0x7f, 0x50, 0x4c, 0x90, 0x6e, 0x5c, 0x8f, 0xb7, 0x75, 0x82,
  0x8d, 0xc6, 0x88, 0xc7, 0x79, 0x6e, 0xa0, 0x70, 0x75, 0x8c, 0x72, 0x4a,
  0x73, 0x9c, 0x75, 0x73, 0xd0, 0x82, 0x7c, 0xc3, 0xa0, 0x94, 0x9f, 0x5c,
  0x7f, 0x6a, 0x89, 0x3c, 0x77, 0xa3, 0x8c, 0x8c, 0xe5, 0x37, 0x74, 0xac,
  0x99, 0xbb, 0x83, 0x8b, 0x98, 0x3d, 0x73, 0x53, 0x84, 0x6d, 0x4b, 0xc4,
  0x37, 0xb3, 0x9b, 0xcf, 0x3f, 0xa1, 0x8f, 0x50, 0x4e, 0x91, 0x8b, 0x65,
  0x80, 0xb1, 0x76, 0x81, 0x76, 0xc2, 0x8b, 0xf0, 0x7b, 0x67, 0x9b, 0x71,
  0x60, 0x7f, 0x78, 0x50, 0x6c, 0x89, 0x87, 0x6d, 0xab, 0x67, 0x7e, 0xda,
  0xa8, 0x94, 0x9f, 0x56, 0x71, 0x63, 0x97, 0x42, 0x70, 0x88, 0x7b, 0x82,
  0xd6, 0x17, 0x7f, 0xe3, 0xa0, 0xa6, 0x6c, 0x8d, 0x89, 0x36, 0x77, 0x6e,
  0x76, 0x6d, 0x58, 0xb8, 0x3d, 0xc2, 0x85, 0xc9, 0x53, 0x68, 0x73, 0x4f,
  0x4a, 0xa0, 0x6f, 0x7e, 0x73, 0xa0, 0x7c, 0x7f, 0x68, 0xcb, 0x73, 0xe4,
  0x8f, 0x36, 0x91, 0x5b, 0x5d, 0x8e, 0x7e, 0x6c, 0x67, 0x62, 0x95, 0x70,
  0xab, 0x6b, 0x7a, 0xe6, 0xb8, 0x5b, 0x9a, 0x59, 0x6e, 0x79, 0x8a, 0x60,
  0x6a, 0x8d, 0x90, 0x8c, 0xdb, 0x07, 0x6c, 0xd3, 0xb1, 0x8b, 0x75, 0x92,
  0x96, 0x3d, 0x67, 0x80, 0x89, 0x66, 0x57, 0xc1, 0x54, 0xcb, 0x35, 0x88,
  0x3f, 0x85, 0x6b, 0x4d, 0x5a, 0xa6, 0x5d, 0x73, 0x6a, 0xec, 0x83, 0x80,
  0x55, 0xcb, 0x4d, 0xb1, 0x90, 0x64, 0x8a, 0x66, 0x59, 0x90, 0x6a, 0x79,
  0x54, 0x88, 0x8d, 0x70, 0x94, 0x5d, 0x50, 0xbd, 0xc5, 0x6e, 0x7c, 0x51,
  0x7a, 0x78, 0x79, 0x6a, 0x5c, 0xa0, 0x81, 0x8f, 0xcf, 0x01, 0x40, 0xbc,
  0xc2, 0x88, 0x56, 0x85, 0x98, 0x46, 0x45, 0x94, 0x84, 0x7c, 0x59, 0xc0,
  0x64, 0xd3, 0x4d, 0x54, 0x42, 0x68, 0x69, 0x49, 0x77, 0xa7, 0x67, 0x3e,
  0x61, 0xa9, 0x96, 0x76, 0x4e, 0xc2, 0x6a, 0x87, 0x99, 0x49, 0x71, 0x59,
  0x67, 0x94, 0x6d, 0x61, 0x4d, 0x84, 0x8b, 0x6a, 0x6c, 0x57, 0x73, 0xa9,
  0xd8, 0x66, 0x7c, 0x53, 0x8d, 0x82, 0x8d, 0x76, 0x54, 0x8a, 0x7c, 0x8a,
  0xb2, 0x08, 0x8a, 0x99, 0xdb, 0x74, 0x60, 0x7c, 0xa5, 0x5e, 0x6c, 0xb6,
  0x82, 0x71, 0x53, 0xb6, 0x75, 0xc5, 0x6c, 0x3c, 0x59, 0x5a, 0x55, 0x54,
  0x88, 0x92, 0x7f, 0x42, 0x52, 0xb6, 0x7b, 0x6e, 0x51, 0xb4, 0x73, 0x86,
  0xaa, 0x4b, 0x6d, 0x5e, 0x5c, 0x86, 0x8b, 0x63, 0x49, 0x90, 0x95, 0x5f,
  0x50, 0x53, 0x8b, 0x9f, 0xf4, 0x73, 0x5e, 0x5f, 0x83, 0x8a, 0x9b, 0x85,
  0x54, 0xab, 0x87, 0x7e, 0x88, 0x37, 0x98, 0xa8, 0xee, 0x78, 0x63, 0x6f,
  0x9a, 0x7a, 0x98, 0xb1, 0x75, 0x80, 0x5a, 0xae, 0x81, 0xa7, 0x72, 0x38,
  0x6c, 0x6b, 0x6f, 0x55, 0x90, 0x6a, 0x76, 0x54, 0x53, 0xb9, 0x60, 0x71,
  0x7d, 0x8b, 0x81, 0x6d, 0xc8, 0x66, 0x6e, 0x75, 0x52, 0x63, 0x65, 0x81,
  0x55, 0x97, 0x7a, 0x63, 0x4e, 0x53, 0x8c, 0x80, 0xff, 0x9f, 0x80, 0x59,
  0x76, 0x7b, 0x8f, 0x89, 0x5c, 0xc0, 0x76, 0x83, 0x53, 0x5a, 0xa1, 0x74,
  0xf1, 0x99, 0x65, 0x76, 0x91, 0x7e, 0x8e, 0xa2, 0x6a, 0x82, 0x67, 0xa9,
  0x89, 0x61, 0x99, 0x21, 0x84, 0x54, 0x58, 0x4d, 0x8e, 0x4e, 0x92, 0x50,
  0x5f, 0xcc, 0x65, 0x69, 0x71, 0x54, 0x9c, 0x3b, 0xe1, 0x47, 0x66, 0x66,
  0x3e, 0x38, 0x89, 0x71, 0x62, 0x9e, 0x65, 0x64, 0x45, 0x4a, 0x9e, 0x4f,
  0xff, 0x84, 0x6c, 0x5d, 0x3c, 0x6c, 0x96, 0x84, 0x5a, 0xa7, 0x80, 0x75,
  0x40, 0x5f, 0xc4, 0x30, 0xbb, 0x81, 0x7b, 0x7a, 0x4e, 0x74, 0x94, 0x6e,
  0x48, 0x71, 0x81, 0x9a, 0x7d, 0x28, 0xb3, 0x27, 0x81, 0x32, 0x5f, 0x5c,
  0x81, 0x0a, 0x8b, 0x51, 0x64, 0x8a, 0x68, 0x69, 0x77, 0x1c, 0x9e, 0x3b,
  0xcf, 0x2e, 0x55, 0x5d, 0x34, 0x0b, 0x7d, 0x62, 0x65, 0x71, 0x84, 0x5a,
  0x54, 0x3c, 0xad, 0x20, 0xe8, 0x76, 0x76, 0x5b, 0x38, 0x47, 0x8e, 0x59,
  0x46, 0x68, 0x83, 0x77, 0x45, 0x66, 0xae, 0x17, 0x87, 0x6e, 0x77, 0x72,
  0x23, 0x69, 0x8d, 0x37, 0x1c, 0x52, 0x81, 0x91, 0x3a, 0xbd, 0xff, 0xff,
  0x04, 0x00, 0x00, 0x00, 0x80, 0x3e, 0x00, 0x00, 0x7b, 0x81, 0x45, 0x68,
  0x76, 0x71, 0x9e, 0x6f, 0x59, 0x90, 0x01, 0x6b, 0x7c, 0x7c, 0x8f, 0x94,
  0xa8, 0xa0, 0x3a, 0x75, 0x71, 0x46, 0x60, 0x7b, 0x74, 0x80, 0x26, 0x95,
  0x8e, 0x61, 0xa1, 0x97, 0x6a, 0x86, 0x2e, 0x73, 0x82, 0x57, 0xb0, 0x7f,
  0x62, 0x77, 0x21, 0x81, 0x84, 0x66, 0x81, 0x84, 0x72, 0xab, 0x38, 0x68,
  0x8d, 0x7c, 0xa6, 0x87, 0x77, 0x6e, 0x56, 0x90, 0x8b, 0x81, 0xb1, 0x95,
  0x87, 0xa3, 0x4f, 0x6f, 0x8c, 0x7b, 0x9a, 0x75, 0x85, 0x9a, 0x42, 0x76,
  0x8a, 0x5c, 0x84, 0x71, 0x8b, 0x86, 0x1e, 0x8d, 0x92, 0x63, 0x9e, 0x70,
  0xa0, 0x9e, 0x4f, 0x82, 0x9d, 0x6e, 0x8b, 0x71, 0x76, 0x87, 0x2e, 0x7e,
  0x83, 0x58, 0x8a, 0x62, 0x88, 0x7b, 0x3f, 0x93, 0x93, 0x74, 0x71, 0x9b,
  0x73, 0x5a, 0x4c, 0x72, 0x89, 0x84, 0x9b, 0x8e, 0x85, 0x71, 0x4c, 0x83,
  0x89, 0x89, 0x66, 0x71, 0x70, 0x81, 0x49, 0x88, 0x8f, 0x7a, 0xa8, 0x7d,
  0x9a, 0x58, 0x35, 0x70, 0x98, 0x50, 0xa5, 0x9a, 0x98, 0x7e, 0x3a, 0x9c,
  0x7f, 0x99, 0x8e, 0x9e, 0x6a, 0xb6, 0x90, 0x7c, 0x83, 0x84, 0x93, 0x8a,
  0x5d, 0x98, 0x3b, 0x88, 0x7b, 0x5e, 0x92, 0xa1, 0x6f, 0x7d, 0x79, 0x90,
  0x7b, 0x7c, 0x80, 0x91, 0x7a, 0x9d, 0x4b, 0x73, 0x35, 0x5a, 0xa8, 0x88,
  0x87, 0x81, 0x5e, 0x83, 0x6d, 0x64, 0x90, 0xa3, 0x60, 0x4e, 0x91, 0x84,
  0x6f, 0x5c, 0x79, 0x70, 0x6f, 0x68, 0x75, 0x93, 0x6e, 0x62, 0x7b, 0x94,
  0x80, 0x5d, 0x57, 0x8b, 0x66, 0x8c, 0x85, 0x6e, 0x6b, 0xb0, 0x78, 0x8a,
  0x80, 0x75, 0x8c, 0x77, 0xa2, 0x94, 0x85, 0x7d, 0x5b, 0x8d, 0x9d, 0x7e,
  0x79, 0x7d, 0x41, 0x93, 0x89, 0x4c, 0xaa, 0xa2, 0x76, 0x95, 0x6b, 0x85,
  0x8c, 0x86, 0x80, 0x78, 0x80, 0x69, 0x6d, 0x9b, 0x84, 0x6d, 0x62, 0x89,
  0x78, 0x72, 0x81, 0xb1, 0x88, 0x7d, 0x67, 0x6d, 0x7d, 0x97, 0x98, 0xa8,
  0x91, 0x80, 0x7c, 0x8a, 0x71, 0x6d, 0x6e, 0xb5, 0x98, 0x7d, 0xa2, 0x74,
  0x96, 0x77, 0x80, 0x9b, 0x94, 0x5c, 0x9d, 0x79, 0xb3, 0x71, 0x58, 0x8d,
  0x82, 0x8d, 0x76, 0x70, 0x85, 0x8e, 0x5f, 0x9c, 0x92, 0x8e, 0x64, 0x9a,
  0xa0, 0x8f, 0x74, 0x8b, 0x7a, 0x9b, 0x56, 0x7e, 0x9a, 0x9d, 0x7a, 0x6d,
  0x7f, 0x86, 0x83, 0x85, 0x8b, 0x58, 0x82, 0x82, 0x71, 0x5c, 0x5b, 0x71,
  0x64, 0xbc, 0x79, 0x5a, 0x80, 0x72, 0x79, 0x6d, 0x57, 0x7e, 0x4d, 0x6d,
  0x3a, 0x56, 0x6e, 0x82, 0x6c, 0x90, 0x89, 0x81, 0x45, 0x8d, 0x77, 0xa2,
  0x78, 0x7e, 0x77, 0x69, 0x71, 0x58, 0x70, 0x81, 0x66, 0x51, 0x7a, 0x6b,
  0x54, 0x73, 0x8a, 0x8a, 0x7c, 0x8d, 0x83, 0x7b, 0x6a, 0x89, 0x76, 0x8e,
  0x93, 0x75, 0x6e, 0x67, 0x59, 0x71, 0x97, 0x86, 0x9b, 0x79, 0x7c, 0x9e,
  0x62, 0x6b, 0x68, 0x71, 0x86, 0x79, 0x75, 0x62, 0x8c, 0x64, 0x70, 0x97,
  0x7c, 0xa5, 0x88, 0x9a, 0xa3, 0x88, 0x7b, 0x73, 0x99, 0x9a, 0x75, 0xa5,
  0x8a, 0x5e, 0x7b, 0x90, 0x80, 0x60, 0x75, 0x8f, 0x75, 0xa1, 0x5e, 0x7e,
  0x73, 0x80, 0x62, 0x9e, 0x95, 0x6f, 0x8e, 0x7c, 0x8b, 0x68, 0x98, 0x66,
  0x89, 0x74, 0x5c, 0xa9, 0x85, 0x85, 0x90, 0x8d, 0xc7, 0x97, 0xac, 0x62,
  0x69, 0xa1, 0x5b, 0x7b, 0xa6, 0x6d, 0x6a, 0x7c, 0x58, 0x7c, 0x79, 0x72,
  0x7f, 0x7e, 0x95, 0x92, 0x8c, 0xab, 0x64, 0x7c, 0x75, 0x93, 0x61, 0x52,
  0x94, 0x8e, 0x6e, 0x95, 0x78, 0x53, 0x8e, 0x80, 0x74, 0x84, 0x83, 0x56,
  0x76, 0x50, 0xa0, 0x68, 0x54, 0x90, 0x86, 0x86, 0x64, 0x85, 0x6c, 0x96,
  0x51, 0x79, 0x72, 0x7c, 0x4f, 0x89, 0x7a, 0x6e, 0x80, 0x52, 0x5e, 0x81,
  0x55, 0x8a, 0x8e, 0x97, 0x74, 0x54, 0xa0, 0x84, 0x69, 0x77, 0x77, 0x6b,
  0x74, 0x6d, 0x6a, 0x68, 0x55, 0x88, 0x9c, 0x89, 0x44, 0x4f, 0x5f, 0x8d,
  0x7c, 0xb8, 0x72, 0x61, 0x68, 0x47, 0x86, 0x83, 0x70, 0xa6, 0x68, 0x60,
  0x92, 0x7f, 0x92, 0x6f, 0x61, 0x8f, 0x97, 0x87, 0x8f, 0x87, 0x96, 0x85,
  0x72, 0x9f, 0x83, 0x91, 0x72, 0x78, 0x7e, 0x9a, 0xa6, 0xa7, 0x89, 0x58,
  0x65, 0x8c, 0x7e, 0x92, 0xa7, 0x8b, 0x98, 0x80, 0x98, 0x71, 0x95, 0x94,
  0x89, 0xb2, 0x79, 0x61, 0x77, 0x76, 0x74, 0xa8, 0x63, 0x8b, 0xab, 0xaa,
  0x65, 0x6b, 0x75, 0x84, 0xab, 0x90, 0x6d, 0x73, 0x99, 0x52, 0x6b, 0x7c,
  0xae, 0x8f, 0x89, 0x5d, 0x8a, 0x8a, 0x9e, 0xa9, 0xa5, 0x8f, 0x80, 0x76,
  0x7d, 0x90, 0x80, 0xb1, 0x99, 0x92, 0x74, 0x89, 0x8e, 0x72, 0x83, 0x92,
  0x95, 0x99, 0x75, 0x9c, 0x65, 0x8a, 0x6e, 0xa2, 0x6c, 0x94, 0x9a, 0x99,
  0x60, 0x91, 0x6f, 0x5c, 0x67, 0x67, 0x5b, 0x6b, 0x64, 0xb3, 0x8d, 0x7a,
  0x61, 0x89, 0x9d, 0x7f, 0x7d, 0x75, 0x98, 0x7b, 0x71, 0x96, 0x80, 0x66,
  0x72, 0x6e, 0x55, 0x85, 0x39, 0xae, 0x74, 0x76, 0x5d, 0x95, 0x7d, 0x77,
  0x40, 0x73, 0x86, 0x64, 0x80, 0x85, 0x7e, 0x5b, 0x67, 0xa2, 0x7d, 0x7f,
  0x96, 0xa5, 0x90, 0x4b, 0x95, 0x9d, 0xa3, 0x6c, 0x77, 0x37, 0x78, 0x87,
  0x6a, 0xbd, 0x52, 0x7a, 0x4d, 0x46, 0x6a, 0x96, 0x7b, 0x9d, 0x5b, 0x4d,
  0x79, 0x8c, 0xa1, 0x79, 0x6f, 0xab, 0x89, 0x7a, 0x86, 0x59, 0x93, 0x8c,
  0x74, 0xa5, 0x64, 0x77, 0x81, 0x5f, 0x6b, 0x95, 0x95, 0xbe, 0x9e, 0x9a,
  0x82, 0x79, 0x93, 0x93, 0x91, 0xc3, 0x86, 0x97, 0x87, 0x63, 0x8d, 0xa0,
  0x77, 0xc0, 0x78, 0x97, 0x94, 0x73, 0x98, 0xb4, 0x8b, 0xa6, 0x99, 0x98,
  0x7e, 0x6b, 0x7e, 0xb7, 0x6b, 0xbb, 0x84, 0x85, 0x6f, 0x7a, 0x77, 0x9e,
  0x98, 0x87, 0xaa, 0x73, 0x84, 0x68, 0x9d, 0x80, 0x6e, 0x9b, 0x98, 0x9e,
  0x73, 0x9c, 0x87, 0x78, 0xa3, 0xa0, 0xa7, 0x73, 0x6b, 0xa0, 0x99, 0x7f,
  0x93, 0x7c, 0x61, 0xa6, 0x74, 0x7a, 0x99, 0x7b, 0x7c, 0x57, 0x8f, 0x6c,
  0x86, 0xac, 0x75, 0x5a, 0x58, 0x82, 0x83, 0x75, 0x6b, 0x91, 0x78, 0x7c,
  0x2b, 0x73, 0xad, 0x81, 0x73, 0x54, 0x8e, 0x83, 0x5e, 0x98, 0x81, 0x85,
  0x68, 0x4a, 0x7f, 0x90, 0x71, 0x87, 0x7e, 0x54, 0x41, 0x92, 0xb5, 0x83,
  0x47, 0x78, 0x6f, 0x91, 0x58, 0x61, 0x94, 0x8d, 0x51, 0xae, 0x89, 0x61,
  0x72, 0x70, 0x7c, 0x74, 0x4b, 0xa8, 0x88, 0x73, 0x91, 0x6b, 0x91, 0x73,
  0x6c, 0xac, 0x59, 0x94, 0x85, 0x75, 0x9c, 0x7e, 0x5c, 0x9c, 0xa0, 0x81,
  0x78, 0x9b, 0x6c, 0x95, 0x7d, 0xb4, 0x6a, 0x66, 0x56, 0x66, 0xaa, 0x7e,
  0x7e, 0xb3, 0x76, 0x6f, 0x7b, 0x65, 0x85, 0x81, 0x60, 0xc8, 0x92, 0x8f,
  0x7e, 0x74, 0xa8, 0x87, 0x70, 0xa9, 0x79, 0x66, 0x97, 0x56, 0x82, 0x93,
  0x72, 0xc9, 0x6a, 0x79, 0x8f, 0x79, 0x84, 0xbd, 0x7d, 0xaa, 0x99, 0x7f,
  0x77, 0x63, 0x76, 0x86, 0x9d, 0xa7, 0x7b, 0x4f, 0x8f, 0x56, 0x68, 0x9f,
  0x5d, 0xa2, 0x7c, 0x8b, 0x95, 0x8e, 0xa2, 0x8e, 0xc2, 0xbb, 0x85, 0x9e,
  0xa2, 0x80, 0x7e, 0x80, 0x6d, 0x96, 0x96, 0x54, 0x8b, 0x81, 0x74, 0x91,
  0x3b, 0x5e, 0x6b, 0x69, 0x93, 0x98, 0xa3, 0x86, 0x62, 0x8e, 0x6a, 0xa2,
  0x67, 0x56, 0x69, 0x62, 0x59, 0x84, 0x93, 0x6c, 0x46, 0x59, 0x77, 0x85,
  0x7a, 0xaa, 0x7c, 0x79, 0x7c, 0x7f, 0x97, 0x4f, 0x64, 0x90, 0x86, 0x91,
  0x65, 0x61, 0x90, 0x7d, 0x6d, 0x7d, 0x8a, 0x95, 0x65, 0x83, 0xb0, 0x94,
  0x5a, 0xab, 0x6e, 0x7e, 0x7f, 0x61, 0x8f, 0x65, 0x74, 0xbb, 0x50, 0x6c,
  0x66, 0x5c, 0x7a, 0x80, 0x7a, 0xb1, 0x62, 0x6b, 0x9d, 0x74, 0x85, 0x9f,
  0x7f, 0x9a, 0x84, 0x7c, 0x57, 0x7a, 0x80, 0x85, 0x75, 0xa9, 0x85, 0x81,
  0x82, 0x78, 0xa3, 0x60, 0x74, 0x90, 0x6f, 0x99, 0x8c, 0x96, 0xb5, 0x84,
  0x74, 0x9f, 0x7e, 0x99, 0xa4, 0x7b, 0x8c, 0x8a, 0x77, 0xa5, 0x98, 0x8d,
  0x9d, 0x5e, 0x79, 0x93, 0x60, 0xac, 0xa3, 0x6f, 0xad, 0x5d, 0x8b, 0xa6,
  0x96, 0x8f, 0x62, 0x63, 0x7e, 0x7c, 0x93, 0xa1, 0x7c, 0xc5, 0xac, 0x7a,
  0x72, 0x44, 0x83, 0x86, 0xa3, 0xa8, 0x85, 0x61, 0x5f, 0xa3, 0x69, 0x95,
  0xc3, 0xa6, 0xb2, 0x8d, 0xa4, 0x97, 0x8f, 0xa0, 0xa7, 0xa3, 0x96, 0x69,
  0x73, 0xa2, 0x5a, 0x96, 0x3a, 0x6c, 0x73, 0x8d, 0x86, 0xae, 0x73, 0x89,
  0x3a, 0x84, 0x92, 0x8c, 0x49, 0x3e, 0x76, 0x6d, 0x62, 0x99, 0xa8, 0x9a,
  0x66, 0x2b, 0x96, 0x5c, 0x59, 0x91, 0x84, 0x8b, 0x54, 0x6a, 0xa9, 0x74,
  0x64, 0x98, 0x7f, 0x97, 0x72, 0x7c, 0x95, 0x76, 0x64, 0x8f, 0x7f, 0x78,
  0x6f, 0x88, 0x9b, 0x90, 0x6a, 0xad, 0x70, 0x50, 0x78, 0x65, 0xa4, 0x78,
  0x6c, 0x9f, 0x65, 0x79, 0x78, 0x38, 0x8f, 0xa2, 0x4b, 0xa3, 0x96, 0x4e,
  0x8d, 0x5a, 0x8b, 0x8a, 0x46, 0xa9, 0xb2, 0x9c, 0x7b, 0x6a, 0x9a, 0x6c,
  0x9d, 0xa5, 0x65, 0x7b, 0x89, 0x71, 0xaa, 0x6a, 0x5e, 0x82, 0x84, 0x8e,
  0x7b, 0x95, 0x88, 0x8a, 0x86, 0x9d, 0x61, 0x7b, 0x76, 0x53, 0x91, 0x9d,
  0x48, 0x9b, 0x81, 0x7d, 0x7e, 0x86, 0xa1, 0x88, 0x8c, 0x90, 0x92, 0x49,
  0x85, 0x40, 0x89, 0x81, 0x62, 0x90, 0x88, 0x64, 0x99, 0x7c, 0x7a, 0x8a,
  0x81, 0x94, 0x90, 0x85, 0x80, 0x91, 0x86, 0x94, 0x7c, 0xa9, 0xa1, 0x83,
  0x83, 0x8a, 0x97, 0xab, 0x96, 0x97, 0xa7, 0x80, 0x9a, 0x98, 0xb0, 0x92,
  0x7d, 0xc7, 0xa5, 0xa3, 0x5c, 0x63, 0x81, 0x6c, 0x35, 0x64, 0xa9, 0x75,
  0x51, 0x99, 0x8b, 0x73, 0x30, 0x8f, 0x8f, 0x8c, 0x62, 0x44, 0x8c, 0x8e,
  0x57, 0x8b, 0x8e, 0x77, 0x5a, 0x64, 0xa2, 0x63, 0x55, 0xa1, 0x65, 0x8b,
  0x62, 0x84, 0xa6, 0x71, 0x5f, 0x85, 0x88, 0x62, 0x4c, 0x89, 0x7d, 0x90,
  0x70, 0x8a, 0x87, 0x99, 0x78, 0x85, 0x7a, 0x5d, 0x53, 0x9a, 0x50, 0x73,
  0x71, 0x4b, 0x8c, 0x7c, 0x6c, 0x9c, 0x79, 0x7c, 0x84, 0x51, 0x89, 0x5f,
  0x45, 0xa4, 0x73, 0x4f, 0x5f, 0x86, 0x7c, 0x8b, 0x73, 0x8a, 0x62, 0x59,
  0x7a, 0x68, 0x92, 0x90, 0x67, 0x94, 0x7f, 0x8c, 0x6c, 0x5e, 0x6f, 0x84,
  0x82, 0x7f, 0x88, 0x5b, 0xa7, 0x6e, 0x9f, 0x97, 0x81, 0x8b, 0x9b, 0xa2,
  0xa1, 0x57, 0x8d, 0x8d, 0x7d, 0x98, 0x7a, 0xa2, 0x9a, 0x5a, 0x7e, 0x99,
  0x5b, 0x9e, 0x54, 0x8b, 0x83, 0x7c, 0xa5, 0xb6, 0x7f, 0x7b, 0x96, 0x60,
  0x86, 0x69, 0x8e, 0x89, 0x77, 0x8a, 0x9e, 0x69, 0xa6, 0x4f, 0x92, 0x8e,
  0x71, 0x8b, 0x6e, 0x97, 0x8e, 0x8c, 0xb2, 0x88, 0x85, 0xa2, 0xc3, 0x72,
  0x94, 0x9f, 0x6e, 0xb6, 0x77, 0xc2, 0x86, 0x77, 0x56, 0x7d, 0x7c, 0x6a,
  0x2b, 0x76, 0x71, 0x75, 0x7a, 0xa2, 0x76, 0x67, 0x24, 0x79, 0x8e, 0xb8,
  0x6e, 0x61, 0x77, 0x6f, 0x55, 0x6b, 0x6a, 0x89, 0x58, 0x51, 0x6b, 0x82,
  0x4d, 0xa0, 0xaa, 0x61, 0x69, 0x80, 0x98, 0x5a, 0x4c, 0x98, 0x79, 0x35,
  0x7d, 0x9e, 0xa2, 0x6c, 0x68, 0x9b, 0x77, 0x6d, 0x57, 0x53, 0x6e, 0x69,
  0x56, 0x8f, 0x75, 0x7a, 0x5c, 0x78, 0x85, 0x8c, 0x6b, 0x99, 0x6d, 0x6e,
  0x80, 0x75, 0x6f, 0x75, 0x4e, 0xb9, 0xa2, 0x4f, 0x9d, 0x73, 0x8d, 0x74,
  0x74, 0x81, 0x83, 0x7d, 0x6a, 0x93, 0x8e, 0xa5, 0x86, 0x90, 0x90, 0x6b,
  0x91, 0x83, 0xa7, 0x9d, 0x86, 0x82, 0x92, 0x90, 0x83, 0x5c, 0xb0, 0x9e,
  0x7c, 0x7e, 0x8d, 0x86, 0x6a, 0x86, 0x91, 0xa8, 0x7f, 0x7e, 0x64, 0x7e,
  0x81, 0x59, 0x9a, 0x7e, 0x75, 0x86, 0x72, 0x70, 0x5b, 0x60, 0xab, 0xa5,
  0x7f, 0x96, 0x7e, 0x81, 0x64, 0x6b, 0xa3, 0x83, 0x78, 0x91, 0x86, 0x96,
  0x89, 0x87, 0x80, 0x93, 0x61, 0x6c, 0x67, 0x62, 0x75, 0x9b, 0x8c, 0x7f,
  0x82, 0x91, 0xa9, 0x76, 0x74, 0xa3, 0x77, 0x7c, 0x7d, 0x92, 0x87, 0x91,
  0x62, 0x8b, 0x7d, 0x6e, 0x18, 0x6c, 0x6a, 0x8a, 0x73, 0x78, 0x65, 0x73,
  0x19, 0x8a, 0x63, 0xa2, 0x5d, 0x5c, 0x7c, 0x96, 0x5f, 0x85, 0x64, 0x6c,
  0x48, 0x21, 0x6a, 0x7b, 0x5f, 0x9e, 0xa1, 0x7b, 0x64, 0x7d, 0x8c, 0x7a,
  0x70, 0xa3, 0x61, 0x62, 0x69, 0x72, 0x8e, 0x62, 0x43, 0x8d, 0x7e, 0x59,
  0x68, 0x8a, 0x79, 0x63, 0x64, 0x9e, 0x7e, 0x7e, 0x8c, 0x4a, 0xa5, 0x68,
  0x3d, 0x8a, 0xa2, 0x6b, 0x64, 0x67, 0x98, 0x89, 0x74, 0xac, 0x7e, 0x6b,
  0x6f, 0x6c, 0x80, 0x8f, 0x80, 0x82, 0x9f, 0x65, 0x73, 0x60, 0x7c, 0x9b,
  0x73, 0x8d, 0x99, 0x74, 0x75, 0x67, 0xa7, 0x96, 0x87, 0x5f, 0x7f, 0x7c,
  0x79, 0x89, 0xa0, 0x68, 0x64, 0x90, 0xb0, 0xa7, 0x87, 0x8d, 0xb1, 0x93,
  0x81, 0x77, 0x64, 0x8a, 0x9a, 0x8a, 0x7e, 0x7c, 0x7c, 0xb6, 0x6b, 0x6c,
  0x8f, 0x67, 0xa2, 0x82, 0x88, 0x84, 0x9b, 0x71, 0x8b, 0x58, 0xa1, 0x82,
  0x5c, 0x6f, 0x84, 0x8c, 0x85, 0x7e, 0xbb, 0xa6, 0x79, 0x79, 0xa9, 0x5e,
  0xa2, 0x97, 0x7b, 0x94, 0x73, 0x99, 0xa7, 0x7c, 0x75, 0x8c, 0x7e, 0x9a,
  0x8b, 0xa5, 0x86, 0x71, 0x7b, 0x5c, 0x52, 0x79, 0x2c, 0x80, 0x6d, 0x81,
  0x6f, 0x8b, 0x65, 0x68, 0x2a, 0x92, 0x7b, 0xad, 0x60, 0x3e, 0x59, 0x60,
  0x59, 0x87, 0x6f, 0x5f, 0x76, 0x55, 0x89, 0x55, 0x52, 0xa9, 0x85, 0x6c,
  0x60, 0x97, 0x6f, 0x81, 0x6c, 0x9a, 0x97, 0x42, 0x4f, 0x8e, 0x91, 0x8c,
  0x5f, 0xa0, 0x90, 0x89, 0x6d, 0x4f, 0x7b, 0x7b, 0x51, 0x97, 0x7d, 0x65,
  0x7c, 0x3d, 0x73, 0x66, 0x76, 0xa8, 0xa0, 0x77, 0x74, 0x3e, 0x8b, 0x8a,
  0x2c, 0xa3, 0x85, 0x3f, 0x61, 0x76, 0xba, 0x7d, 0x53, 0x8d, 0x8d, 0x65,
  0x89, 0x7a, 0x96, 0x90, 0x62, 0x9c, 0x6a, 0x6c, 0x8b, 0x70, 0xb5, 0x98,
  0x6e, 0x6e, 0x99, 0x89, 0x8a, 0x68, 0xb4, 0x89, 0x4f, 0x81, 0x93, 0x98,
  0x98, 0x92, 0xaa, 0x88, 0x52, 0x7d, 0x88, 0x7e, 0x87, 0x5e, 0x98, 0x9a,
  0x8d, 0x89, 0x76, 0x96, 0x71, 0x3c, 0xa6, 0xa7, 0x73, 0x85, 0x97, 0x65,
  0x86, 0x63, 0xba, 0x7a, 0x80, 0x90, 0x59, 0x89, 0x76, 0x47, 0x7c, 0x84,
  0x67, 0x80, 0x8a, 0x7d, 0x5e, 0x8b, 0xa7, 0x8b, 0x75, 0x79, 0x94, 0x70,
  0x99, 0xad, 0x85, 0x76, 0x8a, 0x87, 0xaa, 0x8e, 0x64, 0x6c, 0x67, 0x6f,
  0x13, 0x86, 0x79, 0x91, 0x93, 0x9e, 0x7d, 0x68, 0x24, 0x83, 0x87, 0x95,
  0x70, 0x2e, 0x7f, 0x65, 0x56, 0x7d, 0x77, 0x89, 0x40, 0x68, 0x72, 0x85,
  0x46, 0xac, 0x73, 0x8a, 0x79, 0x7a, 0x9c, 0x75, 0x77, 0x98, 0xa9, 0x46,
  0x4b, 0x89, 0x94, 0x70, 0x79, 0xa1, 0x8b, 0x81, 0x5c, 0x7d, 0x83, 0x67,
  0x64, 0xa3, 0x5d, 0x55, 0x63, 0x4f, 0xa5, 0x98, 0x3f, 0x8b, 0x6e, 0x6f,
  0x7c, 0x3e, 0x8e, 0xa0, 0x4d, 0xa0, 0x84, 0x4f, 0x51, 0x76, 0xb4, 0x81,
  0x5b, 0x86, 0x9e, 0x8c, 0x98, 0x7b, 0x7c, 0x79, 0x49, 0x8c, 0x7d, 0x88,
  0x88, 0x61, 0x93, 0x71, 0x89, 0x84, 0x85, 0x6c, 0x74, 0x62, 0x86, 0x73,
  0x75, 0x83, 0x86, 0x90, 0x87, 0xa1, 0xab, 0x7e, 0x7c, 0x6c, 0xb2, 0x91,
  0x77, 0x79, 0xb9, 0x8f, 0x71, 0x89, 0x78, 0x5b, 0x9a, 0x54, 0xb6, 0xa6,
  0x51, 0x8f, 0x8a, 0x80, 0x6d, 0x75, 0xa9, 0x85, 0x8b, 0x67, 0x8f, 0x94,
  0x6a, 0x49, 0x9c, 0x69, 0x73, 0x7f, 0x6e, 0x6c, 0xa7, 0xae, 0x9e, 0x8b,
  0x69, 0x9c, 0xa2, 0x6e, 0x83, 0x88, 0x86, 0x96, 0x93, 0x81, 0x8e, 0x94,
  0x62, 0x80, 0x7c, 0x6b, 0x01, 0x85, 0x85, 0x93, 0x69, 0x8a, 0x5f, 0x71,
  0x1a, 0x80, 0x6c, 0xb4, 0x7f, 0x46, 0x7f, 0x82, 0x41, 0x8c, 0x72, 0x89,
  0x4a, 0x58, 0x7c, 0x5d, 0x40, 0xb0, 0x83, 0x5a, 0x5c, 0x99, 0x69, 0x6c,
  0x70, 0x95, 0x93, 0x5e, 0x5b, 0x77, 0x97, 0x79, 0x3f, 0xb9, 0x70, 0x61,
  0x8b, 0x63, 0x99, 0x6c, 0x6e, 0x9b, 0x93, 0x64, 0x96, 0x77, 0x8f, 0x76,
  0x4e, 0x8f, 0x88, 0x6b, 0x7c, 0x84, 0x83, 0x84, 0x54, 0x98, 0x68, 0x50,
  0x7c, 0x46, 0x84, 0x69, 0x44, 0x9b, 0xae, 0x70, 0x8c, 0x80, 0x9d, 0x78,
  0x70, 0xb8, 0x9b, 0x82, 0x56, 0x86, 0xa9, 0x8a, 0x71, 0x7a, 0x83, 0xb3,
  0x9d, 0x91, 0x86, 0x64, 0x76, 0x8b, 0x95, 0x94, 0xb1, 0x91, 0xbe, 0xae,
  0x7a, 0x6c, 0x8e, 0x92, 0x74, 0x88, 0xbc, 0x71, 0x70, 0x8e, 0x7b, 0x81,
  0x84, 0x62, 0xaa, 0x8c, 0x4e, 0x84, 0xa2, 0x7a, 0x71, 0x53, 0x7e, 0x75,
  0x60, 0x6c, 0x90, 0x87, 0x72, 0x6a, 0x91, 0x9e, 0x4e, 0x77, 0x8f, 0x8b,
  0x95, 0x7c, 0x8b, 0x9a, 0x95, 0x84, 0x8f, 0x9a, 0x90, 0xa5, 0x75, 0x87,
  0x82, 0x74, 0x9f, 0x9b, 0x6a, 0x89, 0x68, 0x6f, 0x0f, 0x80, 0x87, 0x7d,
  0x8f, 0x7c, 0x79, 0x67, 0x31, 0x94, 0x8d, 0x86, 0x88, 0x3b, 0x54, 0x85,
  0x3b, 0x9c, 0xa1, 0x5b, 0x56, 0x68, 0x7c, 0x7f, 0x57, 0x9a, 0x77, 0x58,
  0x8c, 0xa2, 0x70, 0x84, 0x62, 0xa4, 0xa9, 0x4e, 0x79, 0x7e, 0x90, 0x52,
  0x6e, 0xa2, 0x6d, 0x4c, 0x7a, 0x83, 0x86, 0x6e, 0x4a, 0x9c, 0x6a, 0x4c,
  0x6d, 0x5f, 0x8d, 0x84, 0x5e, 0x94, 0x83, 0x4d, 0x8c, 0x53, 0xa1, 0x7d,
  0x40, 0xb7, 0x7d, 0x66, 0x5d, 0x60, 0x9b, 0x83, 0x69, 0x89, 0x56, 0x75,
  0x92, 0x74, 0x82, 0x73, 0x5f, 0xa1, 0x93, 0x7b, 0x8d, 0x7e, 0x81, 0x97,
  0x8c, 0x85, 0x58, 0x66, 0x86, 0x8b, 0x92, 0xa1, 0x79, 0x8a, 0x80, 0xbf,
  0x7e, 0x99, 0xa3, 0x81, 0x64, 0x7c, 0x5f, 0x85, 0x95, 0x81, 0xa5, 0x97,
  0x61, 0x76, 0x9c, 0x62, 0x85, 0x57, 0xab, 0x79, 0x50, 0x7c, 0x5c, 0x82,
  0x8c, 0x74, 0xb5, 0x9e, 0x4c, 0x74, 0x8e, 0x66, 0x8f, 0x63, 0x7e, 0x74,
  0x75, 0x71, 0xa2, 0x66, 0x76, 0x77, 0xaa, 0x90, 0x8a, 0x7f, 0x91, 0x7d,
  0x87, 0xa2, 0x69, 0x7d, 0x5c, 0x63, 0xad, 0xa6, 0x5d, 0x7a, 0x64, 0x8b,
  0x08, 0x76, 0x9a, 0x97, 0x85, 0x7b, 0x78, 0x5c, 0x1c, 0x96, 0x8b, 0xaa,
  0x67, 0x3b, 0x78, 0x6d, 0x50, 0xa2, 0x5e, 0x82, 0x6e, 0x6f, 0x87, 0x8b,
  0x51, 0x9e, 0x81, 0x75, 0x5f, 0x7c, 0x65, 0x51, 0x61, 0xa8, 0x5c, 0x22,
  0x7c, 0x84, 0x76, 0x60, 0x57, 0xae, 0xa9, 0x41, 0x7c, 0x9e, 0x8e, 0x6d,
  0x5d, 0xad, 0x7c, 0x53, 0x5e, 0x87, 0x68, 0x83, 0x66, 0x99, 0x97, 0x66,
  0x53, 0x6d, 0xa2, 0x94, 0x57, 0xa7, 0x97, 0x4c, 0x9f, 0x53, 0xa1, 0x71,
  0x66, 0xa8, 0x8d, 0x63, 0x7a, 0x84, 0x72, 0x93, 0x56, 0xa8, 0x89, 0x60,
  0x82, 0x7b, 0xad, 0x62, 0x7f, 0x8b, 0x6f, 0x82, 0x73, 0x7a, 0x85, 0x90,
  0x82, 0x7e, 0x94, 0xb1, 0x81, 0x97, 0x86, 0x6b, 0x9d, 0x87, 0x7e, 0x8b,
  0x9d, 0x59, 0x9f, 0xa7, 0x7e, 0x84, 0x6c, 0x7d, 0x71, 0x57, 0xa6, 0x72,
  0x86, 0x7b, 0x86, 0x73, 0x7c, 0x4f, 0x9d, 0x91, 0x86, 0x73, 0x7f, 0x81,
  0x8f, 0x68, 0xa0, 0xa4, 0x97, 0x7a, 0x7d, 0x86, 0x8e, 0x76, 0xaa, 0x7a,
  0x6b, 0x8c, 0x81, 0x6b, 0x9a, 0xa4, 0x9e, 0x87, 0x9f, 0x5d, 0xad, 0x93,
  0x64, 0x87, 0x76, 0x59, 0x2c, 0x7c, 0x79, 0x9e, 0x84, 0x94, 0x86, 0x73,
  0x34, 0xa8, 0x9d, 0xaa, 0x80, 0x3b, 0x9b, 0x8e, 0x4f, 0xb7, 0x8f, 0x58,
  0x54, 0x60, 0x66, 0x82, 0x62, 0xa0, 0xaf, 0x76, 0x5b, 0x80, 0x55, 0x59,
  0x5e, 0xac, 0xac, 0x2c, 0x7d, 0x6a, 0x75, 0x70, 0x76, 0xae, 0x54, 0x3a,
  0x73, 0x93, 0x61, 0x77, 0x4e, 0xb6, 0x61, 0x6a, 0x8e, 0x62, 0x7f, 0x74,
  0x37, 0x98, 0x65, 0x49, 0x3c, 0x4c, 0x9d, 0x72, 0x31, 0xb4, 0x97, 0x1c,
  0x94, 0x7e, 0x7b, 0x5e, 0x5d, 0xa9, 0xa3, 0x68, 0x81, 0x7e, 0x96, 0x69,
  0x75, 0x99, 0x7c, 0x7a, 0x67, 0x7a, 0xc3, 0x74, 0x55, 0x7d, 0xa2, 0x6b,
  0x85, 0x6e, 0x81, 0x9d, 0x51, 0x7d, 0x6e, 0x9a, 0xae, 0x94, 0xb8, 0x7a,
  0x61, 0x7c, 0x8a, 0x72, 0x61, 0x70, 0x8b, 0x9a, 0x73, 0x77, 0x68, 0x61,
  0x9b, 0x4d, 0xbd, 0x8e, 0x9a, 0x73, 0x9c, 0x89, 0x81, 0x6f, 0xc0, 0xa3,
  0x70, 0x71, 0xa4, 0x89, 0x8a, 0x7f, 0x89, 0x9e, 0x76, 0x8b, 0x93, 0x7a,
  0x7c, 0x6d, 0xa1, 0x90, 0x73, 0x70, 0x7f, 0xa1, 0x82, 0xa3, 0xba, 0x9f,
  0x8f, 0x7a, 0x89, 0x84, 0x5a, 0x74, 0x5d, 0x79, 0x1c, 0x84, 0x7a, 0xa5,
  0x6f, 0x8e, 0x8b, 0x68, 0x3b, 0x99, 0xa3, 0xb9, 0x6a, 0x55, 0x87, 0x77,
  0x5b, 0xba, 0xa0, 0x53, 0x65, 0x65, 0x6f, 0x6f, 0x42, 0xbe, 0x7b, 0x4d,
  0x68, 0x79, 0x75, 0x80, 0x5f, 0xc3, 0x8f, 0x2b, 0x63, 0xa5, 0x9a, 0x60,
  0x4b, 0xac, 0x7e, 0x45, 0x84, 0x85, 0x87, 0x6c, 0x78, 0xbf, 0x67, 0x51,
  0x6b, 0x69, 0x6a, 0x59, 0x42, 0xaa, 0x85, 0x55, 0x6e, 0x3e, 0x84, 0xa1,
  0x5f, 0xbd, 0x7e, 0x4f, 0x95, 0x50, 0x80, 0x97, 0x43, 0xa5, 0x5c, 0x38,
  0x8e, 0x86, 0x8c, 0x6b, 0x62, 0xaf, 0x69, 0x40, 0x8a, 0x53, 0xa0, 0x9e,
  0x87, 0x7c, 0x6a, 0x6d, 0x6e, 0x71, 0xa9, 0x8f, 0x44, 0x8e, 0x6d, 0x8a,
  0x75, 0x97, 0x9f, 0x71, 0x79, 0x78, 0x6d, 0xa2, 0xa7, 0x5b, 0x7f, 0x87,
  0x8a, 0x73, 0x86, 0x69, 0x86, 0x7a, 0xb2, 0x9a, 0x6c, 0x7a, 0x98, 0x55,
  0xaa, 0x85, 0x9e, 0xb1, 0x8d, 0x8e, 0x83, 0x96, 0x7e, 0x5c, 0xb2, 0x82,
  0x80, 0x74, 0x9e, 0x85, 0x72, 0x88, 0x94, 0x9e, 0x75, 0x79, 0x8c, 0xa9,
  0x7a, 0x89, 0x79, 0x7b, 0x77, 0x5e, 0x96, 0x5e, 0x6c, 0x93, 0x95, 0x58,
  0x2a, 0x8c, 0x94, 0x8e, 0x82, 0x7a, 0x65, 0x7d, 0x2e, 0x9e, 0x5b, 0x9b,
  0x7a, 0x60, 0x85, 0x79, 0x6f, 0xb1, 0x90, 0x81, 0x7d, 0x3f, 0x76, 0x7e,
  0x70, 0xaf, 0x60, 0x55, 0x43, 0x8a, 0x76, 0x71, 0x51, 0xb0, 0x76, 0x3b,
  0x52, 0x7c, 0x76, 0x6c, 0x7b, 0xcd, 0x74, 0x3a, 0x7a, 0x81, 0x60, 0x48,
  0x7a, 0xab, 0xa8, 0x69, 0x5c, 0x75, 0x8d, 0x74, 0x53, 0xb7, 0x8b, 0x64,
  0x7f, 0x60, 0x7b, 0x85, 0x3b, 0xd3, 0x83, 0x43, 0x8f, 0x66, 0x83, 0x7a,
  0x66, 0xa8, 0x8a, 0x3c, 0x8d, 0x75, 0x77, 0x8b, 0x86, 0xa4, 0x9b, 0x8b,
  0x61, 0x57, 0x8a, 0x57, 0x78, 0x8c, 0xaa, 0x7a, 0x83, 0x9b, 0x9c, 0xa1,
  0x6c, 0x89, 0x82, 0x95, 0x8b, 0x8a, 0x7a, 0x7c, 0x8a, 0x92, 0x73, 0x79,
  0x8f, 0x4f, 0xb1, 0xa7, 0x69, 0x7a, 0x92, 0x71, 0x70, 0x65, 0x96, 0xa5,
  0x79, 0x7d, 0x68, 0x87, 0x78, 0x76, 0xb2, 0xaa, 0x91, 0x83, 0x6d, 0x6f,
  0x6c, 0x5d, 0xbe, 0x98, 0x6d, 0x85, 0x5d, 0x73, 0x8b, 0x79, 0xad, 0x95,
  0x85, 0x85, 0xb3, 0x6c, 0x9f, 0x93, 0xb4, 0x5d, 0x96, 0x73, 0x94, 0x73,
  0x54, 0x69, 0x5f, 0x62, 0x18, 0x9b, 0x75, 0xa0, 0x51, 0x7f, 0x83, 0x74,
  0x3c, 0x96, 0x7f, 0x8d, 0x5d, 0x4f, 0x58, 0x6d, 0x4f, 0xb6, 0x5d, 0x86,
  0x6c, 0x53, 0x75, 0x81, 0x37, 0x9f, 0x5f, 0x4e, 0x65, 0x7b, 0x8f, 0x7a,
  0x67, 0xa2, 0x9b, 0x16, 0x6c, 0x98, 0x7b, 0x58, 0x5b, 0xc7, 0x8b, 0x25,
  0x55, 0x89, 0x96, 0x91, 0x4f, 0xbb, 0x6d, 0x6d, 0x84, 0x7d, 0x83, 0x7f,
  0x62, 0xb0, 0x69, 0x24, 0x47, 0x4f, 0x7e, 0x71, 0x56, 0xaa, 0x8a, 0x3d,
  0x8a, 0x63, 0x7a, 0x87, 0x66, 0x9d, 0x5b, 0x3b, 0x7d, 0x82, 0xa8, 0x92,
  0x7b, 0xaf, 0x9e, 0x53, 0x64, 0x92, 0x9d, 0x6c, 0x6d, 0x72, 0x5c, 0x7f,
  0x81, 0x98, 0x93, 0xa2, 0x72, 0x8b, 0x6d, 0x83, 0x8b, 0x8c, 0x77, 0x75,
  0x7c, 0x82, 0x83, 0x75, 0x96, 0x60, 0x9b, 0x70, 0x7b, 0x94, 0x83, 0x7a,
  0x79, 0x74, 0xcb, 0x8f, 0x7f, 0x9c, 0x95, 0x50, 0x6a, 0x5a, 0xa4, 0x90,
  0x71, 0x75, 0x86, 0x72, 0x7c, 0x84, 0xb3, 0x80, 0x86, 0x6e, 0x9d, 0x5f,
  0x93, 0x86, 0xbb, 0xa8, 0xa5, 0x96, 0x99, 0x80, 0xa8, 0xb5, 0x94, 0x6a,
  0x70, 0x61, 0xa3, 0x5b, 0x67, 0xa1, 0x77, 0x86, 0x29, 0x7b, 0x72, 0x97,
  0x85, 0x8a, 0x54, 0x74, 0x1d, 0xa6, 0x66, 0x9b, 0x58, 0x57, 0x6d, 0x5b,
  0x43, 0xa2, 0x91, 0x77, 0x68, 0x48, 0x6e, 0x8a, 0x59, 0xac, 0x9c, 0x51,
  0x3e, 0x92, 0x78, 0x77, 0x5e, 0xb7, 0x94, 0x36, 0x60, 0x8b, 0x76, 0x79,
  0x41, 0xc5, 0x5b, 0x66, 0x56, 0x67, 0x74, 0x50, 0x7c, 0xc7, 0x7e, 0x56,
  0x79, 0x6f, 0x8d, 0x70, 0x6b, 0xa7, 0x78, 0x2a, 0x7d, 0x6d, 0x7a, 0x88,
  0x48, 0xa3, 0x65, 0x42, 0x68, 0x75, 0x7f, 0x8b, 0x5a, 0xa3, 0x6e, 0x45,
  0x74, 0x95, 0x84, 0x7a, 0x70, 0xa2, 0x7e, 0x5a, 0x7d, 0x72, 0xa1, 0x81,
  0x79, 0x8e, 0x64, 0x7d, 0xa6, 0x92, 0x99, 0x97, 0x5a, 0x8a, 0x80, 0xb7,
  0x65, 0x97, 0x9e, 0x75, 0x67, 0x7a, 0xb0, 0x57, 0x7d, 0x86, 0xb8, 0x93,
  0x7c, 0x7f, 0x68, 0x5c, 0x7d, 0x5c, 0x7a, 0x97, 0x77, 0x90, 0x92, 0x63,
  0x87, 0x83, 0x92, 0x93, 0x9a, 0x95, 0x7e, 0x62, 0x6b, 0x8a, 0x86, 0x7d,
  0x70, 0x6d, 0x92, 0x61, 0x59, 0x90, 0x9b, 0xb0, 0x8e, 0x82, 0x9a, 0x85,
  0x69, 0xc1, 0x84, 0x92, 0x84, 0x71, 0x90, 0x6d, 0x43, 0x85, 0x82, 0x5a,
  0x22, 0x79, 0x77, 0x90, 0x45, 0x88, 0x4b, 0x76, 0x1f, 0xae, 0xa7, 0x88,
  0x62, 0x40, 0x59, 0x4d, 0x2d, 0xbf, 0x9a, 0x4d, 0x3d, 0x3b, 0x85, 0x50,
  0x51, 0xaf, 0x8b, 0x50, 0x46, 0x89, 0x5e, 0x70, 0x53, 0xc8, 0x76, 0x2c,
  0x56, 0x72, 0x73, 0x5c, 0x58, 0xe6, 0x8f, 0x34, 0x7f, 0x7a, 0x77, 0x44,
  0x54, 0xb3, 0x61, 0x3b, 0x6c, 0x4c, 0x87, 0x71, 0x32, 0xaa, 0x8e, 0x41,
  0x95, 0x50, 0x8d, 0x84, 0x4f, 0xb6, 0xa0, 0x26, 0x69, 0x67, 0x74, 0x95,
  0x69, 0xad, 0x7d, 0x3e, 0x6d, 0x71, 0x6b, 0x94, 0x4f, 0xa6, 0x80, 0x5a,
  0x78, 0x51, 0x79, 0x7f, 0x82, 0x95, 0x6d, 0x75, 0x76, 0x8b, 0x84, 0x79,
  0x7e, 0x8e, 0x7a, 0x8f, 0x86, 0x94, 0x95, 0x87, 0x6c, 0x95, 0x78, 0x67,
  0x92, 0x64, 0x9f, 0x8f, 0x53, 0x9b, 0x93, 0x82, 0x8c, 0x55, 0xbd, 0xa9,
  0x8c, 0x8f, 0x84, 0x53, 0x74, 0x72, 0x76, 0xb0, 0x7a, 0x81, 0x7e, 0x83,
  0x80, 0x7e, 0xae, 0x9a, 0x7c, 0x6e, 0x87, 0x68, 0x82, 0x7f, 0x9d, 0x8f,
  0x7a, 0x90, 0x9d, 0x9f, 0x68, 0x95, 0xb3, 0x6b, 0x84, 0x50, 0x71, 0x77,
  0x4f, 0x91, 0x6b, 0x50, 0x39, 0xbe, 0x94, 0x94, 0x6f, 0x9d, 0x8b, 0x33,
  0x42, 0xb0, 0x7b, 0x9f, 0x7a, 0x6b, 0x59, 0x32, 0x3b, 0xcc, 0x70, 0x8c,
  0x4d, 0x42, 0x86, 0x54, 0x3f, 0xdf, 0x7b, 0x58, 0x54, 0x93, 0x68, 0x2e,
  0x5d, 0xdd, 0x7c, 0x4e, 0x45, 0x9d, 0x64, 0x46, 0x55, 0xdd, 0x94, 0x44,
  0x67, 0x8c, 0x7e, 0x69, 0x5e, 0xce, 0x8b, 0x35, 0x75, 0x5b, 0x8f, 0x50,
  0x77, 0xb6, 0x50, 0x3c, 0x66, 0x5b, 0x73, 0x7d, 0x6e, 0xb6, 0x6d, 0x3f,
  0x63, 0x81, 0x57, 0x71, 0x68, 0xc1, 0x7b, 0x3a, 0x65, 0x67, 0x96, 0x73,
  0x8f, 0xb7, 0x99, 0x58, 0x5f, 0x8b, 0x86, 0x6a, 0x68, 0x8e, 0x88, 0x3f,
  0x70, 0xb6, 0xa0, 0x64, 0x56, 0x90, 0x7e, 0x80, 0x9f, 0x6f, 0x8e, 0x5f,
  0x61, 0x87, 0x8e, 0x78, 0x9a, 0x4e, 0x6b, 0x84, 0x99, 0x9d, 0x73, 0x6a,
  0xa2, 0x41, 0x7c, 0xa4, 0x95, 0x86, 0x70, 0x69, 0x8d, 0x62, 0x9b, 0x98,
  0x86, 0x9b, 0x75, 0x71, 0x91, 0x77, 0x8a, 0x99, 0x87, 0x79, 0x85, 0x57,
  0x90, 0x87, 0x80, 0x8c, 0x74, 0x97, 0xa6, 0x5f, 0x6a, 0x94, 0xa1, 0x68,
  0x7c, 0x72, 0x69, 0x67, 0x8b, 0x98, 0x97, 0x53, 0x48, 0xcc, 0x83, 0x93,
  0x73, 0xdb, 0x63, 0x5e, 0x6d, 0xff, 0x9d, 0xbe, 0x6a, 0x92, 0xa3, 0x44,
  0x8e, 0xd2, 0x5b, 0x77, 0x48, 0x8a, 0x80, 0x42, 0x90, 0xe3, 0x5f, 0x88,
  0x7f, 0xa8, 0x8e, 0x55, 0xc1, 0xe9, 0x56, 0x64, 0x33, 0x99, 0x74, 0x5d,
  0x77, 0xf3, 0x78, 0x8b, 0x6c, 0xa7, 0x8f, 0x58, 0x99, 0xf1, 0x8b, 0x4c,
  0x68, 0x80, 0x64, 0x72, 0x99, 0xd0, 0x88, 0x59, 0x64, 0x62, 0x7e, 0x88,
  0x62, 0xc0, 0x97, 0x54, 0x79, 0x8e, 0x99, 0x7d, 0x99, 0xbd, 0x73, 0x65,
  0x6b, 0xa8, 0x7d, 0x85, 0x8a, 0xc0, 0x76, 0x4a, 0x77, 0x83, 0xb3, 0x82,
  0x72, 0xa0, 0x8e, 0x8b, 0x81, 0xb6, 0x56, 0x90, 0x86, 0x81, 0x8a, 0x6f,
  0x8a, 0xa4, 0x99, 0x77, 0x84, 0xaf, 0x9a, 0x93, 0x96, 0x81, 0xb1, 0x9c,
  0x78, 0xba, 0x6a, 0x6c, 0x77, 0x48, 0x52, 0x8d, 0x87, 0xb0, 0x73, 0x65,
  0x72, 0x5f, 0x5a, 0xa6, 0xa0, 0x98, 0xa5, 0x70, 0x92, 0xaf, 0x81, 0x97,
  0x91, 0x78, 0x95, 0x64, 0x9d, 0x94, 0x82, 0x8c, 0x8b, 0x7d, 0x92, 0x91,
  0x8d, 0xac, 0xa6, 0x8c, 0x6e, 0x79, 0xa0, 0x95, 0x71, 0x77, 0x56, 0x3c,
  0x5f, 0xc6, 0x84, 0xb7, 0x80, 0xb2, 0x9e, 0x5b, 0x65, 0xdc, 0x86, 0xb1,
  0x84, 0x86, 0x82, 0x49, 0x7b, 0xd2, 0x79, 0xaa, 0x75, 0x7b, 0x91, 0x26,
  0xb2, 0xc0, 0x9a, 0xd4, 0x83, 0x8f, 0x6c, 0x3f, 0x6c, 0xe6, 0x7d, 0x82,
  0x70, 0x90, 0x57, 0x40, 0xb1, 0xef, 0x93, 0x78, 0x55, 0x8e, 0x85, 0x33,
  0x7c, 0xd1, 0x71, 0xa7, 0x6a, 0x77, 0x81, 0x55, 0x6a, 0xbf, 0x5f, 0x87,
  0x73, 0x66, 0x80, 0x50, 0x7f, 0xe9, 0x82, 0x97, 0x85, 0xb1, 0x59, 0x5f,
  0xa9, 0xd1, 0x83, 0xa1, 0x64, 0x9a, 0x78, 0x80, 0x7d, 0xb9, 0x99, 0x7f,
  0x67, 0x94, 0x5d, 0x7e, 0x9e, 0x96, 0x9b, 0x83, 0x80, 0xa9, 0x73, 0x56,
  0x83, 0x9d, 0x74, 0x98, 0xa3, 0x90, 0x71, 0x5c, 0x98, 0x81, 0x7e, 0x79,
  0x86, 0x8f, 0xa1, 0x78, 0x80, 0xa2, 0x81, 0x7b, 0x94, 0x38, 0x6d, 0x8d,
  0x91, 0xa8, 0x5f, 0x9d, 0xaa, 0x85, 0x94, 0xa5, 0x85, 0x95, 0x81, 0x96,
  0x6e, 0x8f, 0x8c, 0xc5, 0x6e, 0x84, 0x78, 0x71, 0x7d, 0x8e, 0x8e, 0x94,
  0x83, 0x75, 0xb5, 0x70, 0x98, 0x8e, 0xa1, 0xad, 0xa3, 0x80, 0x80, 0x62,
  0x7d, 0x82, 0x89, 0x72, 0x76, 0x85, 0x56, 0x89, 0x93, 0x68, 0xa3, 0x74,
  0x88, 0x80, 0x88, 0x8e, 0x95, 0x96, 0xa0, 0x67, 0x81, 0x73, 0x96, 0x89,
  0x65, 0x98, 0xa5, 0x97, 0x85, 0x87, 0x9a, 0x5f, 0x79, 0x66, 0x8b, 0x93,
  0x74, 0x89, 0xb4, 0x83, 0x58, 0x95, 0x8f, 0x8e, 0x7a, 0x80, 0xa0, 0x8a,
  0x84, 0x77, 0x94, 0x6c, 0x8d, 0x75, 0x71, 0x8f, 0x72, 0x8a, 0x90, 0xaa,
  0x7e, 0x9b, 0x5a, 0x8e, 0x98, 0x6d, 0x91, 0x8a, 0x7a, 0x7b, 0x6c, 0x74,
  0x8a, 0x5c, 0x97, 0x8a, 0x82, 0xa6, 0xa8, 0x7b, 0xa0, 0x73, 0x8f, 0x79,
  0x80, 0x85, 0xb4, 0x96, 0x7c, 0x67, 0x95, 0x5f, 0x95, 0x76, 0x6a, 0x79,
  0x75, 0x9b, 0x93, 0x95, 0x70, 0x7d, 0x6f, 0xab, 0x74, 0x72, 0x94, 0x72,
  0x7a, 0x8b, 0x90, 0x5d, 0x79, 0x8d, 0x99, 0x62, 0x71, 0x8e, 0x90, 0x7f,
  0x5c, 0x85, 0x8f, 0x5c, 0x6d, 0x7e, 0x75, 0x5e, 0x74, 0x94, 0x93, 0x7f,
  0x73, 0x99, 0x73, 0x90, 0x74, 0x91, 0xa0, 0x8b, 0x75, 0x86, 0x7a, 0x89,
  0x6b, 0x79, 0x8f, 0x6c, 0x5e, 0x77, 0x78, 0x89, 0x84, 0x81, 0x75, 0x5d,
  0x6c, 0x85, 0x75, 0x81, 0x82, 0x6f, 0x85, 0x75, 0x8f, 0x83, 0x8d, 0x95,
  0x67, 0x94, 0x7b, 0x7f, 0x8f, 0x84, 0x84, 0x97, 0x5d, 0x66, 0x90, 0x61,
  0x94, 0xa0, 0xb1, 0x79, 0x8f, 0xa8, 0x8c, 0x64, 0x8c, 0x81, 0x85, 0x7e,
  0xa3, 0x96, 0x8d, 0x73, 0x80, 0x95, 0x6a, 0x7c, 0x67, 0x66, 0x82, 0x6f,
  0x75, 0x9a, 0xa1, 0x76, 0x66, 0x58, 0x5c, 0x84, 0x8b, 0x9c, 0x65, 0x97,
  0x7d, 0xa3, 0x83, 0x69, 0x85, 0x83, 0x8e, 0x51, 0x8c, 0x6b, 0x83, 0x77,
  0x73, 0x81, 0x5b, 0x66, 0x95, 0xa0, 0x81, 0x78, 0x98, 0x7c, 0xa3, 0xa6,
  0x74, 0x96, 0x95, 0x7f, 0x87, 0x7d, 0x87, 0x89, 0x94, 0xa3, 0x79, 0x91,
  0x8b, 0x87, 0xab, 0x6c, 0xa1, 0x80, 0x85, 0x99, 0x79, 0x79, 0x71, 0x7e,
  0x76, 0x74, 0x7b, 0x7d, 0x80, 0x95, 0x73, 0x9e, 0xa3, 0x65, 0x91, 0x8f,
  0x79, 0x8d, 0x7f, 0x8d, 0x76, 0x69, 0x7e, 0x6f, 0x7d, 0x88, 0x79, 0x7f,
  0x93, 0x96, 0x9b, 0x7a, 0x75, 0x89, 0x6f, 0x7d, 0xa8, 0x87, 0x88, 0x77,
  0x7b, 0x85, 0x64, 0x89, 0x95, 0xa8, 0x7d, 0x8b, 0x6c, 0x7d, 0x6a, 0x82,
  0x7d, 0x7c, 0x6a, 0x6d, 0x78, 0x73, 0x91, 0x7f, 0x8c, 0xa4, 0x72, 0x74,
  0x82, 0xa8, 0x69, 0x81, 0x8f, 0x92, 0x76, 0x98, 0x93, 0x86, 0x89, 0x63,
  0x5f, 0x73, 0x84, 0xa5, 0xaa, 0x96, 0x84, 0x7f, 0x8e, 0x7b, 0x97, 0xa1,
  0x9f, 0x7f, 0x6b, 0x68, 0x5e, 0x7a, 0x99, 0x65, 0x8a, 0x8c, 0x91, 0x8e,
  0x91, 0x88, 0x67, 0x90, 0x7e, 0x87, 0x76, 0xa9, 0x83, 0x77, 0x71, 0x94,
  0x6a, 0xa6, 0x60, 0x85, 0x6a, 0x6f, 0x7a, 0x88, 0x9b, 0x78, 0x8d, 0x66,
  0xa0, 0x93, 0x73, 0x6e, 0x82, 0x7a, 0x8f, 0xb0, 0xa0, 0x4c, 0x79, 0x8a,
  0xab, 0x92, 0x7e, 0x7e, 0xa8, 0x6b, 0x7c, 0x92, 0x99, 0x6d, 0x6f, 0x8e,
  0x6a, 0xaf, 0x8f, 0x90, 0x8f, 0x91, 0x85, 0x92, 0x8e, 0x5a, 0x61, 0x91,
  0x8a, 0x93, 0x65, 0x71, 0x95, 0x7f, 0x7b, 0x8e, 0x82, 0x72, 0x91, 0x71,
  0x83, 0x85, 0x9b, 0x7f, 0x80, 0x93, 0x8d, 0x7f, 0x7b, 0x91, 0x74, 0x92,
  0x85, 0x85, 0x81, 0x7b, 0x6c, 0x98, 0xa3, 0x8a, 0x92, 0x83, 0x74, 0x8f,
  0x9b, 0x86, 0x95, 0x7d, 0x89, 0x82, 0x5f, 0x7f, 0xa7, 0x7a, 0x99, 0xa7,
  0x6b, 0x80, 0x93, 0x81, 0xa2, 0x76, 0x8d, 0x98, 0x6f, 0x90, 0x84, 0x7c,
  0x91, 0x7f, 0x79, 0x61, 0x8f, 0x8b, 0x99, 0x77, 0x87, 0x62, 0x8f, 0x78,
  0x8b, 0x81, 0x72, 0x76, 0x86, 0xb1, 0x72, 0x73, 0xbe, 0x97, 0x69, 0x97,
  0x8d, 0xa2, 0x69, 0x90, 0x9c, 0x8d, 0x77, 0x7d, 0x54, 0x7d, 0x74, 0x87,
  0x6c, 0x65, 0x99, 0x5d, 0x6e, 0x82, 0x86, 0x7a, 0x7e, 0x87, 0x98, 0xa5,
  0x88, 0x8c, 0x77, 0x6b, 0x74, 0x76, 0x6e, 0x74, 0x8b, 0x90, 0x70, 0x82,
  0x67, 0x6d, 0x8e, 0x63, 0x6b, 0x6c, 0x81, 0x86, 0x94, 0x59, 0x60, 0x92,
  0x95, 0x7e, 0x81, 0x90, 0xbe, 0x6b, 0x96, 0x54, 0x65, 0x76, 0x91, 0x86,
  0xa2, 0x7c, 0x93, 0x6c, 0x81, 0x5b, 0x6d, 0xa5, 0x94, 0x6c, 0x89, 0x83,
  0x84, 0x9e, 0x93, 0x7c, 0x91, 0x6d, 0x8e, 0x71, 0x75, 0x86, 0x83, 0x85,
  0x87, 0x86, 0x83, 0x9c, 0x4e, 0x52, 0x8b, 0x8f, 0x6c, 0x71, 0x7f, 0x9a,
  0x59, 0x75, 0x87, 0x7b, 0xae, 0x78, 0xa8, 0x87, 0x60, 0xad, 0x63, 0x65,
  0x9e, 0x63, 0x61, 0x6d, 0x69, 0xaa, 0x92, 0x7d, 0x7a, 0x7c, 0x7f, 0x99,
  0x6a, 0x6e, 0x80, 0x90, 0x7c, 0x76, 0x81, 0x74, 0x7a, 0x87, 0x60, 0xa4,
  0x92, 0x82, 0x89, 0x73, 0x8c, 0x9f, 0x91, 0x73, 0x93, 0x91, 0x6f, 0x7a,
  0x8b, 0x63, 0x8c, 0x65, 0x9c, 0x82, 0xb0, 0x66, 0x84, 0x99, 0x9d, 0x98,
  0xae, 0x77, 0x85, 0x5f, 0x98, 0xa0, 0x82, 0x83, 0x88, 0x74, 0x82, 0x78,
  0x64, 0x76, 0x84, 0x96, 0x63, 0x56, 0x6a, 0x9a, 0x4a, 0x7b, 0x69, 0x68,
  0x64, 0x6c, 0x86, 0xaa, 0x76, 0x90, 0x67, 0x77, 0x6b, 0x7b, 0x55, 0x64,
  0x73, 0x9b, 0x78, 0x90, 0x8d, 0x84, 0x9c, 0x6d, 0xa7, 0x7e, 0x6f, 0x8e,
  0xa4, 0x5e, 0x74, 0x8d, 0x95, 0x69, 0x84, 0x98, 0xc2, 0x77, 0x83, 0x7c,
  0x88, 0x76, 0x74, 0x81, 0xac, 0x87, 0x56, 0x84, 0x9d, 0x66, 0x8f, 0x97,
  0x89, 0x81, 0x8c, 0x88, 0x81, 0x82, 0x78, 0x7f, 0xa3, 0x3c, 0x75, 0x91,
  0x5b, 0x66, 0x5f, 0x7d, 0x89, 0x52, 0x97, 0x80, 0x4c, 0x8f, 0x76, 0x80,
  0x83, 0x59, 0x7e, 0x7e, 0x61, 0x9b, 0x85, 0x8f, 0xb2, 0x60, 0x7f, 0x8f,
  0x75, 0x99, 0x85, 0x68, 0x96, 0x68, 0x83, 0x5a, 0x6d, 0x96, 0x89, 0x6c,
  0x87, 0x69, 0x9f, 0x8c, 0x93, 0x7c, 0x8b, 0x57, 0x6e, 0x5b, 0x7c, 0x6a,
  0x5c, 0x90, 0x89, 0xa9, 0x90, 0x8c, 0x9e, 0x6b, 0x90, 0x90, 0x96, 0x7f,
  0xb2, 0x83, 0x75, 0x89, 0x9b, 0x68, 0xb3, 0x79, 0x9e, 0x6f, 0x97, 0x7a,
  0x62, 0x9d, 0x76, 0x95, 0xa2, 0x91, 0x79, 0x80, 0xa7, 0xc8, 0x74, 0x8a,
  0xa7, 0x70, 0x6a, 0x84, 0x64, 0x9f, 0x88, 0x90, 0x90, 0x74, 0x7f, 0x8d,
  0x71, 0x90, 0x68, 0x8c, 0x5b, 0x67, 0x7e, 0x8d, 0x81, 0x89, 0x6b, 0x91,
  0x56, 0x6a, 0x7c, 0x6a, 0x93, 0x88, 0x73, 0xa4, 0x8d, 0x75, 0x6f, 0x91,
  0xa0, 0xa4, 0x7d, 0x94, 0xc3, 0x6f, 0x6b, 0x72, 0x8b, 0x85, 0x80, 0x5c,
  0xa8, 0x70, 0x85, 0x92, 0x9b, 0x95, 0x50, 0x95, 0xa4, 0x89, 0x8b, 0x97,
  0x88, 0x93, 0x60, 0x94, 0xa1, 0x60, 0x95, 0x97, 0x52, 0x90, 0x7d, 0x6a,
  0xa1, 0x4e, 0x9e, 0x9b, 0x5b, 0xa1, 0x7f, 0x85, 0x97, 0x55, 0x63, 0x78,
  0x7b, 0x9a, 0x8d, 0x81, 0x87, 0x83, 0x62, 0x98, 0x6a, 0xac, 0x6e, 0x92,
  0x9f, 0x6e, 0x84, 0x9f, 0x6b, 0x9b, 0x86, 0x6c, 0xa8, 0x5f, 0x88, 0x86,
  0x8d, 0xa2, 0x8b, 0x7f, 0xae, 0x5f, 0x65, 0x6f, 0x6a, 0x76, 0x82, 0x91,
  0x76, 0x72, 0xa7, 0x6b, 0x89, 0x76, 0x90, 0xa7, 0x87, 0x72, 0x72, 0x90,
  0x9c, 0x82, 0x78, 0x5c, 0x84, 0x7a, 0x85, 0x8c, 0xa0, 0x5a, 0x9c, 0x82,
  0xaa, 0x8b, 0x7f, 0x68, 0x88, 0xa4, 0x81, 0x85, 0xa3, 0x9d, 0x7b, 0x7a,
  0x8e, 0xc5, 0x84, 0x87, 0x9f, 0x89, 0x6a, 0x80, 0x8f, 0x6e, 0x6e, 0x94,
  0x77, 0x79, 0x74, 0x84, 0x54, 0x8c, 0x6c, 0x84, 0x6a, 0x72, 0x69, 0x94,
  0x86, 0x9e, 0x66, 0x8a, 0x6a, 0x73, 0x44, 0x6f, 0xb6, 0x99, 0x6b, 0xa1,
  0x73, 0x8a, 0x58, 0x96, 0xaa, 0xa7, 0x96, 0xa8, 0xa6, 0x80, 0x91, 0x80,
  0x93, 0x8c, 0x6b, 0x8f, 0xa3, 0x8a, 0x7d, 0x90, 0xad, 0xa8, 0x5d, 0x96,
  0x88, 0x79, 0x6d, 0x92, 0x8a, 0x75, 0x6b, 0x91, 0xb0, 0x6f, 0x9e, 0x8d,
  0x5d, 0x87, 0x7a, 0x8e, 0x9c, 0x51, 0x84, 0x6a, 0x76, 0x8e, 0x5a, 0x81,
  0x96, 0x57, 0x84, 0x75, 0x75, 0x90, 0x8b, 0x71, 0x9e, 0x7d, 0x81, 0x6f,
  0x76, 0xb6, 0x81, 0x8d, 0x82, 0x62, 0x6f, 0xa0, 0x65, 0x9d, 0x6a, 0x76,
  0xbe, 0x6e, 0x78, 0x58, 0x85, 0x9c, 0x6f, 0x73, 0xd1, 0x68, 0x6c, 0x81,
  0x88, 0x7c, 0x95, 0x87, 0x80, 0x6b, 0x8c, 0x78, 0x77, 0x83, 0xb9, 0xa0,
  0x84, 0x8a, 0x76, 0x85, 0x81, 0x6c, 0x85, 0x80, 0x9d, 0x90, 0x86, 0x90,
  0x90, 0x91, 0xac, 0x74, 0xb0, 0x87, 0x78, 0x5b, 0x97, 0xa4, 0x91, 0x7e,
  0xb3, 0x82, 0x51, 0x7e, 0x92, 0xab, 0x6d, 0x90, 0x9b, 0x83, 0x59, 0x6b,
  0x7e, 0x95, 0x6a, 0x88, 0x69, 0x68, 0x8f, 0x9f, 0x68, 0x8f, 0x63, 0x8e,
  0x67, 0x84, 0x79, 0x7e, 0xa1, 0xb1, 0x63, 0xa3, 0x6a, 0x82, 0x51, 0x6b,
  0xc7, 0xab, 0x69, 0x9b, 0x76, 0x77, 0x7d, 0x7d, 0xbc, 0xa1, 0x62, 0xae,
  0x9d, 0x84, 0x60, 0x8c, 0x8a, 0x9a, 0x86, 0x7f, 0xa5, 0x87, 0x8a, 0xa3,
  0xae, 0x97, 0x5b, 0x74, 0xaa, 0x82, 0x64, 0x9e, 0x95, 0x8b, 0x75, 0x7c,
  0x8a, 0x69, 0x7c, 0xa1, 0x5b, 0xa6, 0x73, 0x8a, 0xa3, 0x6a, 0x7c, 0x70,
  0x4d, 0x7d, 0x7f, 0x7f, 0x83, 0x6d, 0x7a, 0x89, 0x8b, 0x9a, 0x76, 0x64,
  0x9a, 0x6b, 0x6e, 0x76, 0x74, 0xb1, 0x6d, 0x86, 0xa0, 0x66, 0x59, 0x80,
  0x6f, 0xaa, 0x6a, 0x54, 0xb8, 0x7a, 0x8f, 0x74, 0x8e, 0xa4, 0x7e, 0x73,
  0xc7, 0x7d, 0x97, 0x8c, 0x6c, 0x52, 0x75, 0x92, 0x93, 0x67, 0x7e, 0x60,
  0x97, 0x83, 0x71, 0x7c, 0xa3, 0x7f, 0x86, 0x93, 0x80, 0x7a, 0x90, 0x70,
  0x9a, 0x7d, 0x74, 0x90, 0xa2, 0x4b, 0xa5, 0x69, 0xa9, 0x8a, 0x8e, 0x6e,
  0x8c, 0x92, 0x8e, 0x80, 0xa2, 0x8c, 0x66, 0x94, 0xb7, 0xa5, 0x67, 0x8d,
  0x92, 0x67, 0x50, 0xb1, 0x6e, 0x93, 0x66, 0x8a, 0x72, 0x63, 0x7f, 0x84,
  0x5c, 0xb8, 0x58, 0x84, 0x83, 0x5c, 0x73, 0x90, 0x95, 0xb7, 0x5d, 0x8c,
  0x58, 0x76, 0x38, 0x79, 0xd6, 0x9f, 0x65, 0xb5, 0x6d, 0x6d, 0x5c, 0x79,
  0xdc, 0x9a, 0x66, 0xaa, 0x96, 0x85, 0x3e, 0x7f, 0x94, 0xb1, 0x5f, 0x86,
  0xad, 0x75, 0x68, 0xa4, 0x9d, 0x9f, 0x6c, 0x95, 0x88, 0x7a, 0x56, 0xac,
  0x87, 0x8f, 0x5b, 0x82, 0x95, 0x7f, 0x85, 0x96, 0x50, 0xa3, 0x6b, 0x86,
  0x95, 0x7b, 0x6c, 0x94, 0x77, 0x82, 0x7a, 0x63, 0x72, 0x88, 0x5d, 0x7f,
  0x75, 0xbe, 0x6d, 0x5f, 0x99, 0x81, 0x78, 0x77, 0x7f, 0xb4, 0x79, 0x6e,
  0xa7, 0x61, 0x9b, 0x90, 0x70, 0xbb, 0x88, 0x50, 0x99, 0x72, 0x67, 0x64,
  0x83, 0xb4, 0x5d, 0x85, 0xd6, 0x72, 0x64, 0x86, 0x5e, 0x69, 0x7d, 0x83,
  0x95, 0x88, 0x6c, 0x8a, 0x62, 0x89, 0xa3, 0x7d, 0x95, 0x8a, 0x75, 0x80,
  0x81, 0x63, 0x88, 0x5f, 0xa8, 0x8e, 0x92, 0x6e, 0x9c, 0x6f, 0x94, 0x7c,
  0xaf, 0x7e, 0x4b, 0x73, 0x8b, 0xac, 0x8b, 0x8c, 0xc7, 0x5d, 0x81, 0xac,
  0xa8, 0xaf, 0x78, 0x86, 0xa2, 0x74, 0x66, 0x92, 0x82, 0x9a, 0x7a, 0x9c,
  0x73, 0x6a, 0x7f, 0x71, 0x63, 0xb5, 0x6f, 0x9e, 0x80, 0x79, 0x79, 0x9e,
  0xac, 0xb8, 0x6e, 0x79, 0x60, 0x74, 0x32, 0xa1, 0xe1, 0xb9, 0x5b, 0xba,
  0x6b, 0x8a, 0x61, 0x86, 0xbb, 0xa3, 0x7a, 0xab, 0xa2, 0x9d, 0x59, 0x82,
  0xae, 0x9c, 0x7f, 0x7d, 0xb3, 0x68, 0x60, 0xa3, 0xa0, 0xb2, 0x6b, 0x85,
  0x9e, 0x79, 0x62, 0x8f, 0x9f, 0x9f, 0x6c, 0x85, 0xb0, 0x84, 0x66, 0x91,
  0x62, 0xbf, 0x74, 0x79, 0x8a, 0x6d, 0x94, 0x89, 0x7a, 0x9c, 0x78, 0x82,
  0x90, 0x70, 0x87, 0x76, 0x7d, 0xad, 0x63, 0x80, 0x90, 0x75, 0x84, 0x80,
  0x7c, 0xac, 0x71, 0x7f, 0xa2, 0x87, 0x5d, 0x9b, 0x60, 0x98, 0x8d, 0x6a,
  0x9b, 0x78, 0x87, 0x7d, 0x7a, 0xb0, 0x79, 0x61, 0xac, 0x64, 0x6c, 0x8c,
  0x72, 0x6c, 0x76, 0x86, 0x87, 0x82, 0x82, 0x79, 0x92, 0x8a, 0xb2, 0x8b,
  0x9c, 0x79, 0x6d, 0x88, 0x8e, 0x88, 0x97, 0x7b, 0x98, 0x83, 0x7b, 0x93,
  0x80, 0x7a, 0x9b, 0x61, 0xb1, 0x7f, 0x5f, 0x79, 0xc1, 0xab, 0x80, 0x8e,
  0xb8, 0x6d, 0x6a, 0x88, 0xa7, 0xac, 0x75, 0x8f, 0x84, 0x61, 0x76, 0x86,
  0x92, 0x97, 0x61, 0x8a, 0x60, 0x75, 0x7d, 0x8e, 0x6f, 0xa5, 0x4d, 0x81,
  0x78, 0x59, 0x5d, 0x99, 0x98, 0xa1, 0x5b, 0x98, 0x6e, 0x6e, 0x31, 0x93,
  0xf4, 0xa2, 0x50, 0xb1, 0x77, 0x7b, 0x42, 0x6e, 0xcf, 0x8d, 0x5c, 0xa6,
  0x8e, 0x88, 0x60, 0x7b, 0xae, 0xaa, 0x6e, 0x73, 0x98, 0x67, 0x5d, 0x89,
  0xa3, 0x9b, 0x78, 0x76, 0x84, 0x7b, 0x46, 0x93, 0x8d, 0x90, 0x70, 0x6d,
  0x7e, 0x61, 0x88, 0x8a, 0x75, 0x9f, 0x60, 0x6e, 0xa1, 0x88, 0x85, 0x7c,
  0x8e, 0xa6, 0x74, 0x72, 0xc7, 0x74, 0x6a, 0x97, 0x94, 0xb5, 0x6b, 0x78,
  0x9b, 0x95, 0x63, 0x9a, 0x7a, 0xc0, 0x5d, 0x8e, 0x88, 0x73, 0x8b, 0x79,
  0x71, 0xbf, 0x6d, 0x74, 0x8d, 0x62, 0x7d, 0x5f, 0x8d, 0x8f, 0x7f, 0x77,
  0xab, 0x8a, 0x65, 0x71, 0x51, 0x6a, 0x96, 0x96, 0x83, 0x85, 0x70, 0x5d,
  0x82, 0x63, 0x87, 0x84, 0x9a, 0x8f, 0x7e, 0x83, 0x9a, 0x5d, 0x96, 0x63,
  0xa4, 0x8c, 0x7b, 0x68, 0xa8, 0x62, 0x85, 0x50, 0xb3, 0x79, 0x5d, 0x79,
  0x96, 0xa6, 0x89, 0x7d, 0x9c, 0x6b, 0x69, 0x7b, 0x92, 0x9b, 0x81, 0x8d,
  0x9e, 0x5b, 0x4f, 0xa5, 0xa3, 0x90, 0x7f, 0x91, 0x75, 0x6a, 0x87, 0x81,
  0x6c, 0xc5, 0x73, 0xa2, 0x72, 0x6e, 0x5c, 0x84, 0xa1, 0xa9, 0x64, 0x8c,
  0x7c, 0x76, 0x42, 0x76, 0xe6, 0x7e, 0x68, 0x9c, 0x68, 0x95, 0x3e, 0x82,
  0xd5, 0x85, 0x53, 0xa2, 0x7e, 0x8e, 0x5e, 0x77, 0xb1, 0xc6, 0x69, 0x7e,
  0xa3, 0x7a, 0x83, 0x8a, 0x9e, 0x83, 0x61, 0x80, 0x86, 0x77, 0x6b, 0x71,
  0x8c, 0xa1, 0x88, 0x81, 0x9e, 0x82, 0x73, 0x8e, 0x6d, 0xa4, 0x62, 0x93,
  0x8b, 0x77, 0x6c, 0x81, 0x86, 0xab, 0x87, 0x78, 0xa1, 0x84, 0x60, 0x8a,
  0x9f, 0xb8, 0x64, 0x7d, 0x8e, 0x6d, 0x87, 0x88, 0x8f, 0xa9, 0x86, 0x6a,
  0xb0, 0x7f, 0x49, 0x85, 0x99, 0xb3, 0x63, 0x63, 0xb0, 0x8a, 0x76, 0x7f,
  0x7c, 0x7f, 0x90, 0x7c, 0x9d, 0x8a, 0x75, 0x69, 0x4b, 0x65, 0x78, 0x94,
  0x8c, 0x6e, 0x62, 0x71, 0x88, 0x8d, 0x71, 0x6e, 0xa1, 0x90, 0x6f, 0x8a,
  0x83, 0x96, 0x9f, 0x71, 0xa9, 0x89, 0x78, 0x87, 0x99, 0x7c, 0xa6, 0x56,
  0xa0, 0x75, 0x5e, 0x75, 0xc4, 0x9a, 0x7f, 0x8e, 0xa6, 0x57, 0x79, 0xaf,
  0xab, 0xbd, 0x68, 0x83, 0x9a, 0x4f, 0x6b, 0xaf, 0x94, 0xa1, 0x8c, 0x9c,
  0x84, 0x68, 0x7b, 0x81, 0x6b, 0xa6, 0x77, 0x87, 0x93, 0x5f, 0x78, 0x8a,
  0x91, 0xc3, 0x5d, 0x90, 0x77, 0x78, 0x26, 0x85, 0xcb, 0x95, 0x5b, 0xb6,
  0x87, 0x81, 0x33, 0x8c, 0xd6, 0xa7, 0x5a, 0xaf, 0x8a, 0x95, 0x61, 0x6f,
  0x97, 0x9f, 0x6a, 0x75, 0xb6, 0x69, 0x66, 0x7b, 0xb6, 0x91, 0x4e, 0x96,
  0x9e, 0x5f, 0x6a, 0x8c, 0x94, 0xa8, 0x75, 0x8b, 0x94, 0x75, 0x8a, 0x7e,
  0x6f, 0x9c, 0x6d, 0x7b, 0x98, 0x74, 0x93, 0x7b, 0x70, 0x96, 0x80, 0x83,
  0x9c, 0x75, 0x4d, 0x78, 0x97, 0xd2, 0x6a, 0x7a, 0xaa, 0x7f, 0x55, 0x80,
  0x9b, 0xb9, 0x63, 0x81, 0x92, 0x8d, 0x7d, 0x8c, 0x8c, 0xa7, 0x6b, 0x69,
  0xa5, 0x64, 0x65, 0x8e, 0x92, 0x90, 0x77, 0x69, 0x9b, 0x8c, 0x8c, 0x72,
  0x53, 0x91, 0x80, 0x81, 0x92, 0x84, 0x6c, 0xa9, 0x92, 0x73, 0x88, 0x7f,
  0x89, 0x90, 0x6f, 0x5d, 0x7e, 0x67, 0xac, 0x84, 0xa6, 0x9c, 0x5d, 0x8c,
  0x97, 0x59, 0xa1, 0x5a, 0xa8, 0x6d, 0x96, 0x8a, 0xa7, 0x90, 0x85, 0x78,
  0x93, 0x69, 0x79, 0x81, 0xae, 0xbc, 0x6d, 0x86, 0xbe, 0x4f, 0x60, 0x9e,
  0xac, 0xb9, 0x67, 0x9c, 0x75, 0x5d, 0x8f, 0xa6, 0x6a, 0xc1, 0x70, 0x8a,
  0x75, 0x74, 0x63, 0xa1, 0x9e, 0xa9, 0x65, 0x7a, 0x83, 0x70, 0x41, 0x9d,
  0xe0, 0xa6, 0x45, 0xae, 0x63, 0x7a, 0x29, 0x7b, 0xd0, 0x96, 0x59, 0x9c,
  0x93, 0x86, 0x6f, 0x84, 0x8f, 0x90, 0x60, 0x8c, 0xc0, 0x8c, 0x43, 0x86,
  0xab, 0x97, 0x69, 0x8a, 0x9d, 0x84, 0x8a, 0x86, 0x99, 0x92, 0x65, 0x89,
  0x9c, 0x7b, 0x68, 0x98, 0x61, 0x91, 0x7f, 0x6e, 0xad, 0x81, 0x7e, 0x95,
  0x71, 0x9a, 0x5f, 0x73, 0x9c, 0x6e, 0x58, 0x8d, 0xac, 0xaf, 0x67, 0x9b,
  0x80, 0x7b, 0x69, 0x87, 0x93, 0xa0, 0x6c, 0x6f, 0x83, 0x7d, 0x81, 0x8f,
  0x7a, 0xbc, 0x78, 0x5f, 0xa6, 0x60, 0x66, 0x82, 0x7c, 0x8e, 0x7f, 0x80,
  0x8a, 0x88, 0x63, 0x4d, 0x60, 0x5d, 0x90, 0x93, 0x94, 0x81, 0x7b, 0x6a,
  0x63, 0x88, 0x89, 0x78, 0x8c, 0x96, 0x88, 0x8b, 0x99, 0x5b, 0xb3, 0x60,
  0xa0, 0x8c, 0x6c, 0x69, 0x97, 0x5b, 0x92, 0x59, 0xb3, 0x75, 0x6a, 0x8e,
  0xac, 0x93, 0x79, 0x84, 0xb1, 0x57, 0x68, 0xa4, 0xa8, 0xa1, 0x88, 0x8f,
  0xa0, 0x53, 0x64, 0xaa, 0xab, 0xa6, 0x89, 0x8b, 0x5e, 0x6a, 0x85, 0xa5,
  0x88, 0xb9, 0x7a, 0x8e, 0x6b, 0x58, 0x6e, 0x99, 0xa8, 0x9f, 0x5a, 0x97,
  0x5c, 0x77, 0x3c, 0x8f, 0xcf, 0x9e, 0x4c, 0xa6, 0x6c, 0x80, 0x41, 0x99,
  0xe0, 0x77, 0x56, 0x9b, 0x8a, 0xaa, 0x79, 0x6a, 0x85, 0xa5, 0x52, 0x86,
  0x9b, 0x74, 0x5e, 0x80, 0xb3, 0xa8, 0x51, 0x84, 0x98, 0x75, 0x76, 0x8f,
  0x9c, 0x98, 0x5e, 0x8b, 0xae, 0x76, 0x6e, 0x7f, 0x5b, 0x9e, 0x67, 0x81,
  0xa3, 0x77, 0x82, 0x80, 0x75, 0xa6, 0x83, 0x78, 0x91, 0x7e, 0x6f, 0x8d,
  0xa0, 0xba, 0x69, 0x80, 0x9e, 0x68, 0x68, 0x8d, 0x8a, 0xc0, 0x68, 0x76,
  0xb6, 0x75, 0x80, 0x95, 0x95, 0xb0, 0x84, 0x6b, 0x9e, 0x74, 0x6d, 0x90,
  0x74, 0x93, 0x63, 0x87, 0xa4, 0x7f, 0x76, 0x87, 0x87, 0x78, 0x8d, 0x87,
  0x9f, 0x75, 0x80, 0x69, 0x95, 0x88, 0x84, 0x78, 0x82, 0x80, 0x6b, 0x9b,
  0x89, 0x60, 0x9a, 0x8e, 0xa2, 0x76, 0x88, 0x87, 0x92, 0x3e, 0xa8, 0x67,
  0xa4, 0x7d, 0x54, 0xa3, 0xba, 0x96, 0x9e, 0x7a, 0x8d, 0x60, 0x79, 0x9f,
  0xbd, 0xbe, 0x84, 0x72, 0xa8, 0x4a, 0x46, 0xc6, 0xa2, 0xa0, 0x88, 0x8c,
  0x77, 0x60, 0x85, 0x9a, 0x6f, 0xc5, 0x7b, 0xa9, 0x6a, 0x5d, 0x74, 0x96,
  0x8f, 0xa6, 0x5f, 0x9d, 0x6e, 0x84, 0x41, 0xa5, 0xe4, 0xaa, 0x5d, 0xb6,
  0x72, 0x92, 0x52, 0xa0, 0xdb, 0x9f, 0x56, 0x9b, 0x83, 0xa3, 0x63, 0x8a,
  0xab, 0x9f, 0x40, 0x8d, 0x82, 0x8e, 0x62, 0x75, 0xa0, 0x90, 0x45, 0x73,
  0x90, 0x77, 0x61, 0x7b, 0x94, 0xa0, 0x62, 0x6a, 0xad, 0x78, 0x84, 0x8e,
  0x62, 0xa4, 0x75, 0x87, 0xa7, 0x6e, 0x90, 0x7c, 0x69, 0x8c, 0x5e, 0x74,
  0x95, 0x81, 0x67, 0x7d, 0x9c, 0x8d, 0x6e, 0x91, 0xa2, 0x7f, 0x68, 0x88,
  0x7a, 0xb5, 0x64, 0x6f, 0xab, 0x7e, 0x78, 0x7c, 0x83, 0xac, 0x68, 0x87,
  0xb5, 0x70, 0x64, 0x89, 0x92, 0x7b, 0x80, 0x84, 0xb6, 0x76, 0x82, 0x69,
  0x77, 0x6d, 0x7c, 0x85, 0xa5, 0x79, 0x6a, 0x55, 0x5f, 0x8a, 0x6a, 0x86,
  0x76, 0x71, 0x7f, 0x5e, 0x89, 0x89, 0xac, 0x7f, 0xc3, 0x6e, 0x5c, 0x7f,
  0xa3, 0x48, 0xb8, 0x67, 0xab, 0x81, 0x79, 0xb6, 0xa8, 0x7c, 0x9e, 0x75,
  0x88, 0x60, 0x92, 0xce, 0x9a, 0xc5, 0x91, 0x82, 0xad, 0x49, 0x62, 0xae,
  0xaa, 0x89, 0x96, 0x80, 0x5e, 0x5f, 0x8c, 0x70, 0x8c, 0xcf, 0x82, 0x83,
  0x5f, 0x69, 0x7b, 0x94, 0x8b, 0xa6, 0x5e, 0x9a, 0x6a, 0x84, 0x5d, 0x9c,
  0xcd, 0x9e, 0x52, 0xab, 0x69, 0x89, 0x41, 0xa3, 0xc3, 0x7c, 0x50, 0xb1,
  0x79, 0x9a, 0x67, 0x62, 0xb2, 0x91, 0x41, 0x75, 0xb7, 0x75, 0x57, 0x8b,
  0x96, 0x86, 0x61, 0x63, 0x92, 0x62, 0x71, 0x89, 0x90, 0x96, 0x63, 0x7a,
  0x82, 0x66, 0x8b, 0x7e, 0x72, 0x9d, 0x6e, 0x8c, 0x8f, 0x5d, 0x7b, 0x82,
  0x80, 0xac, 0x71, 0x7f, 0x9b, 0x76, 0x82, 0x7d, 0x8b, 0x9d, 0x79, 0x9e,
  0x9c, 0x75, 0x63, 0x98, 0x84, 0xba, 0x7c, 0x7f, 0xa9, 0x67, 0x8c, 0x8b,
  0x8e, 0x98, 0x68, 0x7b, 0xbd, 0x71, 0x73, 0x8e, 0x7d, 0x97, 0x7b, 0x88,
  0xac, 0x8b, 0xa5, 0x62, 0x70, 0x7b, 0x63, 0x82, 0xa6, 0x70, 0x73, 0x8b,
  0x7c, 0x87, 0x5c, 0x74, 0x96, 0x9a, 0x95, 0x91, 0x90, 0x87, 0x9d, 0x6d,
  0xaf, 0x69, 0x9c, 0x77, 0xb4, 0x42, 0xa6, 0x5d, 0xd0, 0x7a, 0x8a, 0x99,
  0xb9, 0x7a, 0x7f, 0x85, 0x91, 0x5e, 0x7a, 0xb8, 0x9b, 0xc0, 0x93, 0x7d,
  0x8d, 0x4c, 0x67, 0xba, 0xa1, 0xb2, 0x93, 0xa5, 0x8c, 0x5d, 0x82, 0x97,
  0x82, 0xbf, 0x7f, 0x80, 0x61, 0x51, 0xa9, 0xca, 0xb4, 0xbe, 0x64, 0x87,
  0x56, 0x86, 0x52, 0x9d, 0xc2, 0xa5, 0x55, 0xa4, 0x51, 0x9d, 0x5f, 0x94,
  0xdd, 0x8d, 0x70, 0xa0, 0x5d, 0xa6, 0x3c, 0x72, 0xc6, 0x85, 0x56, 0x8a,
  0x85, 0x69, 0x57, 0x9d, 0xa7, 0x97, 0x41, 0x79, 0x8b, 0x7a, 0x6b, 0x9c,
  0xad, 0x93, 0x70, 0x8c, 0xc0, 0x68, 0x78, 0x78, 0x8b, 0x97, 0x86, 0x78,
  0x8a, 0x84, 0x8a, 0x6e, 0x7e, 0x97, 0x6f, 0x74, 0x83, 0x7d, 0x60, 0xa3,
  0x93, 0x97, 0x62, 0x79, 0x8c, 0x6b, 0x66, 0x8f, 0x84, 0x8f, 0x78, 0x95,
  0x8d, 0x7b, 0x76, 0x6f, 0x94, 0x9e, 0x76, 0x81, 0x99, 0x8a, 0x4d, 0x8f,
  0x7c, 0x77, 0x7d, 0x69, 0x8e, 0x7b, 0x98, 0x87, 0x84, 0x90, 0x81, 0x72,
  0x9e, 0x79, 0x6c, 0x90, 0x57, 0x79, 0x67, 0x80, 0x77, 0x87, 0x79, 0x96,
  0xa6, 0xa0, 0xa6, 0x64, 0xc6, 0x63, 0x51, 0x7d, 0x95, 0x32, 0x92, 0x4b,
  0xbd, 0x7a, 0x64, 0x9a, 0xb7, 0x7e, 0x74, 0x8a, 0x7d, 0x3e, 0x67, 0xbd,
  0xbc, 0xa5, 0x93, 0x73, 0x8a, 0x43, 0x7c, 0xba, 0xb1, 0xa1, 0x69, 0x90,
  0x81, 0x40, 0x6a, 0x8c, 0x93, 0xbc, 0x8c, 0x8d, 0x88, 0x74, 0x7a, 0xaf,
  0xad, 0xb1, 0x65, 0x8e, 0x57, 0x6a, 0x40, 0xa1, 0xca, 0xae, 0x64, 0x98,
  0x5e, 0x8c, 0x55, 0x8d, 0xcd, 0x8f, 0x6b, 0xa1, 0x4b, 0xab, 0x62, 0x81,
  0x9c, 0x9b, 0x41, 0x68, 0x85, 0x5b, 0x7b, 0xa1, 0xb4, 0x8c, 0x60, 0x87,
  0x9e, 0x69, 0x64, 0xa0, 0x97, 0x95, 0x66, 0x87, 0xc7, 0x79, 0x7b, 0x6f,
  0x8d, 0x95, 0x63, 0x9c, 0x96, 0x77, 0x82, 0x90, 0x89, 0xa2, 0x71, 0x77,
  0x97, 0x8d, 0x78, 0x89, 0x98, 0x82, 0x7b, 0x84, 0x75, 0x6c, 0x9b, 0x7f,
  0x90, 0xa7, 0x54, 0x8b, 0x93, 0x78, 0x8a, 0x78, 0x7c, 0x83, 0x8a, 0x71,
  0x83, 0x7d, 0x5b, 0x96, 0x70, 0x6f, 0x7e, 0x81, 0x86, 0x7c, 0x75, 0x7c,
  0x6a, 0x87, 0x81, 0x85, 0xad, 0x86, 0x7f, 0x7b, 0x79, 0x86, 0x7d, 0x95,
  0x70, 0x91, 0x81, 0x6c, 0x8b, 0xa4, 0x90, 0x6d, 0xb5, 0x76, 0x83, 0x80,
  0x93, 0x54, 0x85, 0x73, 0xb5, 0x6c, 0x61, 0x83, 0x9e, 0x84, 0x8f, 0x84,
  0x91, 0x4d, 0x72, 0xc4, 0xb1, 0xc0, 0x6e, 0x70, 0x69, 0x27, 0x46, 0xc2,
  0x9d, 0xa0, 0x7b, 0x87, 0x89, 0x54, 0xa1, 0xbc, 0x8a, 0xb7, 0x65, 0x7d,
  0x6f, 0x78, 0x9b, 0xcf, 0xb3, 0xab, 0x4f, 0x84, 0x9f, 0x95, 0x5b, 0xaa,
  0xcf, 0xa7, 0x5e, 0xb2, 0x5c, 0x99, 0x43, 0xa1, 0xba, 0xaa, 0x56, 0x8d,
  0x4b, 0x91, 0x8b, 0x89, 0xa3, 0x89, 0x63, 0x93, 0x5a, 0x4c, 0x50, 0xad,
  0xa7, 0x93, 0x4b, 0x80, 0xa7, 0x7a, 0x67, 0x92, 0xa9, 0x95, 0x6f, 0x91,
  0x95, 0x6e, 0x80, 0x7a, 0x8c, 0x84, 0x82, 0x86, 0x90, 0x70, 0x76, 0x7a,
  0x83, 0x94, 0x79, 0x75, 0xa2, 0x84, 0x62, 0x9c, 0xa4, 0xbc, 0x72, 0x8c,
  0x70, 0x74, 0x6e, 0x9a, 0x85, 0x8f, 0x68, 0x7d, 0x9e, 0x90, 0x79, 0x91,
  0x85, 0x8a, 0x5f, 0x74, 0x98, 0x69, 0x95, 0x8f, 0x67, 0x82, 0x67, 0x80,
  0x86, 0x76, 0x89, 0x60, 0x72, 0x8a, 0x58, 0x79, 0xaf, 0x8f, 0x9a, 0x80,
  0x59, 0x87, 0x67, 0x7e, 0x73, 0x88, 0x97, 0x9b, 0xb0, 0xa6, 0x77, 0x71,
  0xb8, 0x65, 0x92, 0x83, 0x96, 0x54, 0x84, 0x50, 0xad, 0x75, 0x78, 0x9c,
  0xb5, 0x98, 0x5d, 0x74, 0x7d, 0x34, 0x68, 0xcf, 0xb7, 0xb3, 0x86, 0x71,
  0x5e, 0x2a, 0x8d, 0xc2, 0x92, 0x8d, 0x90, 0x89, 0x6a, 0x52, 0x77, 0x9a,
  0x93, 0xc3, 0x81, 0x91, 0x67, 0x7a, 0x69, 0xbe, 0xb0, 0xaf, 0x59, 0x7e,
  0x6a, 0x94, 0x5f, 0x9c, 0xc6, 0xa0, 0x6a, 0x89, 0x6b, 0x80, 0x7e, 0x9e,
  0xb4, 0xaa, 0x7e, 0x99, 0x53, 0x7e, 0x68, 0xa1, 0xa2, 0x95, 0x68, 0x95,
  0x68, 0x4d, 0x78, 0x8c, 0xaf, 0x8d, 0x74, 0x7d, 0x80, 0x64, 0x52, 0xbe,
  0xb7, 0xba, 0x80, 0x79, 0x7e, 0x7c, 0x5d, 0xa5, 0x8e, 0x92, 0x6d, 0x6b,
  0x89, 0x75, 0x76, 0x97, 0x85, 0xa0, 0x75, 0x73, 0x7d, 0x75, 0x85, 0x72,
  0x76, 0xaf, 0x6c, 0x62, 0x7e, 0x6c, 0x71, 0x91, 0x99, 0x93, 0x67, 0x7b,
  0x7f, 0x7c, 0x65, 0x99, 0x92, 0x98, 0x4f, 0x66, 0x8e, 0x77, 0x71, 0x9b,
  0x70, 0x8e, 0x6f, 0x68, 0xa0, 0x76, 0x96, 0x51, 0x69, 0x7b, 0x7a, 0x90,
  0x87, 0x80, 0x95, 0x86, 0x74, 0x89, 0x57, 0x78, 0x78, 0x8d, 0x94, 0x97,
  0xa4, 0x93, 0x6b, 0x7f, 0xa4, 0x68, 0x88, 0x8a, 0x99, 0x44, 0x8a, 0x60,
  0xb1, 0x6e, 0x75, 0x87, 0xbe, 0x8e, 0x50, 0x57, 0x53, 0x5c, 0x7e, 0xeb,
  0xb9, 0xc0, 0x7b, 0x84, 0x6f, 0x2b, 0x6d, 0xdb, 0x95, 0x80, 0x88, 0x8b,
  0x7f, 0x5f, 0x9d, 0xa4, 0x99, 0xad, 0x7b, 0x80, 0x83, 0x8f, 0x7f, 0xc8,
  0xd1, 0xa1, 0x87, 0x7f, 0x7b, 0x87, 0x80, 0x9a, 0xc8, 0x8e, 0x89, 0x97,
  0x51, 0x90, 0x68, 0x9b, 0xbe, 0xad, 0x8e, 0xae, 0x5a, 0x96, 0x5d, 0xa2,
  0xad, 0x82, 0x7a, 0x9c, 0x7d, 0x6d, 0x82, 0x92, 0xac, 0x7b, 0x67, 0x7f,
  0x62, 0x6d, 0x5d, 0xbc, 0xaa, 0x8a, 0x75, 0x89, 0x8c, 0x87, 0x5b, 0x6f,
  0x7f, 0x6f, 0x5d, 0x7c, 0x79, 0x75, 0x76, 0x8b, 0x86, 0x86, 0x56, 0x66,
  0x71, 0x84, 0x79, 0x88, 0x96, 0x97, 0x6e, 0x96, 0x72, 0x75, 0x99, 0x90,
  0x94, 0x9d, 0x5b, 0x83, 0x91, 0x81, 0x99, 0x8b, 0x8a, 0xa3, 0x50, 0x85,
  0x7c, 0x7c, 0x83, 0x8f, 0x83, 0x84, 0x55, 0x74, 0xb0, 0x73, 0x57, 0x8a,
  0x65, 0x7c, 0x77, 0x81, 0xa0, 0x89, 0x77, 0xa0, 0x5a, 0x71, 0x83, 0x92,
  0x57, 0x68, 0x8e, 0x9f, 0xaa, 0x64, 0x8d, 0x8a, 0x85, 0x70, 0x68, 0xa6,
  0x97, 0x5d, 0x83, 0x76, 0xa9, 0x64, 0x70, 0x74, 0xad, 0x80, 0x7b, 0x92,
  0x6d, 0x61, 0x92, 0xcf, 0xbc, 0x90, 0x8f, 0x8f, 0x4c, 0x4b, 0x8e, 0xc8,
  0xa3, 0xa8, 0x80, 0x8a, 0x72, 0x5b, 0x7b, 0xae, 0xa4, 0xda, 0x6d, 0x94,
  0x7f, 0x85, 0xa0, 0xc9, 0xb9, 0xb7, 0x85, 0x9c, 0x9f, 0xaa, 0x80, 0x9c,
  0xd1, 0xb9, 0x6b, 0x94, 0x98, 0x8e, 0x70, 0x96, 0xc7, 0x95, 0x7c, 0x93,
  0x59, 0x80, 0x6a, 0x90, 0xa9, 0xa2, 0x8a, 0x9c, 0x64, 0x71, 0x92, 0xa8,
  0xba, 0x9a, 0x71, 0x6d, 0x81, 0x87, 0x74, 0x9b, 0x97, 0xaf, 0x68, 0x90,
  0x61, 0x82, 0x6b, 0x96, 0x80, 0x94, 0x65, 0x83, 0x6c, 0x72, 0x65, 0xb0,
  0x92, 0x9c, 0x7e, 0x61, 0x89, 0x81, 0x7b, 0x84, 0x97, 0x90, 0x63, 0x8f,
  0x79, 0x72, 0x75, 0x8d, 0x8f, 0xa7, 0x7a, 0x93, 0x89, 0x75, 0x5a, 0x8f,
  0x9c, 0x9a, 0x70, 0x7b, 0x99, 0x83, 0x70, 0x70, 0x7a, 0x73, 0x65, 0x8a,
  0x85, 0x6a, 0x59, 0x82, 0x55, 0x7d, 0x8a, 0x8b, 0x98, 0x7f, 0x89, 0x8d,
  0x7c, 0x91, 0x50, 0xa0, 0x6e, 0x75, 0x8a, 0x88, 0xa5, 0x52, 0x9f, 0x68,
  0x77, 0x4e, 0xa1, 0x7e, 0x93, 0x48, 0x67, 0xa8, 0xb0, 0x65, 0x7e, 0x62,
  0x95, 0x6f, 0x90, 0x8e, 0x61, 0x33, 0x6b, 0xcf, 0xd0, 0x8e, 0x83, 0x9b,
  0x69, 0x2e, 0x5d, 0xb6, 0xa5, 0x76, 0x6d, 0x9f, 0x9b, 0x67, 0x7a, 0xb7,
  0x8e, 0xd1, 0x6e, 0xac, 0x9e, 0x9a, 0x61, 0x9c, 0xbd, 0xa2, 0x68, 0x80,
  0x94, 0xbb, 0x8e, 0x9e, 0xd7, 0xa4, 0x85, 0xa6, 0x60, 0xa4, 0x63, 0x8b,
  0x9f, 0xae, 0x90, 0x96, 0x84, 0x88, 0x9a, 0x8e, 0x9c, 0x99, 0xab, 0x97,
  0x65, 0x75, 0x62, 0x88, 0xa0, 0x8d, 0x5b, 0x8b, 0x6e, 0x5e, 0x65, 0xa9,
  0xb2, 0x8e, 0x86, 0x8e, 0x84, 0x71, 0x70, 0x8b, 0x7e, 0x82, 0x66, 0x89,
  0x73, 0x62, 0x7c, 0x9a, 0x85, 0xa2, 0x80, 0x82, 0x75, 0x95, 0x72, 0x95,
  0x76, 0xa1, 0x8a, 0x85, 0x6d, 0x91, 0x9e, 0x92, 0x95, 0x95, 0x90, 0x8e,
  0x7d, 0x9e, 0x74, 0x8e, 0x8f, 0x95, 0x72, 0x87, 0x8e, 0x7f, 0x93, 0x88,
  0x91, 0x6e, 0x7f, 0x87, 0xa4, 0x7d, 0x74, 0x85, 0x87, 0x75, 0x53, 0x86,
  0x7f, 0x76, 0x66, 0x70, 0x82, 0x8f, 0x7f, 0x86, 0x54, 0x84, 0x98, 0x8b,
  0x7d, 0x79, 0x5a, 0x71, 0x74, 0x8a, 0x63, 0x83, 0xa1, 0x65, 0xa2, 0x84,
  0x65, 0x41, 0x88, 0x71, 0x8d, 0x7b, 0x83, 0x85, 0xa3, 0x59, 0x77, 0x81,
  0xb2, 0x77, 0x5d, 0x8c, 0x68, 0x42, 0x6a, 0xb7, 0xa9, 0x7a, 0x94, 0xa5,
  0x5d, 0x40, 0x89, 0x7f, 0xa1, 0x8a, 0x7a, 0xaa, 0x8b, 0x6b, 0x64, 0x9d,
  0x8f, 0xb4, 0x91, 0x84, 0x8b, 0x68, 0x72, 0xa8, 0xa4, 0x7a, 0xa6, 0x9f,
  0x93, 0x9a, 0x5f, 0x93, 0x97, 0xaf, 0x64, 0xa1, 0x81, 0x8e, 0x9c, 0x7f,
  0x8d, 0x88, 0x9b, 0x9a, 0x72, 0x6a, 0x7c, 0x71, 0x8c, 0x7c, 0x8b, 0xa6,
  0x67, 0x6f, 0x83, 0x85, 0xa2, 0x87, 0x72, 0x99, 0x88, 0x78, 0x98, 0x75,
  0x8d, 0x92, 0x75, 0x6c, 0x6f, 0x84, 0x8d, 0x7a, 0x8e, 0x9e, 0x8f, 0x79,
  0x72, 0x6a, 0x9a, 0x79, 0x9a, 0x93, 0xa1, 0x94, 0x8d, 0x7d, 0x93, 0x93,
  0xa3, 0xad, 0x6b, 0x9e, 0x72, 0x7e, 0x78, 0x90, 0xaa, 0x98, 0x8a, 0xa3,
  0x51, 0x8c, 0x71, 0x80, 0x62, 0x7b, 0x93, 0xbb, 0x9d, 0x8f, 0x84, 0x76,
  0x50, 0x69, 0x8a, 0x8c, 0x61, 0x6a, 0x94, 0x8e, 0x62, 0x6f, 0x78, 0x80,
  0x74, 0x75, 0x9d, 0x86, 0x90, 0xa5, 0x8f, 0x9e, 0x75, 0x7d, 0x9f, 0x80,
  0x9a, 0x91, 0xbd, 0x9a, 0x89, 0x89, 0x90, 0x80, 0x8c, 0x8b, 0xa8, 0x77,
  0x8a, 0x77, 0x59, 0xa0, 0x91, 0x59, 0xb8, 0x6b, 0x96, 0x8a, 0x93, 0x6a,
  0xa5, 0x9a, 0xa0, 0x81, 0x7f, 0x82, 0xa1, 0x84, 0x6f, 0x73, 0xa0, 0x99,
  0x78, 0x83, 0x59, 0x83, 0x8c, 0x68, 0xa2, 0x75, 0x8b, 0x74, 0x7a, 0x9e,
  0x90, 0x9d, 0x95, 0x63, 0x83, 0xaf, 0x94, 0x83, 0x9a, 0x5c, 0x99, 0x52,
  0x80, 0x92, 0x86, 0x83, 0x6c, 0x94, 0x9a, 0x90, 0x7b, 0xa4, 0xb1, 0x59,
  0xb6, 0x89, 0x9a, 0x83, 0x84, 0x7c, 0x79, 0x9e, 0x6a, 0x9b, 0x93, 0x89,
  0x90, 0x6f, 0x74, 0x6d, 0x66, 0x8d, 0xa4, 0x98, 0x6d, 0x5d, 0x79, 0x8f,
  0x92, 0x77, 0x8d, 0x6f, 0x79, 0x73, 0x81, 0x63, 0x8d, 0xa6, 0x8b, 0x60,
  0x68, 0x74, 0x6c, 0x97, 0x91, 0x8b, 0x95, 0x7d, 0x6a, 0x6f, 0x93, 0x82,
  0xa2, 0x88, 0x94, 0xac, 0x73, 0x7e, 0x5c, 0xa0, 0x87, 0x88, 0xa4, 0x78,
  0x79, 0x61, 0x7e, 0x9f, 0x8a, 0x5e, 0x94, 0x82, 0x60, 0x6a, 0xa5, 0x80,
  0x82, 0x84, 0x7c, 0x8b, 0x6c, 0x78, 0x94, 0x76, 0x71, 0x6b, 0x79, 0x86,
  0x84, 0x76, 0x90, 0x87, 0x9d, 0x7f, 0x8d, 0x89, 0x8d, 0x7f, 0x65, 0x62,
  0x98, 0x60, 0x9e, 0x7e, 0x9d, 0x9b, 0xa6, 0x8c, 0x93, 0x7b, 0xaa, 0x87,
  0x94, 0x77, 0x77, 0xa4, 0x54, 0x98, 0xa3, 0x8c, 0x86, 0x9a, 0x7d, 0xb0,
  0x72, 0x5d, 0x92, 0x88, 0x76, 0x8b, 0x82, 0x74, 0x96, 0x6b, 0x74, 0x9f,
  0x8a, 0x8b, 0x83, 0x70, 0x80, 0x9a, 0x9c, 0x8a, 0x9b, 0x85, 0x65, 0x74,
  0x8c, 0x91, 0x83, 0x91, 0x79, 0x89, 0x97, 0x99, 0x78, 0x7d, 0x83, 0x95,
  0x91, 0x77, 0x77, 0xa7, 0xa0, 0x8b, 0x98, 0x80, 0x80, 0x70, 0x84, 0x69,
  0x84, 0x6d, 0x7d, 0x95, 0x78, 0x88, 0x70, 0x7e, 0x66, 0x6f, 0x87, 0x7f,
  0x7e, 0x75, 0x78, 0x97, 0x7d, 0x78, 0x86, 0x7d, 0x81, 0x79, 0x5d, 0x95,
  0x83, 0x8b, 0x89, 0xaa, 0x76, 0x7c, 0x8a, 0x7b, 0xa0, 0x8f, 0x81, 0x76,
  0x77, 0x81, 0x6d, 0x88, 0x8f, 0x70, 0x95, 0x78, 0x6c, 0x69, 0x9d, 0x61,
  0x8d, 0x77, 0x93, 0x8c, 0x88, 0x7e, 0x69, 0x7c, 0x64, 0x8f, 0x6e, 0x8c,
  0x6e, 0x78, 0x90, 0x66, 0x90, 0x7f, 0x9b, 0x71, 0x7b, 0x9f, 0x71, 0x61,
  0xa4, 0x72, 0x6a, 0x93, 0x86, 0xa3, 0x55, 0x9d, 0xae, 0x70, 0x70, 0x89,
  0x8a, 0x95, 0x6c, 0x6e, 0x9b, 0x5c, 0x86, 0xb0, 0x95, 0x83, 0x84, 0x7a,
  0xc7, 0x86, 0x99, 0x9f, 0xa2, 0x6a, 0x78, 0x69, 0xb7, 0x67, 0x85, 0x71,
  0x9f, 0x77, 0x91, 0x6d, 0xa1, 0x84, 0x7c, 0x8a, 0x80, 0x70, 0x9b, 0xa4,
  0x93, 0x86, 0x82, 0x92, 0x7b, 0x61, 0xb8, 0xa9, 0x93, 0x99, 0x91, 0x91,
  0x9a, 0x77, 0x68, 0x8b, 0x92, 0x64, 0x85, 0x83, 0x70, 0x90, 0x8c, 0x9a,
  0xa5, 0x7b, 0x85, 0x8f, 0x74, 0xa0, 0x87, 0x7e, 0x98, 0x68, 0x78, 0xa3,
  0x68, 0x9a, 0x74, 0x98, 0x5f, 0x84, 0x89, 0x8d, 0x79, 0x81, 0x86, 0x4f,
  0x77, 0x7d, 0x67, 0x7c, 0x74, 0x72, 0x8d, 0xb0, 0x92, 0xa7, 0x86, 0x90,
  0x76, 0x7c, 0xb9, 0x7b, 0x88, 0x89, 0x88, 0x8a, 0x6f, 0x93, 0xad, 0x76,
  0x95, 0x9d, 0x5a, 0xaa, 0x75, 0x9c, 0x8e, 0x8f, 0x94, 0x7b, 0x6b, 0x7f,
  0x95, 0x7d, 0x8c, 0xa9, 0xa8, 0x62, 0x8f, 0x86, 0x81, 0x73, 0x84, 0x85,
  0x6c, 0x82, 0x67, 0x96, 0x69, 0x8f, 0x81, 0x6c, 0x86, 0x74, 0x8e, 0x71,
  0x6e, 0x97, 0x7b, 0x71, 0x96, 0x71, 0x83, 0x8c, 0x8a, 0x85, 0x7b, 0x7c,
  0xa2, 0x66, 0x9d, 0x9a, 0x7f, 0x86, 0x6e, 0x70, 0x9d, 0x75, 0x8b, 0xa9,
  0x9c, 0x77, 0xa3, 0x9e, 0xad, 0xa9, 0x6b, 0xa3, 0x96, 0x70, 0xb5, 0x7d,
  0xb9, 0x89, 0x9b, 0xa8, 0x77, 0x5d, 0x6e, 0x65, 0x97, 0x5e, 0xa4, 0x8b,
  0x75, 0x68, 0xaa, 0x89, 0xa5, 0x74, 0x77, 0x88, 0x92, 0x71, 0x84, 0x91,
  0xab, 0x5d, 0x8f, 0xaa, 0x65, 0x67, 0x8d, 0xb1, 0x8c, 0x66, 0x86, 0x82,
  0x58, 0x6a, 0x8a, 0x86, 0xb9, 0x6d, 0x91, 0x96, 0x64, 0x6b, 0x76, 0x7e,
  0x95, 0x64, 0x86, 0x93, 0x65, 0x85, 0x6d, 0x9c, 0xa8, 0x77, 0x78, 0x98,
  0x75, 0x7e, 0x8b, 0x91, 0x85, 0x93, 0x8b, 0x87, 0x56, 0x78, 0x82, 0x8d,
  0x98, 0x7c, 0x7f, 0x65, 0x6d, 0x77, 0x84, 0x97, 0x9b, 0x6a, 0x87, 0x98,
  0x50, 0x6e, 0x6f, 0x8f, 0x88, 0x7a, 0x76, 0x83, 0x81, 0x90, 0x88, 0x6c,
  0xa0, 0x80, 0x9f, 0x67, 0x76, 0x91, 0x7b, 0x80, 0xa1, 0x72, 0x7b, 0x96,
  0x62, 0x68, 0x91, 0xac, 0x6b, 0x69, 0x6a, 0x83, 0x76, 0x73, 0x70, 0x9f,
  0x93, 0x82, 0x66, 0x8d, 0x8c, 0x71, 0x7e, 0x7b, 0x89, 0x87, 0x84, 0x91,
  0x82, 0x86, 0x82, 0x84, 0xa4, 0x8c, 0x7c, 0xc6, 0x8f, 0x6e, 0x82, 0x7a,
  0xb0, 0x5e, 0x9c, 0xd0, 0x9e, 0x73, 0xa2, 0x8d, 0xb2, 0x7a, 0x80, 0xb3,
  0x97, 0x70, 0xae, 0x84, 0xae, 0x78, 0x99, 0xac, 0x7b, 0x56, 0xae, 0x69,
  0x84, 0x53, 0x89, 0x90, 0x72, 0x56, 0x77, 0x93, 0xa0, 0x4d, 0xa5, 0x91,
  0x9c, 0x5e, 0x83, 0x6d, 0xa8, 0x51, 0x8b, 0xab, 0x92, 0xa3, 0x92, 0x83,
  0xa0, 0x6a, 0x6e, 0x91, 0x67, 0x8f, 0x95, 0x8f, 0x9c, 0x5f, 0x8e, 0xad,
  0x54, 0x5c, 0x9e, 0xa0, 0x82, 0x6f, 0x96, 0x82, 0x7f, 0x79, 0x7f, 0x72,
  0x92, 0x85, 0x82, 0x76, 0x45, 0x8b, 0x9d, 0x7f, 0x86, 0x83, 0x7a, 0x75,
  0x70, 0x78, 0x82, 0x9c, 0x81, 0x7d, 0x5a, 0x79, 0x81, 0x72, 0x7b, 0xa4,
  0x92, 0x92, 0x99, 0x79, 0x60, 0x6c, 0x67, 0x99, 0xa3, 0x6b, 0x8f, 0x9f,
  0x6f, 0xa0, 0x83, 0x7e, 0x89, 0x49, 0x72, 0x8c, 0x70, 0x7c, 0x5c, 0xb0,
  0x6e, 0x7e, 0x71, 0x6d, 0x5d, 0x72, 0x93, 0x65, 0x76, 0x7a, 0x78, 0x67,
  0x66, 0x58, 0x69, 0x59, 0x89, 0x88, 0x70, 0x92, 0x5f, 0x6f, 0x7a, 0x9a,
  0x98, 0x85, 0x95, 0xcd, 0x9e, 0x78, 0x5c, 0x8b, 0xb2, 0x68, 0x8e, 0xd5,
  0x83, 0x74, 0xa9, 0x84, 0xb9, 0x3c, 0x85, 0xf1, 0xb0, 0x7e, 0x87, 0x67,
  0x9f, 0x87, 0x83, 0xcf, 0xc5, 0x6e, 0x91, 0x8e, 0x88, 0x78, 0x8c, 0xae,
  0xa4, 0x82, 0x90, 0x8e, 0x88, 0x6d, 0x83, 0xac, 0x7d, 0x71, 0x6d, 0x60,
  0xa3, 0x45, 0xa8, 0xb0, 0x83, 0x7b, 0x88, 0x7c, 0xaf, 0x2a, 0x9b, 0xba,
  0x90, 0x90, 0x90, 0xab, 0x9b, 0x3d, 0x7e, 0x99, 0x6b, 0x86, 0x8c, 0xbf,
  0x83, 0x5f, 0x80, 0x81, 0x38, 0x7e, 0x80, 0x96, 0x76, 0x57, 0x69, 0x98,
  0x6b, 0x7d, 0x72, 0x8a, 0x85, 0x7a, 0x67, 0x9b, 0x7e, 0x87, 0x9e, 0x6b,
  0x6b, 0x89, 0x8a, 0x77, 0x79, 0x86, 0x9e, 0x96, 0x82, 0x83, 0x77, 0x91,
  0x81, 0x8d, 0x97, 0x7a, 0x83, 0x6b, 0x81, 0x7f, 0x6f, 0x9d, 0xa7, 0xa9,
  0xac, 0x74, 0x6f, 0xad, 0x63, 0x90, 0xa2, 0x9b, 0x9c, 0x5f, 0x62, 0x9c,
  0x73, 0x6d, 0x6c, 0xbf, 0x77, 0x7d, 0x92, 0x8e, 0x7e, 0x93, 0x98, 0x84,
  0x84, 0x73, 0x8b, 0x92, 0x5f, 0x71, 0x84, 0x56, 0x9b, 0x6e, 0x75, 0x98,
  0x58, 0x88, 0x65, 0x79, 0xa5, 0x91, 0x78, 0xc4, 0x65, 0x6b, 0x7c, 0x91,
  0xcf, 0x54, 0x8d, 0xe6, 0x87, 0x83, 0x9f, 0x57, 0xd6, 0x3d, 0x7c, 0xe6,
  0xa5, 0x8b, 0xae, 0x8d, 0x97, 0x5c, 0x88, 0xd4, 0xc8, 0x89, 0x9f, 0x76,
  0x94, 0x5e, 0x70, 0xae, 0x9a, 0x77, 0x81, 0x8f, 0x6d, 0x45, 0x88, 0x96,
  0x94, 0x7c, 0x70, 0x78, 0x83, 0x47, 0xad, 0xa5, 0x8d, 0x7d, 0x95, 0x95,
  0x9b, 0x37, 0x9e, 0xaa, 0x84, 0x8f, 0xa8, 0xb3, 0x84, 0x43, 0x90, 0xa9,
  0x66, 0x8d, 0x85, 0x99, 0x7b, 0x50, 0x76, 0xb1, 0x3a, 0x77, 0x97, 0x74,
  0x80, 0x7a, 0x6f, 0x98, 0x5b, 0x84, 0x94, 0x66, 0x89, 0x79, 0x73, 0x9c,
  0x85, 0x91, 0x7f, 0x76, 0x8e, 0x89, 0x8c, 0xa2, 0x71, 0x8e, 0x9d, 0x8a,
  0x98, 0x6a, 0x69, 0x98, 0x7f, 0x8c, 0x7c, 0x85, 0x92, 0x6d, 0x7f, 0x88,
  0x84, 0x7b, 0x99, 0x77, 0x9a, 0x60, 0x7f, 0xb3, 0x57, 0x7d, 0x61, 0x81,
  0x84, 0x4e, 0x6f, 0xa0, 0x82, 0x8c, 0xab, 0x76, 0x77, 0x56, 0x71, 0x92,
  0x85, 0x89, 0x90, 0x98, 0x93, 0x79, 0x82, 0x90, 0x66, 0x6d, 0x74, 0x71,
  0x87, 0x7a, 0x9d, 0x89, 0x5c, 0x88, 0x83, 0xa8, 0x8e, 0x5b, 0x7a, 0xe9,
  0x72, 0x7c, 0x9d, 0x95, 0xb3, 0x47, 0x73, 0xe7, 0x88, 0x7a, 0x87, 0x6a,
  0xc6, 0x46, 0x8b, 0xdf, 0xb4, 0x8e, 0x7f, 0x5c, 0x91, 0x64, 0x72, 0xdd,
  0xc5, 0x8b, 0xbb, 0x7c, 0x78, 0x7a, 0x8f, 0xa8, 0xa0, 0x7d, 0x94, 0x84,
  0x7c, 0x39, 0x91, 0xa8, 0x80, 0x75, 0x8a, 0x8e, 0x90, 0x4a, 0x9a, 0xc2,
  0x96, 0x8e, 0x7e, 0x73, 0x93, 0x1d, 0x7a, 0xa8, 0x77, 0x8e, 0xc1, 0xc1,
  0x80, 0x3c, 0x79, 0x9c, 0x5f, 0x95, 0x86, 0xa3, 0x64, 0x55, 0xa1, 0x95,
  0x37, 0x7c, 0xa5, 0x92, 0x89, 0x61, 0x61, 0x7c, 0x71, 0x89, 0xa0, 0x79,
  0x91, 0x85, 0x91, 0x7d, 0x6f, 0x6c, 0x6a, 0x57, 0x99, 0x74, 0x6d, 0xa8,
  0x85, 0x89, 0x7b, 0x7b, 0x73, 0x45, 0x8b, 0x91, 0x67, 0x94, 0x9c, 0x77,
  0xab, 0x70, 0x71, 0x83, 0x74, 0x63, 0x86, 0x89, 0x88, 0x6f, 0x67, 0xa6,
  0x74, 0x7e, 0x6f, 0x7e, 0x87, 0x65, 0x73, 0x86, 0x73, 0x92, 0x97, 0x98,
  0x8b, 0x5b, 0x70, 0x9d, 0x8b, 0x91, 0x98, 0x78, 0x71, 0x56, 0x75, 0xa7,
  0x60, 0x78, 0x8f, 0x70, 0x97, 0x83, 0x69, 0x73, 0x6a, 0x7f, 0x80, 0x8b,
  0x88, 0x90, 0x68, 0xe4, 0x74, 0x69, 0x75, 0x98, 0xc2, 0x2a, 0x5e, 0xf2,
  0x84, 0x81, 0x94, 0x74, 0xc5, 0x32, 0x9b, 0xe1, 0xb3, 0x8f, 0xa7, 0x69,
  0x89, 0x61, 0x83, 0xd2, 0xce, 0x7f, 0xa3, 0x49, 0x61, 0x50, 0x78, 0xa0,
  0xb2, 0x6e, 0x9b, 0x9c, 0x6d, 0x33, 0x77, 0x91, 0x9c, 0x75, 0x7d, 0x7f,
  0x93, 0x36, 0x9e, 0xa7, 0x9c, 0x8a, 0x78, 0xa0, 0xa5, 0x1c, 0x7c, 0xa8,
  0x7c, 0x83, 0x8c, 0x98, 0x8d, 0x35, 0x71, 0xb2, 0x6b, 0x91, 0x96, 0x88,
  0x5e, 0x63, 0x76, 0x99, 0x44, 0x71, 0xa1, 0x7d, 0x85, 0x70, 0x89, 0xa8,
  0x62, 0x8c, 0x92, 0x83, 0x8d, 0x6e, 0x80, 0x91, 0x7b, 0x7c, 0x6b, 0x51,
  0x84, 0x82, 0x70, 0x9f, 0x75, 0x8c, 0x7d, 0x8a, 0x8d, 0x44, 0x83, 0x7a,
  0x56, 0x90, 0x88, 0x96, 0x83, 0x6f, 0x6a, 0x81, 0x6f, 0x7a, 0x89, 0xa6,
  0x9b, 0x7f, 0x75, 0x9e, 0x79, 0x7a, 0x97, 0x98, 0x81, 0x48, 0x7c, 0x8c,
  0x65, 0x85, 0x98, 0xaa, 0x80, 0x76, 0x62, 0xa6, 0x95, 0x95, 0x87, 0x78,
  0x6f, 0x73, 0x78, 0x9e, 0x60, 0x90, 0x7a, 0x8b, 0x84, 0x80, 0x50, 0x8a,
  0x77, 0x91, 0x86, 0x80, 0x8c, 0x9f, 0x70, 0xca, 0x7b, 0x71, 0x69, 0x81,
  0xc0, 0x41, 0x57, 0xf1, 0x8b, 0x65, 0x80, 0x64, 0xb8, 0x5a, 0x97, 0xe9,
  0xc4, 0x78, 0xad, 0x6d, 0x85, 0x58, 0xa5, 0xc8, 0xd1, 0x8e, 0xc2, 0x4d,
  0x3d, 0x5c, 0x85, 0xb7, 0xaa, 0x73, 0xab, 0x92, 0x7e, 0x61, 0x98, 0xa3,
  0xa2, 0x8b, 0x96, 0xa8, 0x95, 0x32, 0x94, 0x8c, 0x96, 0x80, 0x6c, 0xa3,
  0x9d, 0x37, 0x7b, 0xa8, 0x9a, 0x96, 0x9b, 0xaa, 0x82, 0x48, 0x7e, 0xa9,
  0x71, 0xa7, 0x83, 0x76, 0x76, 0x48, 0x85, 0x92, 0x43, 0x72, 0xa9, 0x7d,
  0x78, 0x7f, 0x86, 0x92, 0x60, 0x80, 0xa6, 0x8a, 0x9b, 0x85, 0x72, 0xa1,
  0x8e, 0x96, 0x55, 0x56, 0x84, 0x83, 0x87, 0x93, 0x80, 0x7f, 0x92, 0x60,
  0x8a, 0x4d, 0x7d, 0x9f, 0x77, 0x87, 0x92, 0x5c, 0x89, 0x4d, 0x5b, 0x98,
  0x73, 0x71, 0xa0, 0x8c, 0x66, 0x56, 0x75, 0xa6, 0x7d, 0x9b, 0x8e, 0x92,
  0x73, 0x64, 0x83, 0x94, 0x75, 0x98, 0x9d, 0x9b, 0x86, 0x72, 0x7e, 0x7f,
  0x7a, 0x75, 0xa6, 0x7c, 0x9d, 0x7d, 0x6f, 0x99, 0x5b, 0x85, 0x9b, 0x7a,
  0x73, 0x86, 0x6a, 0x98, 0x68, 0x79, 0x71, 0x93, 0x94, 0x7a, 0x6e, 0xc0,
  0x69, 0x62, 0x9c, 0xa6, 0x9e, 0x2d, 0x66, 0xed, 0x8c, 0x72, 0x77, 0x75,
  0xdf, 0x40, 0x85, 0xe4, 0xc9, 0x8a, 0x91, 0x87, 0x84, 0x49, 0x8b, 0xd0,
  0xca, 0x7e, 0xc6, 0x74, 0x50, 0x4a, 0x8f, 0xa6, 0xa5, 0x80, 0x99, 0x9f,
  0x7b, 0x3a, 0x75, 0x8f, 0x82, 0x73, 0x8d, 0x7b, 0x82, 0x0e, 0x93, 0xb0,
  0xb4, 0x84, 0xa0, 0x9a, 0xa2, 0x2f, 0x7d, 0xad, 0xa0, 0x8d, 0xb3, 0xa7,
  0x8d, 0x33, 0x7b, 0xa2, 0x6a, 0x83, 0x97, 0x9a, 0x70, 0x59, 0x7c, 0x81,
  0x33, 0x79, 0x9b, 0x6f, 0x8c, 0x5a, 0x90, 0x81, 0x51, 0x95, 0x6e, 0x86,
  0x92, 0x8b, 0x87, 0x82, 0x80, 0x7c, 0x94, 0x73, 0x8a, 0x76, 0x79, 0x8c,
  0x7f, 0x95, 0x84, 0x5c, 0x8e, 0x69, 0x71, 0x8c, 0x9a, 0x82, 0x78, 0x71,
  0x77, 0x3f, 0x70, 0x92, 0x6b, 0xa3, 0x7f, 0xa4, 0x80, 0x65, 0x6e, 0xb9,
  0x6d, 0x7b, 0xb2, 0x7a, 0x74, 0x72, 0x6e, 0xa0, 0x6c, 0x7f, 0x77, 0x98,
  0x7a, 0x75, 0x66, 0x8d, 0x7d, 0x92, 0x8e, 0x8f, 0xaa, 0x77, 0x7c, 0x8f,
  0x5c, 0x8e, 0x6c, 0x78, 0x84, 0x5c, 0x82, 0x94, 0x76, 0x9a, 0x88, 0x9a,
  0xa1, 0x7c, 0x75, 0xa7, 0x70, 0x6f, 0x5f, 0x8d, 0xd0, 0x2d, 0x53, 0xc9,
  0x90, 0x75, 0x90, 0x71, 0xbf, 0x51, 0x7e, 0xdc, 0xae, 0x9a, 0xa2, 0x6b,
  0x6a, 0x39, 0x95, 0xc0, 0xd0, 0x96, 0xba, 0x52, 0x4b, 0x4b, 0xa0, 0xa7,
  0xb3, 0x71, 0xa1, 0x9e, 0x72, 0x62, 0x8e, 0xa6, 0x8e, 0x7e, 0x7a, 0x7e,
  0x9d, 0x2e, 0x94, 0x9e, 0xa3, 0x8f, 0xa2, 0x92, 0xa4, 0x1b, 0x9c, 0xa1,
  0xa0, 0x99, 0xba, 0x94, 0xac, 0x49, 0x69, 0xa3, 0x56, 0x85, 0xa6, 0x96,
  0x76, 0x6b, 0x80, 0x94, 0x3d, 0x87, 0xa3, 0x64, 0x8f, 0x5b, 0x8c, 0x98,
  0x58, 0x90, 0x8c, 0x85, 0x85, 0x8a, 0x90, 0x8e, 0x9e, 0x8f, 0x72, 0x6a,
  0x95, 0x6a, 0x6f, 0xa0, 0x71, 0x74, 0x96, 0x74, 0x83, 0x64, 0x87, 0x8a,
  0x64, 0x80, 0x7c, 0x6f, 0x7b, 0x3a, 0x6e, 0x99, 0x5f, 0x83, 0x9d, 0x8b,
  0x87, 0x52, 0x7b, 0x93, 0x8a, 0x84, 0x7e, 0x73, 0x83, 0x79, 0x60, 0x85,
  0x89, 0x9c, 0x9e, 0x68, 0x85, 0x5e, 0x6b, 0x9a, 0x69, 0x85, 0x9a, 0xa0,
  0xb8, 0x85, 0x5d, 0x92, 0x5f, 0x74, 0x77, 0x74, 0x8b, 0x93, 0x4e, 0x85,
  0x7d, 0x8f, 0x8e, 0x71, 0x87, 0x77, 0x76, 0xbf, 0x7e, 0x68, 0x94, 0x92,
  0xb9, 0x45, 0x78, 0xda, 0x85, 0x68, 0x65, 0x6f, 0xf2, 0x38, 0x80, 0xe2,
  0xb1, 0x83, 0x8e, 0x5e, 0x89, 0x4b, 0x90, 0xc7, 0xd1, 0x90, 0xbb, 0x70,
  0x43, 0x58, 0xae, 0xb4, 0xc8, 0x6d, 0x97, 0x76, 0x63, 0x38, 0x9b, 0x85,
  0xab, 0x7a, 0x9a, 0x88, 0x84, 0x27, 0x8b, 0xa1, 0xb3, 0x93, 0x7d, 0x79,
  0x8c, 0x30, 0x8a, 0xb8, 0xb5, 0x78, 0xb0, 0xb8, 0xab, 0x69, 0x7b, 0x9d,
  0x5e, 0x7e, 0x95, 0x8c, 0x7f, 0x49, 0x8c, 0x78, 0x55, 0x7a, 0x86, 0x6b,
  0x95, 0x6f, 0x80, 0x9f, 0x7a, 0x83, 0x99, 0xa3, 0x9b, 0x89, 0x98, 0x9c,
  0x83, 0x93, 0x8f, 0x45, 0x8d, 0x7b, 0x78, 0x80, 0x81, 0x8d, 0x8d, 0x4f,
  0x66, 0x3f, 0x7c, 0x9e, 0x73, 0x7a, 0x8a, 0x57, 0x63, 0x55, 0x78, 0x91,
  0x7f, 0x82, 0xa1, 0x7c, 0x92, 0x6f, 0x5e, 0xa5, 0x6f, 0x8c, 0x83, 0x75,
  0x75, 0x65, 0x73, 0x94, 0x87, 0x7d, 0x84, 0x82, 0x86, 0x7e, 0x6e, 0x7f,
  0x65, 0x9a, 0x8c, 0x94, 0x90, 0xa4, 0x64, 0x73, 0x5b, 0x85, 0x70, 0xa2,
  0x68, 0x6e, 0x79, 0x99, 0x71, 0x9c, 0x75, 0x6c, 0x8c, 0x6c, 0x7a, 0xbf,
  0x82, 0x71, 0x8e, 0x89, 0xc1, 0x37, 0x79, 0xbc, 0x77, 0x69, 0xae, 0x89,
  0xe3, 0x3c, 0x91, 0xd4, 0xa3, 0x9a, 0x95, 0x82, 0x8b, 0x55, 0x99, 0xc7,
  0xf3, 0x84, 0xb3, 0x5c, 0x4b, 0x6a, 0x90, 0xb1, 0xca, 0x64, 0x8d, 0x97,
  0x4a, 0x5c, 0x97, 0x85, 0x9c, 0x88, 0x7f, 0xa9, 0x96, 0x27, 0x9f, 0x92,
  0xc0, 0x7f, 0xb1, 0x91, 0xab, 0x49, 0x72, 0xb6, 0x92, 0x7c, 0x7b, 0x94,
  0xa3, 0x56, 0x78, 0x98, 0x74, 0x6d, 0xa0, 0xa2, 0x75, 0x30, 0x82, 0x8d,
  0x65, 0x91, 0x7e, 0x78, 0x9a, 0x79, 0x85, 0x90, 0x79, 0x9e, 0x98, 0x95,
  0x91, 0x82, 0x7b, 0xa0, 0x79, 0xa2, 0x99, 0x8b, 0x8e, 0x68, 0x86, 0x7d,
  0x88, 0x82, 0x83, 0x6d, 0x61, 0x45, 0x62, 0x8f, 0x72, 0x72, 0x87, 0x7a,
  0x7b, 0x38, 0x6b, 0xa6, 0x58, 0x85, 0x81, 0x7d, 0x76, 0x47, 0x69, 0x8a,
  0x57, 0x81, 0xa2, 0x88, 0x65, 0x65, 0x74, 0x86, 0x7a, 0x76, 0xad, 0x79,
  0x77, 0x71, 0x80, 0x9b, 0x6d, 0x95, 0x8d, 0x81, 0x9b, 0x5d, 0x61, 0xa1,
  0x66, 0x7c, 0x7d, 0xa7, 0x83, 0x82, 0x5e, 0x86, 0x75, 0x9b, 0xa2, 0x8b,
  0x9f, 0x6d, 0x92, 0xbb, 0x7a, 0x69, 0x96, 0x80, 0xb9, 0x44, 0x73, 0xd3,
  0x8a, 0x74, 0x69, 0x7b, 0xe3, 0x3f, 0x90, 0xdc, 0xc7, 0x91, 0x9a, 0x78,
  0x8a, 0x42, 0xab, 0xc5, 0xdf, 0x89, 0x99, 0x5c, 0x56, 0x60, 0x96, 0xa4,
  0xb0, 0x6b, 0x9f, 0x90, 0x5e, 0x2f, 0x87, 0x84, 0xa5, 0x5f, 0x7e, 0x8e,
  0x94, 0x14, 0x97, 0xa7, 0xb6, 0x79, 0x8e, 0x6f, 0x94, 0x40, 0x83, 0xb2,
  0x9f, 0x6e, 0x81, 0xab, 0xab, 0x39, 0x80, 0x94, 0x59, 0x8a, 0xbc, 0x78,
  0x6a, 0x41, 0x6e, 0x91, 0x4a, 0x7f, 0x8d, 0x70, 0xa7, 0x7e, 0x7b, 0x89,
  0x4e, 0x88, 0x89, 0x73, 0x95, 0x82, 0x77, 0x9e, 0x8f, 0x9d, 0x7b, 0x60,
  0x70, 0x77, 0x7c, 0x87, 0x94, 0x90, 0x8b, 0x68, 0x55, 0x6f, 0x7a, 0x90,
  0x74, 0x7c, 0x83, 0x6d, 0x73, 0x59, 0x75, 0xa0, 0x6c, 0x7c, 0xa6, 0x87,
  0x87, 0x54, 0x7d, 0x9c, 0x8e, 0x7e, 0x76, 0x8f, 0x75, 0x6a, 0x83, 0x95,
  0x57, 0x80, 0xab, 0x89, 0x7e, 0x76, 0x59, 0x91, 0x72, 0x84, 0xa3, 0x91,
  0x82, 0x81, 0x6f, 0x90, 0x6d, 0x71, 0x8a, 0x70, 0x93, 0x7f, 0x85, 0x8f,
  0x83, 0x90, 0x5d, 0x79, 0x8f, 0x5e, 0x79, 0xe4, 0x7b, 0x6b, 0x64, 0x97,
  0xc1, 0x5e, 0x91, 0xe7, 0x71, 0x76, 0x81, 0x8d, 0xe8, 0x44, 0xa3, 0xdb,
  0xad, 0xa8, 0x7e, 0x66, 0x91, 0x5f, 0xa1, 0xa8, 0xe8, 0x8c, 0x9f, 0x68,
  0x44, 0x5b, 0xa4, 0x8f, 0xd3, 0x68, 0xb3, 0x75, 0x5a, 0x5a, 0x9f, 0xa3,
  0x9c, 0x6e, 0x89, 0x6c, 0x86, 0x15, 0x91, 0xa9, 0xc0, 0x76, 0x9b, 0x82,
  0xad, 0x49, 0x7e, 0xac, 0x9b, 0x79, 0xb8, 0xb4, 0x9d, 0x68, 0x8c, 0x95,
  0x71, 0x73, 0xb6, 0xb3, 0x88, 0x3e, 0x6e, 0x9e, 0x40, 0x90, 0x9d, 0x69,
  0x87, 0x7d, 0x60, 0x85, 0x57, 0x91, 0x6e, 0x88, 0x9f, 0x98, 0x7a, 0x78,
  0x92, 0xa5, 0x85, 0x82, 0x74, 0x75, 0x80, 0x82, 0x8b, 0x93, 0x81, 0x6b,
  0x49, 0x58, 0x7a, 0x84, 0x6d, 0x8e, 0x95, 0x6f, 0x75, 0x40, 0x76, 0xa6,
  0x76, 0x92, 0x74, 0x87, 0x6b, 0x65, 0x61, 0x98, 0x6c, 0x85, 0x88, 0x80,
  0x77, 0x7c, 0x55, 0xb0, 0x6d, 0x82, 0x9c, 0x87, 0x8d, 0x7c, 0x77, 0x97,
  0x89, 0x89, 0xad, 0x85, 0x84, 0x81, 0x7d, 0x91, 0x6a, 0x78, 0x85, 0x8a,
  0xb3, 0x7e, 0x74, 0xa0, 0x81, 0x7b, 0x90, 0x8c, 0x91, 0x87, 0x9a, 0xcf,
  0x8a, 0x5a, 0x7d, 0x92, 0xcd, 0x57, 0xb4, 0xcc, 0x7a, 0x71, 0x84, 0x93,
  0xd8, 0x48, 0xad, 0xc7, 0xac, 0xc4, 0xb4, 0x87, 0x79, 0x63, 0xaa, 0xb6,
  0xe6, 0x99, 0xbc, 0x45, 0x4d, 0x50, 0xab, 0x91, 0xa8, 0x6a, 0x95, 0x64,
  0x65, 0x53, 0x9c, 0x83, 0xa5, 0x5d, 0x98, 0x82, 0x70, 0x03, 0x91, 0xad,
  0xc1, 0x83, 0x81, 0x92, 0xa5, 0x4c, 0x88, 0xb1, 0x76, 0x6f, 0x93, 0xb1,
  0x7e, 0x47, 0x74, 0xb8, 0x70, 0x6e, 0x94, 0x7a, 0x87, 0x5a, 0x59, 0x7e,
  0x73, 0x8c, 0x83, 0x7e, 0x7c, 0x63, 0x86, 0x6a, 0x5e, 0x8b, 0x79, 0x63,
  0x85, 0x83, 0x88, 0x80, 0x5f, 0x8f, 0xa1, 0x70, 0x72, 0x60, 0x73, 0x88,
  0x89, 0x83, 0x8d, 0x6c, 0x64, 0x74, 0x7e, 0x98, 0x71, 0x7d, 0xb3, 0x6c,
  0x74, 0x53, 0x68, 0xa7, 0x7c, 0x83, 0x93, 0xa1, 0x73, 0x7d, 0x7a, 0xa4,
  0x74, 0x77, 0x9c, 0x90, 0x74, 0x7d, 0x8c, 0xa4, 0x7f, 0x85, 0x8b, 0x84,
  0x8d, 0x80, 0x85, 0xa8, 0x71, 0x9c, 0xab, 0x8a, 0x83, 0x7c, 0x71, 0xa0,
  0x67, 0x70, 0x77, 0x6a, 0x7a, 0x82, 0x76, 0x8f, 0x8a, 0xa4, 0x88, 0x84,
  0x95, 0x71, 0x92, 0xbe, 0x67, 0x63, 0x77, 0x92, 0xcb, 0x70, 0x9b, 0xd4,
  0x90, 0x74, 0xb4, 0x86, 0xbf, 0x4c, 0x99, 0xd4, 0xbc, 0xc5, 0x96, 0x63,
  0x83, 0x5e, 0xa7, 0xaf, 0xbc, 0x9f, 0xa9, 0x5d, 0x59, 0x81, 0xaf, 0xa8,
  0xd3, 0x77, 0x95, 0x8d, 0x5d, 0x4d, 0x95, 0x8e, 0xb7, 0x4e, 0xb0, 0x91,
  0x80, 0x23, 0x8f, 0x95, 0xb5, 0x79, 0x71, 0x84, 0x93, 0x48, 0x70, 0xa6,
  0x7c, 0x7a, 0xaa, 0xa0, 0xa0, 0x62, 0x9d, 0xa0, 0x6d, 0x6f, 0x75, 0xa1,
  0x85, 0x36, 0x7d, 0x9d, 0x36, 0x80, 0x76, 0x88, 0x84, 0x81, 0x74, 0x81,
  0x5b, 0xa3, 0x94, 0x71, 0xa9, 0x77, 0x88, 0x9a, 0x99, 0x97, 0x8d, 0x70,
  0x86, 0x73, 0x7b, 0x88, 0x79, 0xa1, 0x89, 0x50, 0x5d, 0x68, 0x80, 0x90,
  0x6d, 0x86, 0x7d, 0x92, 0x76, 0x5c, 0x5b, 0x88, 0x91, 0x7d, 0x8c, 0x96,
  0x7f, 0x6d, 0x7b, 0xb8, 0x78, 0x8c, 0xa4, 0x79, 0x85, 0x82, 0x8a, 0xa2,
  0x6e, 0xa7, 0x88, 0x90, 0x94, 0x75, 0x7b, 0x7c, 0x59, 0x7f, 0x68, 0xb2,
  0x7f, 0x98, 0x8c, 0x8f, 0x70, 0x7b, 0x74, 0x94, 0x5a, 0x71, 0xa0, 0x99,
  0x8b, 0x8e, 0x74, 0x6e, 0xa2, 0x8c, 0x9b, 0xc4, 0x72, 0x55, 0x8c, 0x98,
  0xb2, 0x6b, 0xad, 0xc8, 0x73, 0x71, 0x85, 0x82, 0xae, 0x46, 0x96, 0xe9,
  0xa4, 0xb7, 0x9b, 0x5c, 0x94, 0x4b, 0x97, 0xbc, 0xd2, 0x95, 0xc0, 0x76,
  0x63, 0x6a, 0xb1, 0xa2, 0xc2, 0x59, 0x7b, 0x7b, 0x70, 0x41, 0x94, 0x99,
  0xa3, 0x5e, 0xa0, 0x5a, 0x78, 0x10, 0x8b, 0x93, 0xa9, 0x62, 0x74, 0x94,
  0x9a, 0x3b, 0x8a, 0x95, 0x87, 0x7e, 0x81, 0xb2, 0x7e, 0x57, 0x79, 0x96,
  0x77, 0x72, 0xa4, 0x91, 0x73, 0x68, 0x4f, 0x73, 0x5c, 0x7b, 0x9b, 0x7a,
  0x78, 0x5f, 0x81, 0x8e, 0x5a, 0x9f, 0x81, 0x9f, 0x99, 0x7a, 0x76, 0x8e,
  0xa6, 0xb3, 0x91, 0x60, 0x77, 0x5c, 0x7d, 0xa0, 0x7a, 0x95, 0x84, 0x60,
  0x5e, 0x74, 0x82, 0x89, 0x6f, 0x8f, 0x69, 0x73, 0x7d, 0x51, 0x86, 0x9d,
  0x85, 0x76, 0x83, 0x8f, 0x6f, 0x86, 0x66, 0xaf, 0x81, 0x77, 0xa2, 0x7c,
  0x75, 0x74, 0x84, 0x99, 0x71, 0x8b, 0x70, 0x82, 0x7f, 0x6e, 0x8e, 0xa2,
  0x5c, 0x89, 0x6b, 0xa0, 0x91, 0x78, 0x6b, 0x95, 0x7e, 0x84, 0x80, 0x72,
  0x7b, 0x80, 0x93, 0x8c, 0x6c, 0xa6, 0x6d, 0x62, 0x8e, 0x6e, 0xa2, 0xce,
  0x5c, 0x6e, 0xa1, 0x9c, 0xb1, 0x77, 0xc0, 0xcd, 0x69, 0x67, 0x8d, 0x7b,
  0xa7, 0x4d, 0xac, 0xe7, 0xac, 0xb5, 0x8b, 0x69, 0x89, 0x69, 0xb0, 0xc0,
  0xa1, 0x91, 0x9a, 0x8a, 0x59, 0x6f, 0x8e, 0xae, 0xbf, 0x6f, 0x96, 0xb6,
  0x62, 0x41, 0x98, 0x8f, 0xab, 0x45, 0x90, 0x54, 0x8b, 0x18, 0x7d, 0x9f,
  0xa2, 0x52, 0x88, 0xa3, 0xa4, 0x41, 0x88, 0xa0, 0xa9, 0x79, 0x7c, 0xc5,
  0x86, 0x72, 0x9e, 0x8f, 0x69, 0x5e, 0xa4, 0x9a, 0x72, 0x45, 0x72, 0x87,
  0x4b, 0x76, 0x9b, 0x96, 0x76, 0x55, 0x6e, 0x80, 0x47, 0xa5, 0x82, 0x74,
  0xb6, 0x7f, 0x82, 0x87, 0x7a, 0x9b, 0x69, 0x77, 0x78, 0x4c, 0x8e, 0x99,
  0x91, 0xa2, 0x81, 0x4f, 0x6b, 0x6b, 0x70, 0x7d, 0x86, 0x83, 0x95, 0x83,
  0x85, 0x99, 0x7f, 0x98, 0x74, 0x84, 0x75, 0xa6, 0x6f, 0x7e, 0x71, 0x9a,
  0x9b, 0x93, 0x89, 0x98, 0x79, 0x65, 0x78, 0x99, 0x7c, 0x79, 0x88, 0x9f,
  0x93, 0x74, 0x66, 0x8f, 0x68, 0x8a, 0xb0, 0xa4, 0x87, 0x8b, 0x71, 0x7b,
  0x7f, 0x94, 0x90, 0x8f, 0xa8, 0x7f, 0x93, 0x7f, 0x69, 0x95, 0x88, 0x80,
  0x96, 0x7c, 0xa6, 0xce, 0x5f, 0x64, 0x9f, 0x81, 0xb2, 0x6b, 0xb6, 0xc1,
  0x67, 0x66, 0xa3, 0x79, 0xc1, 0x61, 0xbb, 0xce, 0xaa, 0xa4, 0x9f, 0x54,
  0x94, 0x73, 0x96, 0xbb, 0xb4, 0x9e, 0x87, 0x69, 0x5d, 0x43, 0xa9, 0xa6,
  0xaf, 0x4b, 0x7d, 0x91, 0x5b, 0x39, 0xbe, 0xac, 0x84, 0x49, 0x8b, 0x6c,
  0x73, 0x20, 0x9d, 0xa1, 0x88, 0x5f, 0xa0, 0x99, 0x96, 0x37, 0xaa, 0xaf,
  0xa3, 0x57, 0x79, 0xcb, 0x6c, 0x61, 0x88, 0xab, 0x7a, 0x3c, 0xac, 0xc1,
  0x77, 0x50, 0x72, 0x98, 0x53, 0x7f, 0x89, 0x78, 0x6b, 0x6b, 0x82, 0x9c,
  0x6c, 0x8e, 0x78, 0x9e, 0x9e, 0x97, 0x8a, 0x8b, 0x78, 0xa2, 0x80, 0x83,
  0x72, 0x6c, 0xa6, 0x7d, 0x94, 0x8c, 0x82, 0x76, 0x58, 0x60, 0x75, 0x8a,
  0x86, 0x75, 0x87, 0x5c, 0x7a, 0x74, 0x82, 0x7a, 0xab, 0x76, 0x79, 0x97,
  0x96, 0x88, 0x8d, 0x94, 0x79, 0x87, 0x97, 0xaa, 0x83, 0x7f, 0x7f, 0x8c,
  0x70, 0x8a, 0xa6, 0x8a, 0x89, 0x93, 0x73, 0x85, 0x7b, 0x81, 0x7e, 0x8c,
  0x6f, 0x7c, 0x86, 0x91, 0x69, 0x88, 0x6b, 0x7e, 0x64, 0x79, 0x7a, 0x79,
  0x67, 0xac, 0x7b, 0xa5, 0x98, 0x85, 0xa0, 0xc6, 0x69, 0x66, 0x82, 0x96,
  0xa7, 0x67, 0xa3, 0xda, 0x8a, 0x76, 0xaa, 0x6d, 0xc7, 0x69, 0xb6, 0xa9,
  0xa7, 0xb3, 0x8c, 0x60, 0x86, 0x8d, 0xb7, 0xc5, 0xea, 0x8a, 0x83, 0x43,
  0x63, 0x52, 0xcc, 0xa7, 0xc1, 0x60, 0xac, 0x92, 0x6f, 0x28, 0xae, 0x8e,
  0xa7, 0x5a, 0x6a, 0x5d, 0x82, 0x05, 0x90, 0xa9, 0xb1, 0x4a, 0x9f, 0x7f,
  0x98, 0x37, 0x94, 0xae, 0x96, 0x5a, 0xb8, 0xbf, 0x87, 0x73, 0x91, 0xac,
  0x9b, 0x50, 0x9c, 0xb9, 0x83, 0x62, 0x76, 0x7f, 0x66, 0x8b, 0x9f, 0x77,
  0x67, 0x65, 0x84, 0x80, 0x94, 0x96, 0x85, 0x95, 0x8a, 0x71, 0x74, 0x94,
  0x87, 0xa1, 0x70, 0x6e, 0x62, 0x53, 0x96, 0x87, 0x8c, 0x98, 0x67, 0x6c,
  0x44, 0x7a, 0x75, 0x87, 0x92, 0x85, 0x76, 0x74, 0x85, 0x6e, 0x99, 0xb2,
  0x86, 0x86, 0x98, 0x9c, 0x84, 0x6d, 0x99, 0x8f, 0x9c, 0x83, 0x7c, 0x92,
  0x6d, 0x78, 0x73, 0x9e, 0x83, 0x84, 0x76, 0x95, 0x95, 0x98, 0x81, 0x6f,
  0x84, 0x81, 0x8e, 0xac, 0x95, 0x7c, 0x97, 0x7a, 0x76, 0x84, 0x72, 0xb5,
  0x88, 0x5f, 0x93, 0x7d, 0x7a, 0x7f, 0x85, 0x90, 0x86, 0x6e, 0x95, 0x8f,
  0x78, 0x67, 0x6d, 0x8e, 0xae, 0xa4, 0xae, 0xbf, 0x88, 0x6d, 0x9f, 0x7a,
  0x9c, 0x89, 0x85, 0xd0, 0xc8, 0xa8, 0x98, 0x49, 0x7b, 0x8f, 0x8a, 0xb7,
  0xc8, 0x91, 0xa7, 0x56, 0x74, 0x82, 0x8c, 0x8d, 0x99, 0x49, 0x95, 0x82,
  0x73, 0x31, 0xa2, 0x9f, 0xac, 0x45, 0x96, 0x4f, 0x84, 0x2c, 0xbe, 0xb8,
  0xba, 0x3f, 0x98, 0x93, 0xa3, 0x5f, 0x90, 0xb1, 0x8c, 0x3e, 0x82, 0xb2,
  0x95, 0x6c, 0xb3, 0xa2, 0xa8, 0x47, 0x8d, 0xb0, 0x96, 0x84, 0x85, 0x91,
  0x94, 0x77, 0x76, 0x9a, 0x8a, 0x96, 0x64, 0x67, 0x8e, 0x96, 0x69, 0x62,
  0x75, 0x7c, 0xa7, 0x93, 0x9e, 0x95, 0x71, 0x6d, 0x74, 0x74, 0x6e, 0x8d,
  0xb6, 0x88, 0x7b, 0x80, 0x6f, 0x7b, 0x82, 0x81, 0x77, 0x66, 0x81, 0x72,
  0x92, 0x60, 0x6d, 0x97, 0x85, 0x7a, 0x72, 0x8f, 0x84, 0x7f, 0x9b, 0x98,
  0xb0, 0x73, 0x5f, 0x96, 0x85, 0x8c, 0x79, 0x8f, 0x92, 0x83, 0x8b, 0x8c,
  0x86, 0x92, 0x8c, 0x85, 0x8d, 0x6e, 0x67, 0x94, 0x85, 0x90, 0xab, 0x84,
  0xa8, 0x85, 0x8b, 0x6a, 0x97, 0x6c, 0xac, 0x97, 0x98, 0x8e, 0x90, 0x8d,
  0x7c, 0x8d, 0x98, 0x8b, 0x72, 0x6d, 0xa3, 0x72, 0x79, 0x6b, 0x56, 0xc5,
  0x96, 0x93, 0x7a, 0x95, 0x93, 0x79, 0x95, 0x88, 0x50, 0x92, 0x88, 0x2c,
  0x62, 0x96, 0x5a, 0x8c, 0x7b, 0x92, 0x97, 0x42, 0x68, 0x52, 0x99, 0x86,
  0x7e, 0x4a, 0xa4, 0x72, 0x5b, 0x14, 0x76, 0x8a, 0x73, 0x59, 0x92, 0x34,
  0x94, 0x1a, 0x51, 0x82, 0x7f, 0x58, 0x96, 0x83, 0x9e, 0x51, 0x9e, 0xa0,
  0xaa, 0x37, 0x8c, 0xa5, 0x95, 0x79, 0x86, 0x8f, 0x8f, 0x53, 0x70, 0xa4,
  0x8c, 0x71, 0x70, 0x7b, 0xad, 0x99, 0x8b, 0x74, 0x8c, 0x83, 0x78, 0x73,
  0xa9, 0x99, 0x9c, 0x77, 0x83, 0x74, 0x6d, 0x72, 0x75, 0x9d, 0x83, 0x86,
  0x7c, 0x68, 0x54, 0x8f, 0xab, 0x79, 0x8e, 0x7d, 0x66, 0x65, 0x6c, 0x7c,
  0x96, 0x8c, 0x8a, 0x83, 0x70, 0x73, 0x73, 0x87, 0x8c, 0x8b, 0x90, 0x8d,
  0x7d, 0x7f, 0xac, 0x87, 0x85, 0xa0, 0x83, 0xa2, 0x7d, 0x70, 0x97, 0x84,
  0x86, 0x89, 0x6a, 0x99, 0x74, 0x86, 0x8d, 0x68, 0x9d, 0x7c, 0x58, 0x97,
  0xab, 0x79, 0x89, 0x6b, 0x8e, 0x7f, 0x6e, 0x5d, 0xa0, 0x80, 0x84, 0x66,
  0x9c, 0x9c, 0x68, 0x5e, 0x61, 0x85, 0x63, 0xb6, 0x9d, 0x7f, 0x7c, 0x74,
  0x8c, 0x6d, 0xaa, 0xb6, 0x75, 0x92, 0x89, 0x67, 0x7d, 0x96, 0xb2, 0x9b,
  0x61, 0x97, 0x8c, 0x3c, 0x5e, 0x87, 0x59, 0x88, 0x79, 0x8b, 0xc4, 0x51,
  0x46, 0x6d, 0x85, 0x81, 0x78, 0x99, 0x9a, 0x57, 0x56, 0x5f, 0x81, 0x7a,
  0x75, 0x4e, 0xa8, 0x3f, 0x4b, 0x53, 0x71, 0x6a, 0x5c, 0x47, 0x70, 0x80,
  0x6d, 0x6d, 0xaa, 0x7f, 0x70, 0x79, 0x9e, 0x96, 0x8c, 0x70, 0x9b, 0x6c,
  0x87, 0x4b, 0x6f, 0xab, 0x7d, 0x84, 0xaa, 0x73, 0x8d, 0x7d, 0xa0, 0x6f,
  0x68, 0x8a, 0x83, 0x6b, 0x71, 0xb2, 0x9f, 0x58, 0x8a, 0x67, 0x86, 0x7e,
  0x8f, 0x88, 0x54, 0x73, 0x79, 0x72, 0xa1, 0x54, 0x6a, 0x9a, 0xaa, 0x62,
  0x7c, 0x79, 0x82, 0x6f, 0xab, 0x6c, 0x83, 0x68, 0x85, 0x92, 0x70, 0x6d,
  0x97, 0x7b, 0x90, 0x82, 0x83, 0x76, 0x97, 0x61, 0x9a, 0x73, 0x98, 0xa0,
  0x91, 0x74, 0x9c, 0x73, 0x8d, 0x81, 0x72, 0x85, 0x5c, 0xa8, 0x8c, 0x74,
  0x9c, 0x9f, 0x81, 0x8c, 0x88, 0x83, 0x73, 0x55, 0xa4, 0x77, 0x8a, 0x6f,
  0x87, 0x5d, 0x6c, 0x57, 0x87, 0x88, 0x97, 0x7e, 0x55, 0x8a, 0x9d, 0x86,
  0x84, 0x9c, 0x86, 0x82, 0x82, 0x87, 0xb0, 0x51, 0x8e, 0x8b, 0x7d, 0x78,
  0x59, 0x8a, 0x9e, 0x9a, 0x87, 0xa3, 0x9e, 0x5a, 0x76, 0x76, 0xa9, 0x6d,
  0x95, 0xb9, 0x65, 0x67, 0x90, 0x82, 0x8d, 0x67, 0x87, 0x8a, 0x55, 0x73,
  0x89, 0x8c, 0x90, 0x6b, 0x83, 0x92, 0x7a, 0x82, 0x94, 0x9d, 0x9b, 0x92,
  0x98, 0x80, 0x75, 0x9c, 0x65, 0xae, 0x95, 0x97, 0x86, 0xa6, 0x8b, 0x7b,
  0x54, 0x94, 0x95, 0x85, 0x87, 0x92, 0x6d, 0x7b, 0xaa, 0x65, 0x95, 0x7e,
  0x86, 0x99, 0x69, 0xa3, 0x6b, 0x94, 0x92, 0x9e, 0x8c, 0x8b, 0xb0, 0x66,
  0xa7, 0x8a, 0x8e, 0x9f, 0x99, 0x78, 0x9e, 0x74, 0x77, 0x9a, 0x98, 0x7f,
  0x75, 0x72, 0x65, 0xa3, 0x59, 0x99, 0x8e, 0x7e, 0x7f, 0x8a, 0x84, 0x83,
  0x7a, 0x92, 0x94, 0x83, 0x74, 0x81, 0x8c, 0x60, 0x8e, 0x97, 0x8b, 0x9d,
  0x75, 0x77, 0x90, 0xab, 0x95, 0x70, 0x91, 0x9b, 0x7b, 0x90, 0x84, 0x57,
  0x7c, 0x59, 0xa5, 0x91, 0x8a, 0x86, 0x8d, 0x65, 0x8a, 0x7f, 0x88, 0x98,
  0x6d, 0x78, 0x80, 0xab, 0xa0, 0x9a, 0x69, 0x9d, 0x70, 0x6a, 0x89, 0x92,
  0x75, 0x6a, 0x9a, 0x9a, 0x93, 0x94, 0x93, 0x88, 0xa1, 0x85, 0x9e, 0xa4,
  0x92, 0x83, 0x75, 0x85, 0xa7, 0x82, 0xa9, 0x66, 0x93, 0xa2, 0x74, 0x6c,
  0x81, 0x87, 0xae, 0x5d, 0x94, 0x89, 0x80, 0x85, 0x73, 0x96, 0x95, 0x5f,
  0x85, 0x9b, 0x81, 0x7e, 0x8a, 0xab, 0x90, 0x68, 0x84, 0xa8, 0x7b, 0x7d,
  0x8e, 0x7d, 0x6d, 0x62, 0x91, 0x97, 0x9d, 0x86, 0x76, 0x86, 0x8c, 0x70,
  0x9c, 0x84, 0x91, 0x70, 0x87, 0x6b, 0x7f, 0x76, 0x7b, 0x72, 0x7b, 0x85,
  0x7e, 0x81, 0x7b, 0x68, 0x8a, 0x77, 0x93, 0x75, 0x68, 0x6e, 0x97, 0x6d,
  0x82, 0x7f, 0x9b, 0x59, 0x6b, 0x75, 0x7d, 0x8a, 0x84, 0x8c, 0x8d, 0x90,
  0x94, 0x76, 0x8e, 0x7e, 0x70, 0x7b, 0x82, 0x7c, 0x84, 0x73, 0x91, 0x6f,
  0x86, 0x8b, 0x67, 0xaa, 0x58, 0x77, 0x8a, 0x91, 0x80, 0x7c, 0x8a, 0x7f,
  0x9f, 0x6d, 0x90, 0x6d, 0x75, 0x77, 0x9b, 0x5f, 0x6f, 0x8c, 0x9c, 0x76,
  0x72, 0x85, 0x83, 0x71, 0x7a, 0xa3, 0x8f, 0x7c, 0x83, 0x7d, 0x9d, 0xaa,
  0x73, 0x85, 0x6e, 0x97, 0x79, 0x93, 0x72, 0x7b, 0x69, 0x85, 0x68, 0x6a,
  0x97, 0x6b, 0x59, 0x8b, 0x9c, 0xa5, 0xaa, 0xb6, 0x91, 0xb9, 0x8a, 0x99,
  0x91, 0x72, 0xa7, 0x91, 0x9a, 0x8f, 0x9c, 0x6c, 0x69, 0x65, 0x79, 0x91,
  0x89, 0xa6, 0x88, 0xad, 0x8c, 0x81, 0x8a, 0x60, 0x90, 0xbc, 0x77, 0x74,
  0x5c, 0x75, 0x8a, 0x65, 0x93, 0x8d, 0x92, 0x8a, 0x79, 0x9a, 0x90, 0x66,
  0x8e, 0xa2, 0x6c, 0x4f, 0x5a, 0x6e, 0x9c, 0x70, 0x80, 0x7c, 0x63, 0x8f,
  0x59, 0x77, 0x80, 0x6c, 0xa1, 0x67, 0x63, 0x9a, 0x7d, 0x96, 0x75, 0x8a,
  0x86, 0x92, 0x99, 0x64, 0x71, 0x85, 0x7a, 0x93, 0x83, 0x8e, 0xab, 0x8c,
  0x6d, 0x60, 0xa2, 0x7b, 0x74, 0x8b, 0x77, 0x94, 0x96, 0x94, 0x91, 0x96,
  0x7a, 0x73, 0x94, 0x6c, 0x86, 0x81, 0x70, 0x75, 0x79, 0x63, 0x53, 0x97,
  0x77, 0x9d, 0x8a, 0x91, 0x70, 0x7d, 0x64, 0x71, 0x7b, 0xa4, 0x9b, 0x79,
  0x64, 0x85, 0xa0, 0x78, 0x86, 0x8b, 0x74, 0x8f, 0x54, 0x9b, 0x87, 0x7f,
  0x7c, 0x6e, 0xb1, 0x79, 0x70, 0x89, 0x84, 0x8f, 0x96, 0x88, 0xa6, 0x73,
  0x58, 0x97, 0x93, 0x95, 0x59, 0x71, 0xab, 0x79, 0x6d, 0x93, 0x77, 0x8e,
  0x9f, 0x7d, 0x6c, 0x78, 0x78, 0x95, 0x8a, 0x63, 0x8f, 0xa3, 0x9d, 0x93,
  0x9c, 0x94, 0x9b, 0x86, 0x60, 0x5e, 0x9c, 0x79, 0x92, 0x7d, 0x98, 0x8a,
  0x47, 0xab, 0x8f, 0x65, 0x86, 0x9e, 0x7a, 0x9d, 0x60, 0x72, 0x93, 0x58,
  0x8f, 0xa2, 0x7f, 0x93, 0x89, 0x86, 0x84, 0x7e, 0x7a, 0x8a, 0x83, 0x74,
  0x63, 0x96, 0x88, 0x5f, 0xa9, 0x8f, 0x98, 0x72, 0x83, 0x9a, 0x87, 0x74,
  0xab, 0x52, 0x58, 0x82, 0x70, 0xa9, 0x94, 0x59, 0x86, 0x76, 0x6a, 0xb0,
  0x64, 0xc3, 0x85, 0x65, 0xa4, 0x61, 0x85, 0x7e, 0x85, 0x87, 0xa2, 0x6d,
  0x9f, 0x7f, 0x97, 0xa0, 0x4f, 0x8f, 0x9d, 0x6e, 0x92, 0x5f, 0x8c, 0x83,
  0x9e, 0x93, 0x99, 0x8d, 0x8a, 0x86, 0xa3, 0xa0, 0x9f, 0x94, 0x94, 0x6e,
  0x83, 0x7e, 0x63, 0x8c, 0x95, 0x98, 0x80, 0x73, 0x75, 0x62, 0xac, 0x7e,
  0x92, 0x80, 0x99, 0x87, 0x64, 0x5a, 0x7a, 0x6e, 0x91, 0x9c, 0x86, 0x5a,
  0x8a, 0x89, 0x83, 0x6b, 0x92, 0x92, 0x91, 0x6f, 0x6d, 0x8a, 0x83, 0x5f,
  0x76, 0x78, 0x75, 0x79, 0x51, 0x79, 0x6a, 0x96, 0x8b, 0x66, 0x84, 0x60,
  0x7b, 0x91, 0x95, 0x5f, 0x96, 0x87, 0x7b, 0x76, 0x90, 0x81, 0x76, 0x71,
  0x86, 0x85, 0x99, 0x6b, 0xa6, 0xb2, 0x93, 0x80, 0x6c, 0x88, 0x85, 0x41,
  0xa5, 0x89, 0x6f, 0x9c, 0x65, 0xae, 0x86, 0x5b, 0x64, 0x7c, 0x85, 0xb5,
  0x59, 0x79, 0x9e, 0x24, 0x65, 0x92, 0x5c, 0x51, 0x94, 0x7e, 0x87, 0x68,
  0x78, 0x92, 0x5d, 0x87, 0x7d, 0x92, 0x85, 0x56, 0x95, 0x9b, 0x6a, 0x7c,
  0x66, 0xaa, 0x99, 0x62, 0xb7, 0x65, 0x83, 0x99, 0x7d, 0xe0, 0x8d, 0x63,
  0xb5, 0x7b, 0x6c, 0x92, 0x5c, 0xc2, 0x79, 0x54, 0xbd, 0x44, 0x98, 0x60,
  0x86, 0x9e, 0x92, 0x86, 0xaa, 0x52, 0x73, 0x7e, 0x86, 0x9f, 0x91, 0x6e,
  0x9d, 0x74, 0x8e, 0x7c, 0xa0, 0xa9, 0x90, 0x70, 0x85, 0x8b, 0x87, 0x7b,
  0x8f, 0x74, 0x8e, 0x66, 0x87, 0x58, 0x7d, 0xae, 0x92, 0x78, 0x8f, 0x8b,
  0x73, 0x60, 0x79, 0x58, 0x77, 0x91, 0xac, 0x70, 0x67, 0x70, 0x5f, 0xae,
  0x8a, 0x7e, 0x94, 0x7e, 0x78, 0x7d, 0x98, 0xaa, 0x93, 0x72, 0x69, 0x53,
  0x5c, 0x68, 0x5f, 0x99, 0x79, 0x71, 0x83, 0x55, 0x47, 0x74, 0x7d, 0x7f,
  0x80, 0x82, 0x84, 0x3d, 0x68, 0x7e, 0x84, 0x89, 0x8a, 0x8d, 0xa8, 0x7c,
  0x94, 0x71, 0x70, 0x72, 0x8f, 0x6f, 0xa4, 0x6e, 0xca, 0x99, 0x71, 0x78,
  0x65, 0x73, 0x90, 0x58, 0xaa, 0x76, 0x8d, 0xa6, 0x42, 0xb6, 0x7a, 0x4c,
  0x5a, 0x85, 0x72, 0x88, 0x6c, 0xa9, 0x6d, 0x33, 0x88, 0x95, 0x7a, 0x89,
  0x99, 0xb4, 0x87, 0x62, 0x9a, 0x9b, 0x56, 0xa4, 0xa5, 0x97, 0x84, 0x92,
  0x91, 0xa2, 0x71, 0x9e, 0x8a, 0xb4, 0x94, 0x72, 0x95, 0x51, 0x9b, 0x72,
  0x5a, 0xdf, 0x85, 0x51, 0xc4, 0x78, 0x77, 0x6a, 0x5f, 0xbe, 0xa0, 0x54,
  0xc4, 0x5c, 0x8d, 0x9d, 0x6c, 0xa8, 0x8b, 0x51, 0xa1, 0x70, 0x88, 0x90,
  0x51, 0xa0, 0x93, 0x74, 0x92, 0x78, 0x65, 0x70, 0x94, 0x9a, 0xa3, 0x6f,
  0x94, 0x7a, 0x6a, 0x80, 0x99, 0x72, 0x8b, 0x5d, 0x99, 0x81, 0x87, 0x8e,
  0x7e, 0xac, 0x8d, 0x8d, 0x97, 0x6f, 0x8c, 0x73, 0x71, 0x86, 0x9b, 0x78,
  0x7c, 0x78, 0x91, 0xae, 0x9a, 0x7a, 0x7e, 0x8a, 0x6a, 0x6f, 0xa0, 0x9e,
  0x99, 0x82, 0x8a, 0x7c, 0x7d, 0x5e, 0x81, 0x8d, 0x9a, 0x86, 0x92, 0x70,
  0x59, 0x72, 0x79, 0x85, 0x76, 0x77, 0x87, 0x56, 0x63, 0x99, 0x7f, 0x96,
  0x8b, 0x7a, 0x75, 0x86, 0x7b, 0x85, 0x5a, 0x91, 0x90, 0x7e, 0x76, 0x56,
  0xa1, 0x84, 0x5f, 0x78, 0x5e, 0xae, 0x85, 0x31, 0xb4, 0x8c, 0x72, 0x9a,
  0x73, 0x9a, 0x85, 0x45, 0x4e, 0x75, 0x68, 0x9d, 0x5e, 0xb1, 0x8e, 0x3f,
  0x72, 0x97, 0x56, 0x77, 0xb8, 0x97, 0x7f, 0x51, 0x8a, 0x88, 0x52, 0x69,
  0xb8, 0xc0, 0x73, 0x7b, 0xb3, 0x8a, 0x86, 0x83, 0x96, 0xd0, 0x9a, 0x66,
  0xa9, 0x55, 0xa3, 0x9d, 0x4b, 0xfa, 0xb2, 0x24, 0xbe, 0x7d, 0x86, 0x89,
  0x5c, 0xc5, 0xba, 0x5e, 0xb4, 0x64, 0xa5, 0x83, 0x79, 0xb9, 0x8a, 0x7d,
  0x9c, 0x67, 0x8a, 0x76, 0x89, 0xa0, 0x85, 0x7b, 0x8f, 0x81, 0x7a, 0x76,
  0x72, 0x7b, 0x88, 0x71, 0xa2, 0x79, 0x77, 0x81, 0x9e, 0x8b, 0x92, 0x6c,
  0x97, 0x82, 0x58, 0x54, 0xad, 0x9c, 0x80, 0x95, 0x84, 0x8b, 0xaf, 0x8e,
  0x9c, 0x77, 0xa0, 0x68, 0x87, 0x70, 0x64, 0x81, 0xa7, 0x98, 0x9a, 0x72,
  0x6e, 0x67, 0x8c, 0x99, 0xa8, 0x91, 0x75, 0x82, 0x88, 0x7a, 0x7d, 0xa3,
  0x88, 0x9a, 0x6e, 0x68, 0x84, 0x70, 0x8f, 0x87, 0x90, 0x85, 0x8f, 0x4f,
  0x63, 0x85, 0x73, 0xa5, 0x7b, 0x86, 0xb2, 0x6c, 0x75, 0x54, 0x77, 0x87,
  0x80, 0x76, 0x8e, 0x56, 0xab, 0xa5, 0x79, 0x6a, 0x3d, 0xc4, 0x91, 0x3c,
  0xab, 0x7e, 0x85, 0x87, 0x2b, 0xc4, 0x83, 0x14, 0x53, 0x62, 0x76, 0xa4,
  0x70, 0xb0, 0x7a, 0x4a, 0x6e, 0x88, 0x82, 0x83, 0xc7, 0x9e, 0x95, 0x54,
  0x8e, 0x87, 0x5d, 0x94, 0xd3, 0xb2, 0x7b, 0x80, 0x99, 0x8e, 0x87, 0x6e,
  0x93, 0xd9, 0x97, 0x87, 0xb0, 0x6b, 0xb4, 0x62, 0x3d, 0xf7, 0xa5, 0x30,
  0xb1, 0x6f, 0xbe, 0x6b, 0x44, 0xb5, 0x8f, 0x64, 0xbb, 0x70, 0x77, 0x95,
  0x60, 0xb7, 0xa3, 0x74, 0xb7, 0x83, 0x97, 0xb5, 0x7b, 0x8c, 0x96, 0x65,
  0xaa, 0x89, 0x79, 0x61, 0x83, 0xa0, 0x97, 0x53, 0x88, 0x72, 0x6f, 0x92,
  0xae, 0x89, 0x87, 0x81, 0x9c, 0x8b, 0x80, 0x7d, 0x89, 0x7e, 0x99, 0x8f,
  0x73, 0x8a, 0x96, 0x66, 0xa8, 0xa5, 0x85, 0x45, 0x8b, 0x65, 0x82, 0x84,
  0x9f, 0x88, 0x8b, 0x6e, 0x74, 0x79, 0x64, 0x73, 0xa1, 0x92, 0x7a, 0x66,
  0x69, 0x87, 0x64, 0x72, 0x81, 0x84, 0x8d, 0x63, 0x74, 0x7b, 0x63, 0x9a,
  0x97, 0x67, 0x6d, 0x5c, 0x73, 0x81, 0x68, 0x87, 0x7e, 0x82, 0x97, 0x55,
  0x91, 0x59, 0x74, 0x6a, 0x72, 0x75, 0xa2, 0x6e, 0xb1, 0x97, 0x6d, 0x74,
  0x40, 0xb9, 0x81, 0x40, 0xa6, 0x87, 0x9f, 0x9d, 0x3d, 0xb6, 0x85, 0x12,
  0x4c, 0x68, 0x7d, 0xae, 0x6d, 0xc8, 0x70, 0x35, 0x60, 0x92, 0x60, 0x98,
  0xb6, 0x8e, 0x63, 0x50, 0x8e, 0x67, 0x70, 0x7d, 0xbf, 0x9b, 0x66, 0x6e,
  0xb4, 0x74, 0x92, 0x72, 0x96, 0xc3, 0x99, 0x69, 0x9b, 0x62, 0xc5, 0x8c,
  0x19, 0xd1, 0xa7, 0x30, 0xae, 0x69, 0xc1, 0x83, 0x3d, 0xb0, 0x8d, 0x65,
  0xb4, 0x76, 0x78, 0xad, 0x60, 0xc9, 0x7f, 0x74, 0xa0, 0x79, 0x8c, 0x93,
  0x66, 0x95, 0x92, 0x80, 0x89, 0x75, 0x91, 0x7f, 0x74, 0x83, 0x7e, 0x67,
  0x8c, 0x8c, 0x78, 0x89, 0xab, 0x91, 0x8a, 0x7b, 0x84, 0x8e, 0x4e, 0x84,
  0xb4, 0x7b, 0x98, 0x7a, 0x61, 0x97, 0x96, 0x63, 0x7c, 0xa3, 0x7f, 0x5d,
  0x71, 0x84, 0x65, 0x7a, 0x93, 0x88, 0x88, 0x55, 0x8e, 0x6e, 0x6f, 0xa4,
  0x8a, 0xa9, 0x9d, 0x75, 0x56, 0x72, 0x6b, 0x82, 0x71, 0x8f, 0x63, 0x56,
  0x72, 0x81, 0x5b, 0x91, 0x9c, 0x6d, 0x7e, 0x58, 0x81, 0xa0, 0x6e, 0x96,
  0x7e, 0x90, 0x66, 0x77, 0x94, 0x66, 0x9a, 0x99, 0x70, 0x76, 0x7e, 0x5d,
  0xc0, 0xa5, 0x8f, 0x62, 0x30, 0xf4, 0x88, 0x49, 0xad, 0x7d, 0x7a, 0x7f,
  0x0c, 0xe4, 0x91, 0x0e, 0x5f, 0x56, 0x69, 0x8e, 0x83, 0xcc, 0x75, 0x3e,
  0x6f, 0x95, 0x62, 0x8d, 0xba, 0x81, 0x8e, 0x6e, 0x83, 0x77, 0x83, 0x5a,
  0xc2, 0x98, 0x8e, 0x8a, 0x9b, 0x8c, 0x9d, 0x79, 0x7f, 0xca, 0x9e, 0x5b,
  0x9e, 0x5a, 0x9c, 0x89, 0x0a, 0xe1, 0x91, 0x21, 0xaf, 0x7d, 0xa4, 0x9f,
  0x2f, 0xbe, 0x90, 0x4b, 0xbf, 0x81, 0x8c, 0xaa, 0x7c, 0xb1, 0xac, 0x68,
  0xbc, 0x75, 0x7b, 0x8d, 0x4c, 0xae, 0x93, 0x68, 0xb3, 0x6e, 0x89, 0x83,
  0x89, 0x9a, 0x8e, 0x77, 0xa9, 0x88, 0x50, 0x8f, 0xa7, 0xa2, 0x8b, 0x70,
  0x82, 0x8f, 0x80, 0x68, 0xbf, 0x8d, 0x7d, 0x9a, 0x7e, 0x8d, 0x92, 0x63,
  0x77, 0x92, 0x79, 0x71, 0x72, 0x7b, 0x72, 0xa4, 0x78, 0x86, 0x8a, 0x6c,
  0x72, 0x9b, 0x70, 0xa2, 0x7d, 0x84, 0x91, 0x75, 0x6c, 0x97, 0x95, 0x84,
  0x72, 0x8d, 0x8f, 0x3c, 0x63, 0x65, 0x69, 0x8e, 0x9b, 0x74, 0x7e, 0x5d,
  0x70, 0x88, 0x75, 0x5d, 0x7d, 0x8d, 0x80, 0x7d, 0x8e, 0x5f, 0x67, 0x9e,
  0x7d, 0x7a, 0x96, 0x66, 0xb1, 0x9f, 0x78, 0x8b, 0x24, 0xe4, 0x88, 0x30,
  0xac, 0x8d, 0x58, 0x65, 0x38, 0xd6, 0x91, 0x16, 0x55, 0x5e, 0x6b, 0x64,
  0x85, 0xc5, 0x7d, 0x45, 0x62, 0x78, 0x7e, 0x9a, 0xc9, 0x88, 0x81, 0x66,
  0x78, 0x7e, 0x64, 0x98, 0xad, 0x8d, 0x61, 0x73, 0x88, 0x7c, 0x7d, 0x67,
  0x5c, 0xa0, 0x9b, 0x7b, 0xaa, 0x5d, 0xab, 0x7b, 0x18, 0xc4, 0x88, 0x33,
  0xba, 0x69, 0x94, 0x6e, 0x31, 0xad, 0x94, 0x4d, 0xc8, 0x74, 0x90, 0xba,
  0x79, 0xb2, 0x9f, 0x4e, 0x9c, 0x80, 0x87, 0x92, 0x53, 0x9b, 0x9f, 0x4e,
  0xab, 0x94, 0x92, 0x7a, 0x7b, 0x7f, 0x86, 0x66, 0x85, 0x6b, 0x5b, 0x85,
  0xb7, 0x81, 0x7c, 0x69, 0x92, 0xa6, 0x69, 0x58, 0xd8, 0x89, 0x79, 0x7a,
  0xa8, 0x95, 0x87, 0x88, 0x83, 0x85, 0x81, 0x51, 0x7a, 0xa8, 0xa4, 0xa1,
  0x6d, 0x8b, 0x79, 0x81, 0x66, 0x86, 0x97, 0x9e, 0x78, 0x91, 0x86, 0x6d,
  0x78, 0x7c, 0x82, 0x7d, 0x7b, 0x7c, 0x6c, 0x64, 0x76, 0x97, 0x6a, 0x97,
  0x74, 0x65, 0x9a, 0x5f, 0x6a, 0x93, 0x7c, 0x6f, 0xaa, 0x63, 0x9e, 0x54,
  0x9a, 0x8b, 0x76, 0x7c, 0x8c, 0x73, 0x78, 0x4a, 0xb4, 0xa1, 0x74, 0x71,
  0x5a, 0xe5, 0x85, 0x38, 0xaa, 0x8c, 0x7d, 0x7f, 0x01, 0xd2, 0x82, 0x35,
  0x3e, 0x64, 0x79, 0x64, 0x65, 0xbb, 0x80, 0x32, 0x6f, 0x82, 0x6f, 0xb0,
  0xba, 0x7d, 0x8d, 0x6e, 0x80, 0x78, 0x81, 0x8e, 0xa1, 0x77, 0x75, 0x8a,
  0x8d, 0x96, 0x92, 0x64, 0x71, 0xa7, 0x9d, 0x57, 0x96, 0x60, 0xba, 0x6f,
  0x08, 0xab, 0x9f, 0x2b, 0xa9, 0x84, 0xba, 0x70, 0x53, 0xa9, 0x9c, 0x4d,
  0xa7, 0x7a, 0x8c, 0xcb, 0x74, 0xd5, 0x9f, 0x6c, 0xa1, 0x81, 0x9d, 0x93,
  0x52, 0x8b, 0xa4, 0x6c, 0x8c, 0x85, 0x77, 0x6d, 0x6b, 0x7d, 0xaa, 0x71,
  0x9e, 0x7c, 0x78, 0x92, 0xb0, 0x7c, 0x7c, 0x82, 0x7d, 0x87, 0x79, 0x70,
  0xba, 0x9c, 0x8e, 0x76, 0x7c, 0x8b, 0x98, 0x7f, 0x7a, 0x9d, 0x6c, 0x68,
  0x7b, 0x81, 0x89, 0x8c, 0x7c, 0x6f, 0xa0, 0x62, 0x98, 0xa3, 0x72, 0x80,
  0x90, 0x8a, 0x65, 0x7b, 0x82, 0x9c, 0x72, 0x80, 0x7d, 0x73, 0x84, 0x54,
  0x55, 0x8e, 0x88, 0x7e, 0xa7, 0x7b, 0x79, 0x58, 0x81, 0x80, 0x68, 0x69,
  0x86, 0x88, 0x62, 0x74, 0x9c, 0x8f, 0x8a, 0x87, 0x77, 0xb1, 0x76, 0x6c,
  0xbf, 0xa2, 0x65, 0x79, 0x4b, 0xe9, 0x94, 0x3e, 0xa0, 0x80, 0x9a, 0x6a,
  0x23, 0xc1, 0x7a, 0x53, 0x5c, 0x50, 0x70, 0x92, 0x77, 0xc0, 0x71, 0x3a,
  0x5b, 0x88, 0x7c, 0x83, 0xb3, 0x63, 0x91, 0x73, 0x94, 0x7b, 0x73, 0x80,
  0xb0, 0x71, 0x7f, 0x73, 0xac, 0x85, 0x9f, 0x6e, 0x62, 0xd2, 0x7c, 0x64,
  0x8f, 0x77, 0x9f, 0x72, 0x11, 0xb9, 0x96, 0x57, 0xba, 0x58, 0xa9, 0x7d,
  0x57, 0xce, 0x96, 0x43, 0xb8, 0x6e, 0x71, 0xab, 0x64, 0xc9, 0xa0, 0x56,
  0xb4, 0x79, 0x95, 0x7a, 0x59, 0x95, 0x9f, 0x87, 0xa3, 0x74, 0x94, 0x80,
  0x7b, 0x8e, 0xa7, 0x78, 0x98, 0x83, 0x74, 0x80, 0xad, 0x76, 0x84, 0x73,
  0x89, 0x94, 0x90, 0x5c, 0xad, 0x81, 0x94, 0x98, 0x8b, 0x76, 0x81, 0x5f,
  0x5d, 0xa6, 0x82, 0x6e, 0x93, 0x84, 0x7c, 0x84, 0x87, 0x9a, 0x8a, 0x76,
  0x7f, 0x91, 0x83, 0x94, 0x91, 0x67, 0x68, 0x72, 0x91, 0x81, 0x72, 0x7c,
  0x8c, 0x98, 0x77, 0x3f, 0x6a, 0x9b, 0x83, 0x90, 0x6c, 0x94, 0x88, 0x38,
  0x74, 0x8a, 0x67, 0x8b, 0x71, 0x6d, 0x9d, 0x5e, 0x98, 0x93, 0x4e, 0x6c,
  0x6a, 0xab, 0x87, 0x56, 0xb8, 0xac, 0x72, 0x71, 0x4a, 0xc9, 0x8b, 0x50,
  0xa3, 0x81, 0xb1, 0x5a, 0x18, 0xbf, 0x7a, 0x4f, 0x48, 0x58, 0x8c, 0x65,
  0x86, 0xc9, 0x63, 0x35, 0x79, 0x89, 0x93, 0x7c, 0xb7, 0x89, 0x64, 0x75,
  0x9b, 0x7d, 0x68, 0x94, 0x90, 0x8b, 0x63, 0x6b, 0x8a, 0x97, 0x89, 0x92,
  0x70, 0xba, 0x8c, 0x6a, 0xa3, 0x68, 0xad, 0x75, 0x29, 0xd2, 0x7f, 0x53,
  0x92, 0x58, 0x9a, 0x7e, 0x48, 0xc6, 0xa1, 0x53, 0xcf, 0x67, 0x8e, 0xc3,
  0x52, 0xb5, 0xb9, 0x76, 0xc8, 0x8e, 0xb2, 0x96, 0x4d, 0x8e, 0xb3, 0x77,
  0x9a, 0x94, 0xc4, 0x6c, 0x6f, 0x87, 0x8c, 0x82, 0x8f, 0x86, 0x73, 0x9c,
  0xa1, 0x77, 0x90, 0x68, 0x93, 0x94, 0x6e, 0x7c, 0xaf, 0x87, 0x71, 0x7b,
  0x89, 0x76, 0x7b, 0x82, 0x6e, 0x9e, 0x7d, 0x79, 0x62, 0x84, 0x71, 0x7f,
  0x7e, 0x8c, 0x8d, 0x66, 0x6c, 0x87, 0x94, 0x9d, 0x75, 0x8b, 0x85, 0x70,
  0x7e, 0x7b, 0x98, 0x78, 0x88, 0x9a, 0x9a, 0x52, 0x61, 0x8c, 0x93, 0x76,
  0xa1, 0x6b, 0x74, 0x5d, 0x87, 0x89, 0x79, 0x6e, 0x9d, 0x7f, 0x88, 0x70,
  0x86, 0xa0, 0x7f, 0x7a, 0x8f, 0x8c, 0x75, 0x40, 0xba, 0x9d, 0x86, 0x6f,
  0x35, 0xd0, 0x73, 0x4b, 0xb5, 0x84, 0x80, 0x4c, 0x22, 0xbc, 0x71, 0x4f,
  0x74, 0x59, 0x83, 0x6c, 0x62, 0xab, 0x7d, 0x49, 0x47, 0x7c, 0x5f, 0x75,
  0xce, 0x83, 0x6f, 0x74, 0x78, 0x8a, 0x65, 0xb4, 0xa6, 0x74, 0x6b, 0x64,
  0xa3, 0x8a, 0x89, 0x86, 0x83, 0xb5, 0x7f, 0x77, 0x82, 0x67, 0xa7, 0x51,
  0x20, 0xd8, 0xb4, 0x54, 0xb0, 0x64, 0x99, 0x7e, 0x54, 0xa6, 0xa4, 0x4c,
  0xcd, 0x85, 0xa1, 0x8d, 0x52, 0xcc, 0xa0, 0x70, 0xba, 0x78, 0x9c, 0x8a,
  0x4e, 0xa3, 0x97, 0x7c, 0x94, 0x81, 0xa6, 0x68, 0x71, 0x93, 0x94, 0x7e,
  0x88, 0x8d, 0x56, 0x90, 0x86, 0x78, 0x84, 0x8c, 0x7c, 0x94, 0x9b, 0x7d,
  0x9b, 0x9c, 0x93, 0x8c, 0x7b, 0x83, 0x8f, 0x7e, 0x75, 0xaf, 0x8e, 0x60,
  0x7b, 0x77, 0x8a, 0x80, 0x8b, 0x8e, 0x92, 0x5b, 0x97, 0x7f, 0x88, 0x8d,
  0x84, 0x7e, 0x94, 0x64, 0x87, 0x84, 0x81, 0x94, 0x84, 0xa7, 0x5d, 0x6e,
  0x79, 0x8c, 0x7e, 0x8f, 0xbd, 0x79, 0x79, 0x4a, 0x97, 0x7d, 0x7d, 0x6c,
  0x95, 0x87, 0x6b, 0x80, 0x9c, 0x85, 0x5e, 0x72, 0x7d, 0x91, 0x71, 0x60,
  0xaf, 0x88, 0x84, 0x79, 0x40, 0xb0, 0x91, 0x80, 0x9e, 0x85, 0x7b, 0x4f,
  0x38, 0xb5, 0x69, 0x45, 0x65, 0x61, 0x72, 0x5c, 0x74, 0xc5, 0x7a, 0x54,
  0x44, 0x77, 0x78, 0x8d, 0xbf, 0x80, 0x67, 0x72, 0x8b, 0x86, 0x58, 0xb4,
  0x94, 0x7b, 0x8b, 0x84, 0xac, 0x8b, 0x88, 0xa0, 0x6f, 0xc7, 0x81, 0x86,
  0xa0, 0x66, 0x94, 0x64, 0x3b, 0xc7, 0xb6, 0x57, 0xb4, 0x69, 0x8f, 0x89,
  0x37, 0xbe, 0xcb, 0x3d, 0xc7, 0x75, 0x87, 0xac, 0x73, 0xd2, 0xaf, 0x7a,
  0xaa, 0x88, 0xb4, 0x86, 0x42, 0x93, 0x98, 0x8d, 0x89, 0x7a, 0xc1, 0x72,
  0x69, 0x82, 0x97, 0x6f, 0x93, 0x82, 0x8b, 0x9e, 0x9b, 0x96, 0x82, 0x7a,
  0x87, 0x8c, 0x81, 0x74, 0x94, 0x8f, 0x82, 0x84, 0x8c, 0x8f, 0x97, 0x75,
  0x6f, 0x88, 0x7d, 0x63, 0x8d, 0x7b, 0x90, 0x7c, 0x88, 0x8f, 0x86, 0x64,
  0x7f, 0x95, 0x7b, 0x93, 0x79, 0x8c, 0x7a, 0x8f, 0x7b, 0x87, 0x6e, 0x7c,
  0x9e, 0x7e, 0x6a, 0x55, 0x8f, 0x90, 0x8a, 0x80, 0xa1, 0x71, 0x7f, 0x5a,
  0x83, 0x8e, 0x67, 0x91, 0x70, 0x7b, 0x77, 0x91, 0x86, 0x81, 0x6f, 0x74,
  0x6e, 0x8a, 0x81, 0x59, 0xc5, 0x96, 0x7e, 0x7c, 0x5d, 0xb1, 0x81, 0x58,
  0x9b, 0x7a, 0xa4, 0x76, 0x3e, 0xa8, 0x73, 0x4f, 0x5f, 0x73, 0x9b, 0x74,
  0x5b, 0xab, 0x6c, 0x53, 0x5b, 0x75, 0x69, 0x89, 0xcd, 0x6c, 0x88, 0x79,
  0x71, 0x92, 0x6c, 0x80, 0xaa, 0x88, 0x80, 0x74, 0xa4, 0x87, 0x74, 0x89,
  0x5a, 0xca, 0x8f, 0x7d, 0x98, 0x83, 0xa0, 0x5e, 0x29, 0xcc, 0xad, 0x5b,
  0xb3, 0x5d, 0x99, 0x7e, 0x29, 0xa5, 0xb1, 0x6a, 0xc8, 0x71, 0xa5, 0x88,
  0x80, 0xbf, 0x93, 0x69, 0xe1, 0x7f, 0x79, 0x97, 0x23, 0x7a, 0x9e, 0x85,
  0x9c, 0x71, 0xa0, 0x6d, 0x5e, 0x7d, 0xad, 0x79, 0x64, 0x75, 0x99, 0x8a,
  0x94, 0x98, 0x78, 0x97, 0x78, 0x87, 0x81, 0x97, 0xab, 0xa9, 0x72, 0x80,
  0x6d, 0x70, 0x84, 0x7a, 0x70, 0x94, 0x97, 0x79, 0x7c, 0x78, 0x78, 0x90,
  0x7e, 0x90, 0x9e, 0x6e, 0x92, 0x6e, 0x89, 0x9c, 0x71, 0x85, 0x8b, 0x73,
  0x9e, 0x76, 0x87, 0x85, 0x76, 0x9e, 0x81, 0x82, 0x8e, 0x95, 0x81, 0x71,
  0x7d, 0x6e, 0x5a, 0x72, 0x8d, 0x7c, 0x64, 0x90, 0x99, 0x7c, 0x5c, 0x6b,
  0x81, 0xa2, 0x80, 0x83, 0x7d, 0xae, 0x59, 0x51, 0xb7, 0x98, 0x95, 0x83,
  0x5a, 0xb9, 0x6d, 0x53, 0xc3, 0x72, 0x9e, 0x61, 0x3f, 0xa7, 0x64, 0x4b,
  0x66, 0x72, 0x83, 0x64, 0x53, 0xb2, 0x71, 0x55, 0x49, 0x7a, 0x89, 0x8c,
  0xcb, 0x97, 0x8e, 0xa0, 0x70, 0xa0, 0x65, 0xb3, 0x9f, 0x9e, 0x70, 0x77,
  0x92, 0x73, 0xa8, 0xba, 0x86, 0xd7, 0x88, 0x72, 0x82, 0x6e, 0x8e, 0x7f,
  0x1c, 0xc5, 0xb4, 0x56, 0xb4, 0x6d, 0xa9, 0x63, 0x48, 0xb3, 0xa8, 0x66,
  0xd4, 0x83, 0x74, 0x93, 0x87, 0xb1, 0xa3, 0x87, 0xbb, 0x7c, 0x8a, 0x84,
  0x50, 0x92, 0x9d, 0x80, 0xa8, 0x82, 0xaa, 0x85, 0x79, 0x61, 0x92, 0x8e,
  0x89, 0x6f, 0x7c, 0x86, 0xa5, 0x8a, 0x8d, 0x70, 0x66, 0x9d, 0x71, 0x83,
  0x96, 0x99, 0x77, 0x88, 0x93, 0x75, 0x92, 0x95, 0x73, 0x92, 0x73, 0x5f,
  0x93, 0x6a, 0x7a, 0x7f, 0x87, 0x79, 0x8a, 0x8c, 0x87, 0x87, 0x71, 0x73,
  0x86, 0x8f, 0x80, 0x68, 0x93, 0x9a, 0x8d, 0x7e, 0x96, 0x8d, 0x72, 0x68,
  0x67, 0x85, 0x8c, 0x94, 0xaf, 0x76, 0x6b, 0x67, 0x7d, 0x85, 0x58, 0xa7,
  0x7e, 0x68, 0x90, 0x8b, 0x7f, 0x8d, 0x9f, 0x65, 0x85, 0x99, 0x58, 0x64,
  0xd5, 0x88, 0x84, 0x77, 0x4b, 0xad, 0x77, 0x68, 0xb4, 0x7b, 0x68, 0x53,
  0x38, 0xb5, 0x58, 0x49, 0x6b, 0x60, 0x7b, 0x66, 0x81, 0x88, 0x61, 0x64,
  0x6a, 0x6b, 0x86, 0xa0, 0xda, 0x7e, 0x6e, 0x90, 0x74, 0x82, 0x62, 0xa3,
  0xba, 0x9b, 0x83, 0x88, 0x98, 0x7d, 0xa7, 0x98, 0x71, 0xc5, 0x91, 0x78,
  0x6e, 0x46, 0x7d, 0x7a, 0x31, 0xca, 0x94, 0x4a, 0xba, 0x64, 0x93, 0x74,
  0x43, 0xad, 0xa0, 0x5c, 0xc8, 0x7b, 0xa8, 0x89, 0x68, 0xd1, 0x8c, 0x6f,
  0xd8, 0x69, 0xa7, 0x95, 0x58, 0x78, 0x9d, 0x7e, 0xa3, 0x70, 0xa8, 0x8b,
  0x5c, 0x5f, 0x95, 0x7e, 0x96, 0x7f, 0x75, 0x80, 0x9d, 0x75, 0x7d, 0x8f,
  0x5a, 0x8d, 0x89, 0x90, 0x88, 0x93, 0x7b, 0x79, 0x91, 0x86, 0x9b, 0x7c,
  0x61, 0x7f, 0x8a, 0x66, 0x9b, 0x66, 0x87, 0x7b, 0x79, 0x99, 0x4d, 0x5f,
  0x87, 0x77, 0x61, 0x84, 0x6a, 0x7d, 0xa4, 0x77, 0x77, 0x84, 0x7c, 0x76,
  0x94, 0x8a, 0x86, 0x74, 0x5b, 0x92, 0x70, 0x9d, 0xae, 0x67, 0x6e, 0x71,
  0x86, 0x8e, 0x6b, 0x8c, 0x8a, 0x74, 0x8e, 0x5d, 0x7e, 0x9e, 0x5c, 0xa4,
  0x6b, 0x65, 0x69, 0x5e, 0xc5, 0x8e, 0x64, 0x73, 0x40, 0xba, 0x6d, 0x58,
  0xab, 0x70, 0x7f, 0x5e, 0x1d, 0xb9, 0x76, 0x4e, 0x8d, 0x5b, 0x8a, 0x68,
  0x82, 0xa6, 0x6b, 0x6f, 0x54, 0x58, 0x50, 0x9e, 0xca, 0x74, 0x57, 0x9f,
  0x50, 0x79, 0x65, 0xc3, 0xb2, 0x9b, 0x74, 0x89, 0x78, 0x71, 0x9b, 0xa8,
  0x70, 0xbd, 0x64, 0x7d, 0x8a, 0x64, 0x88, 0x83, 0x44, 0xb9, 0xa7, 0x6d,
